#version: 0.2
2 0
20 1
中 国
记 者
201 3
0 0
工 作
一 个
1 2
2013 年
后 ,
, 但
, 这
我 们
” ,
, 在
1 月
表 示
201 4
1 日
没 有
人 民
1 0
时 ,
。 ”
说 ,
进 行
自 己
12 月
, 不
2014 年
发 展
公 司
国 家
, 并
, 他
: “
, “
, 一
问 题
经 济
可 以
” 的
改 革
社 会
政 府
时 间
中 ,
, 而
的 “
市 场
建 设
已 经
人 员
企 业
安 全
美 国
新 年
3 0
北 京
通 过
管 理
。 ”</w>
日 ,
目 前
1 9
的 一
, 也
报 道
第 一
” 。
发 现
生 活
, 有
, 其
可 能
就 是
, 还
开 始
, 对
活 动
情 况
服 务
, 我
因 为
要 求
” 。</w>
领 导
发 生
研 究
日 本
。 (
部 门
成 为
中 心
。 这
来 ,
的 ,
表示 ,
到 了
世 界
认 为
中 央
全 国
, 以
。 “
他 们
方 面
今 年
上 ,
的 人
现 在
如 果
20 0
影 响
了 ,
项 目
相 关
年 ,
孩 子
网 友
城 市
。 在
万 元
信 息
这 个
的 是
新 闻
什 么
调 查
很 多
了 一
需 要
1 5
规 定
媒 体
重 要
1月 1日
了 解
政 策
, 是
发 布
国 际
关 系
人 的
地 区
部 分
干 部
去 年
系 统
先 生
组 织
实 施
出 现
都 是
外 ,
制 度
亿 元
称 ,
一 步
生 产
教 育
根 据
投 资
学 生
作 为
主 要
2013年 12月
完 成
警 方
书 记
单 位
1 00
天 ,
实 现
人 ,
大 家
介 绍
医 院
现 场
行 为
群 众
一 些
希 望
不 能
2 年
题 :
消 费
香 港
机 构
上 的
一 起
看 到
原 标
文 化
元 旦
使 用
市 民
下 ,
原标 题:
中 的
能 力
, 为
包 括
负 责
方 式
男 子
报道 ,
计 划
环 境
提 供
大 的
健 康
不 是
3 1日
. 5
旅 游
严 重
, 就
这 一
增 长
增 加
进 一步
有 关
电 视
办 公
保 障
5 0
微 博
其 他
公 安
继 续
会 议
交 通
, 将
这 些
, 从
特 别
由 于
显 示
时 候
虽 然
这 样
, 让
同 时
1 1
接 受
年 的
上 海
对 于
全 面
产 品
个 人
。 而
。 但
不 少
法 院
电 话
正 在
技 术
1 4
报 》
所 以
提 出
推 进
手 机
消 息
— —
决 定
2 日
标 准
告 诉
以 及
数 据
关 注
主 席
, 我们
最 高
201 2年
1 8
1 6
大 学
居 民
公 共
历 史
一 直
网 站
收 入
自己 的
基 本
作 用
是 一
机 关
第 二
, 她
质 量
海 南
加 强
保 护
产 业
超 过
学 校
1 3
个 月
小 时
同 时,
说 :“
因 此
甚 至
来 的
专 家
不 同
资 金
铁 路
民 警
责 任
不 过
上 午
银 行
岁 的
吸 烟
人 们
为 了
还 是
非 常
下 午
造 成
按 照
提 高
家 庭
,他 们
或 者
应 该
地 方
食 物
,其 中
达 到
前 ,
污 染
出 ,
当 地
女 士
事 件
进 入
网 络
。 据
, 最
女 儿
精 神
当 时
过 程
经 营
工 程
选 择
积 极
正 式
。 他
设 计
知 道
共 同
身 体
朋 友
两 人
, 只
导 致
一 次
安 倍
4 0
存 在
所 有
1 7
资 源
开 展
节 目
里 ,
综 合
2 5
出 了
条 件
今 天
不 会
新 的
左 右
关 于
习 近
习近 平
好 的
行 政
台 湾
销 售
, 中国
游 客
女 性
过 去
价 格
悉 ,
更 多
除 了
也 是
参 加
金 融
分 钟
合 作
代 表
。 此
爸 爸
更 加
,但 是
还 有
点 ,
主 任
不 断
湖 南
% ,
犯 罪
2 6
, 大
期 间
动 车
目 标
行 动
负责 人
解 决
结 果
支 持
普 查
保 险
必 须
处 理
公 布
介绍 ,
科 学
意 见
空 气
曝 光
成 功
国 内
00 0
为 “
经 过
坚 持
儿 子
直 接
保 持
采 访
解 放
受 到
比 较
建 立
、 “
他 的
是 否
了 。
平 台
工作 人员
获 得
如 何
我 国
参 与
一 名
食 品
结 婚
检 查
措 施
公 开
以 上
能 够
汽 车
落 实
水 平
形 成
6 0
控 制
身 份
认为 ,
跨 年
报 告
昨 日
原 因
1 1月
, 每
违 法
观 众
英 国
机 制
利 用
分 别
首 次
觉 得
月 ,
2 4
人民 网
。 其
随 着
车 辆
案 件
基 础
韩 国
喜 欢
明 确
有 一
卫 生
8 0
各 种
许 多
的 大
昨 天
容 易
。( 记者
第 三
重 点
基 金
这 种
规 模
美 元
农 村
人 士
注 意
是 “
两 个
报 记者
执 行
场 所
针 对
纪 委
的 新
死 亡
最 后
持 续
, 可
委 员
准 备
区 域
1 年
药 品
有 效
全 部
条 例
实 际
事 故
举 行
重 大
任 务
老 人
的 时候
取 得
规 划
提 升
对 此
到 ,
办公 室
开 发
创 新
1 .
统 计
治 疗
怎 么
发 表
办 法
登 记
建 议
市 委
, 要
附 近
经 常
北京 市
2 8
之 一
申 请
来 自
支 付
告诉 记者
, 更
那 么
调 整
纽 约
监 督
派 出
得 到
任 何
德 国
传 统
了 。</w>
的 《
电 影
政 治
努 力
正 常
全 球
3 5
土 地
双 方
不 仅
购 买
社 区
… …
, 被
,这 些
地 铁
再 次
内 容
起 来
行 业
帮 助
一 年
变 化
》 ,
无 法
完 善
具 有
深 化
交 易
,而 且
的 事
亿元 ,
运 动
未 来
显示 ,
安 排
妻 子
减 少
领导 干部
的 。
2 9
长 期
统 一
风 险
女 子
农 民
2 7
集 中
部 队
营 养
有 人
主 义
音 乐
通 知
日 前
一 家
工作 ,
o n
照 片
宣 传
只 有
出 的
出 台
验 证
养 老
范 围
专 业
2 3
升 级
看 ,
新 疆
执 法
高 速
联 系
监 管
消费 者
武 汉
当 天
回 家
分 析
联 合
改 善
功 能
不 得
派出 所
气 温
医 生
主 持
一 样
涉 嫌
战 略
一 定
设 施
生 物
强 调
开 放
之 后,
目前 ,
1月 2日
集 团
进行 了
西 安
明 星
人民 币
之 间
问题 ,
明 显
后 的
产 生
乘 客
中 共
指 标
卫 视
财 政
罗 斯
张 某
国 务
关 键
规 范
突 然
稳 定
同 志
之 前
” 、“
完 全
连 续
学 习
2 2
解放 军
网 上
其 实
是 在
推 动
成 了
及 时
海 口
引 起
领 域
舒 马
国务 院
不 到
南 京
30 日
结 构
环 保
预 计
资 料
系 列
法 律
合 肥
也 不
, 该
道 路
舒马 赫
禁 烟
每 天
体 系
这 么
然 后
, 如果
, 全
训 练
大 量
吗 ?
促 进
驾 驶
成 立
局 长
依 法
位 于
俄 罗斯
广 场
图 )</w>
, 所以
苹 果
用 户
现 代
有 些
并 不
家 人
公 众
9 月
, 使
的 情况
方 米
引 发
将 在
实 行
患 者
东 西
此 前
启 动
广 东
年 轻
天 气
, 目前
民 族
公 路
里 的
试 验
民 众
来 到
朝 鲜
透 露
才 能
委 会
比 如
有 限
工 业
不 要
, 因为
生 素
拥 有
2 .
12月 31日
, 多
带 来
各 地
, 与
立 即
此 次
安 徽
央 视
含 有
住 房
习 惯
科 技
最 大
是 一个
旅 客
。 当
! ”
验证 码
禁 止
方 案
平 均
人 口
一 位
19 9
自 然
现 象
时 代
事 业
下 的
。 不过
越 来
越来 越
尤 其
吸 引
, 同时
, 即
需 求
电 子
治 理
都 有
感 觉
价 值
随 后
确 保
官 员
商 品
发现 ,
面 对
采 取
起 ,
相 比
制 造
做 好
飞 机
设 备
男 人
指 出,
成 都
力 量
维 生素
物 质
比 赛
发 言
也 有
一 般
, 你
思 想
工作 的
地 产
四 川
利 益
普 通
8 年
外 交
以 来,
材 料
我 的
5 年
, 新
避 免
突 破
费 用
男 性
嫌 疑
3 .
恐 怖
压 力
动 物
,这 是
村 民
她 的
。 从
2014年 1月1日
) ,
证 明
发 挥
具 体
规定 ,
幸 福
这样 的
近 日
的 。</w>
效 果
公 园
活动 ,
运 输
职 业
结 束
监 测
的 中国
。 我
改革 的
改 造
年 度
娱 乐
司 机
十 分
考 虑
状 态
汉 中
度 ,
医 疗
军 事
7 0
2013年12月 31日
, 因此
饮 食
阶 段
迅 速
确 定
女 人
严 格
就 会
对 方
多 次
和 平
自 治
疾 病
委员 会
如 今
发展 的
加 快
人 大
下 来
00 元
, 当
主 动
蛋 白
收 购
小 区
呵 呵
了解 ,
城 镇
发言 人
。 她
9 0
生 态
爱 情
内 的
万 人
至 少
属 于
另 一
加 大
面 积
采 用
官 方
多 ,
回 应
。 2013年
武 器
收 费
成 员
导 弹
困 难
了 “
丰 富
条例 》
有 所
新 型
年 前
分 ,
全 市
,这 个
这 是
样 的
成 绩
办 理
公共 场所
,还 有
近 日,
记者 从
祝 福
总 体
如 此
以 来
丈 夫
P M
都 会
艺 术
福 州
然 而
来 源
有 的
晚 上
建 筑
i n
2 .5
通 报
消 防
民 生
推 出
指 导
同 比
召 开
十 八
相 当
方 法
截 至
, 小
运 行
的一 年
子 ,
体 制
监 察
机 场
时 报》
应 当
妈 妈
农 业
充 分
自治 区
老 师
父 亲
带 着
处 罚
城 区
公 里
值 得
上 了
。 我们
% 的
给 予
终 于
期 待
提 醒
制 定
出 来
通 讯
电 (
年 龄
年 来
培 训
, 甚至
辽 宁
战 斗
凌 晨
, 可以
, 又
次 ,
处 于
亚 洲
201 0
领 馆
的 高
母 亲
方 向
打 造
宣 布
反 对
劳 动
利 亚
列 车
几 乎
停 车
。 该
,以 及
顺 利
那 些
符 合
检 察
新 华
战 争
10 月
% 。</w>
纷 纷
汉中 市
林 志
投 入
全 省
中 华
一 天
结 合
挑 战
拍 摄
居 住
司 法
上 市
, 用
说 。</w>
为 主
自 行
联 网
3 日
部 署
深 入
整 治
品 牌
公 务
, 把
还 在
涉 及
反 映
参 拜
了解 到,
, 包括
迎 来
认 识
的 小
各 级
只 能
厦 门
e r
父 母
汪 峰
改 变
收 视
报 警
房 地产
恢 复
保 证
一 种
资 产
空气 质量
真 正
男 友
消息 ,
春 晚
基 地
全 会
之 后
不 可
上 述
a n
! ”</w>
表 现
机 动车
》 的
想 到
形 象
即 将
201 1年
, 向
方面 ,
指 挥
多 的
党 的
让 人
生 命
流 动
合 理
100 0
,不 少
离 开
平 方米
下 降
,对 于
获 悉,
程 度
智 能
整 个
总 理
家 里
威 胁
大 ,
只 是
协 议
专 门
3 月
,还 是
电视 台
状 况
此 外,
有限 公司
学 院
增 强
公 交
。 记者
“ 三
i P
百 姓
气 象
来 说,
州 市
尽 管
举 报
业 务
8 月
3 6
2 1
门 口
设 置
警 察
的是 ,
根 本
损 失
人民 法院
享 受
身份 证
肯 定
老 年
第一 次
生 育
数 量
强 化
呢 ?
以 下
, 由
运 营
的 问题
特 色
火 车
最 终
刚 刚
党 委
先 后
“ 一
4 5
找 到
志 愿
7 月
30 6
, 记者
, 然后
, 无
间 ,
福 建
意 义
会 ,
中 小
on e
,不 仅
都 不
爆 炸
图 片
危 险
劳 教
。 同时,
. 8
补 贴
海 外
模 式
反 腐
一 下
. 7
. 6
真 的
深 圳
带 头
力 ,
6 月
计 生
神 社
省 委
海 军
意 识
大 多
举 办
20 00
陕 西
部 、
迎 接
申 报
王 某
林志 颖
心 的
周 边
协 调
儿 童
作 出
3 7
12 306
食 用
难 以
的 时间
据 悉,
形 式
家 长
实 践
夫 妻
多 个
修 订
,不 过
青 年
资 本
视 频
目 的
的 生活
的 一个
最 大的
放 在
嫌疑 人
因 素
吴 京
、 《
, 再
靖 国
的 重要
最 新
审 批
供 应
会 在
仍 然
靖国 神社
金 山
违 纪
粉 丝
每 年
更 是
依 然
国 有
公 益
人 体
事 情
了 《
“ 呵呵
9 年
, 于
配 合
辽宁 舰
职 务
经 历
简 单
河 北
有 望
总 统
将 于
动 ,
不 再
2010 年
% 。
春 节
元 ,
购 物
要求 ,
文 明
心 理
另 外
创 造
修 改
2013年 ,
1 、
, 李
降 低
毕 业
最 近
合 同
受 伤
内 部
共 有
公 平
体 育
。 有
T V
, 到
确 实
直 升
哈 哈
各 项
做 出
位 置
人 工
事 实
事 ,
。 如果
纪 念
接 到
年 终
工 商
同 学
力 的
全面 深化
保 健
优 势
h one
3 1
19 8
还 要
特 殊
曾 经
昨 日,
拒 绝
对 象
子 、
印 度
养 生
允 儿
马 上
首 先
逐 渐
说, “
航 空
租 房
承 担
原 则
作 风
以 前
了 。”
PM 2.5
, 那
行 ,
情 绪
性 的
. 9
,我 国
面 临
队 伍
里 面
郑 州
蔬 菜
维 护
竞 争
感 到
增 值
在 这
前 往
免 费
会 上
了 一个
专 项
三 中
iP hone
遇 到
近 期
贯 彻
的 主
演 员
新华 社
担 任
手 段
并 没有
展 开
制 作
分 配
充 满
7 年
,也 是
, 就是
部 长
谢 楠
程 序
的 第一
用 于
普 遍
导 演
好 ,
女 孩
只 要
几 个
会 有
临 时
两 岸
, 它
试 点
经 理
累 计
法 国
旧 金山
快 乐
3 年
3 00
. 0
, 今年
离 婚
相 信
皮 肤
的 话
滑 雪
张 亮
工 资
三中 全会
, 称
, 且
都 在
软 件
相 对
歌 手
梦 想
是 ,
投资 者
手 续
往 往
强 烈
广 大
你 们
东 北
, 2014年
说 明
真 实
监 控
清 楚
扩 大
手 术
小 心
区 、
、 大
遭 遇
赶 到
许 ,
认 真
新 一
成 本
意 味
复 杂
吐 槽
同 样
南 海
交 流
三 个
2 月
车 的
考 试
正 定
控 烟
指 数
很 快
幼 儿
哪 儿
变 得
出 席
出 一
上 升
。此 外,
5 月
. 4
,并 且
, 现在
高 度
贡 献
计 算
袭 击
表示 :“
直升 机
歌 曲
文 件
排 名
愿 意
左右 ,
国 企
为 什么
,而 是
通讯 员
评 价
设 立
研 发
的 热
每 个
正 确
来 说
机 会
所 谓
感 情
似 乎
” “
, 能
黄 金
领导 人
而 言
特别 是
演 唱
全 年
6 年
, 2013年
纪 录
意 外
平 时
基 层
化 、
, 希望
, 已
随 后,
车 型
航 母
自 身
纳 入
汽 油
救 援
岁 ,
在 微博
上 班
, 都
, 后
, 中
) 、
限 制
防 止
货 币
衣 服
舞 台
自 动
紧 张
的 方式
的 好
据 了解,
广 告
市 长
对 外
去年 12月
不 足
》 、《
” 等
, 看
进 展
记 录
时 期
打 开
尤其 是
子 的
多 名
协 会
其 中
上 涨
。 一
、 高
, 却
至 今
政 协
操 作
总 是
商 业
也 会
中共 中央
购 票
规 则
西 藏
的 心
总 领馆
就 在
小 组
增值 税
城 乡
呼 吁
告诉记者 ,
去 哪儿
加 入
切 实
,有 的
) 的
重 视
酒 店
这 次
脂 肪
满 足
水 果
常 委会
声 音
和 “
可能 是
化 的
债 务
体 现
予 以
。 因此
e l
诈 骗
很多 人
形 势
市委 书记
季 度
吸 收
另 外,
作 品
令 人
亮 相
4 日
, 两
高 的
高 峰
马 拉
过程 中
距 离
比 例
更多 的
救 助
怀 孕
应 急
将 其
女 友
号 线
内 ,
众 多
湖南 卫视
来 看,
最 低
担 心
太 阳
哪 些
冬 季
世 纪
5 00
背 景
组 成
等 地
的 行为
坚 决
军 营
你 的
事 项
。 要
K TV
质 疑
股 份
美 丽
空 间
直 到
的事 情
特 点
爸爸 去哪儿
教 授
广 州
唯 一
反 应
动 力
加 上
公安 局
偶 像
今 日
也 将
中 午
一 点
m i
, 通过
音乐 会
说 法
著 名
线 路
的 工作
民 主
小 姐
大 型
吃 饭
发 行
出 口
事 发
三 沙
万 科
. 3
, 没有
职 工
罚 款
明 年
文 章
房 产
开始 ,
广 播
女 星
多 少
发 ,
刑 事
几 天
依 依
。 目前,
26 日
鼓 励
身 边
表 演
经 验
纽约 时报》
的 作用
毛 主席
政 法
推 荐
建 成
力 度
体 验
逐 步
考 核
现 实
激 素
期间 ,
方 便
必 要
家 中
安倍 晋
地区 的
各 类
半 年
先 进
假 期
交 警
一个 人
M P
, 比如
预 防
集 体
长 江
配 套
起 了
认 证
电 脑
欢 迎
有 “
日 常
提 前
快 速
子 女
十八 届
以 往
互 联网
下 一
。 由于
。 因为
, 成为
路 线
财 产
许 可
站 在
社会 主义
的 发展
晚 ,
施 工
探 索
履 行
家 的
天 然
增加 了
冠 军
伤 害
上午 ,
。其 中,
4 月
金 额
表 明
血 液
法 规
核 心
本 身
有 了
新 建
故 事
报道 称,
引 导
开 通
客 户
外 媒
也 在
。 《
高速 公路
道 德
车 ,
融 资
的 地方
疫 苗
游 戏
很 难
开 除
团 队
博 物
》 中
。 为
4 年
3 8
, 如
, 和
非 法
证 实
讲 话
类 似
突 出
日 前,
接 待
指 出
承 认
委 、
夫 妇
发 出
动 态
做 法
。 根据
? ”
, 《
高 校
趋 势
赔 偿
覆 盖
补 充
血 压
自 由
照 顾
热 线
时 报
新 的一年
接 近
拘 留
承 诺
打 击
天 津
大 气
含 量
初 步
作 战
亿 美元
东 方
1 个
, 导致
重 庆
讨 论
经济 普查
细 节
物 业
检察 院
标 志
打 电话
多 年
国 外
参拜 靖国神社
出 生
伟 大
人 在
主 演
两 次
3 个
追 求
认 定
自 主
温 暖
段 时间
最 好
攻 击
成 果
情况 ,
应 对
尽 量
就 能
安倍晋 三
在 一起
圣 诞
员 工
发 动
原 来
单 独
公司 的
全面深化 改革
人 数
人 、
乘 坐
中 美
” 号
, 确保
预 测
长 的
采访 时
违 规
航 班
细 胞
相 互
灾 害
湖 北
法 官
斯 坦
所 在
始 终
以 为
a r
,这 样
,一 名
, 实现
, 主要
首 相
邀 请
选 手
超 级
表示 ,“
物 品
歌 葩
权 力
新 区
很 大
当 事
市 政府
家 ,
回 忆
可能 会
利 于
军 队
下 了
上 月
驻 港
驻港 部队
装 备
聊 天
者 的
本 人
早 上
意味 着
当地 时间
孩子 的
三 亚
一 生
。 与
G MP
钓 鱼
贺 词
证 件
美 好
示 范
王 菲
把 手
当 年
国 防
十八届 三中全会
动 作
以 后
中国 的
下午 ,
28 日
,最 终
, 虽然
, 会
高 ,
雾 霾
陆 续
重 新
识 别
表 达
红 色
立 法
着 一
某 某
构 成
来 看
最后 一
排 放
感 谢
客 车
官 兵
娱乐 圈
天 天
团 结
及 其
公 款
优 惠
严 肃
不 久
、 不
” (
,其 实
鸡 蛋
配 置
观 察
英 语
立 案
破 坏
知 识
矛 盾
的 影响
环 节
是 个
故 宫
总 部
张 艺
建设 ,
年终 奖
尽 快
头 ,
地 震
合 乘
各 界
变 成
从 事
两 名
、 李
… …</w>
, 或
邮 票
那 个
调 研
董 事
营 业
舆 论
自行 车
等 待
的 同时,
症 状
男 女
正 是
整 体
收 到
报 销
当 前
山 东
婚 姻
在 2013年
危 害
创 意
分 局
减 肥
党 政
主 体
下 面
12月 30日
1 20
量 的
这 里
街 道
第 一个
祖 国
登 陆
澳 大
湖南 省
李 胜
机制 ,
景 区
新年 第一
听 到
各 国
包 子
几 年
位 ,
今 后
不 知
不 好
3 3
调 控
第 四
盘 点
的 老
潜 艇
我们 的
小 时,
大 陆
名 单
[ 中国
, 除了
速 度
通 行
迎 新
轨 道
见 到
蛋白 质
节 日
至 于
能力 ,
绝 对
等 。</w>
竟 然
澳大 利亚
测 试
抓 获
局 局长
到 底
则 是
刘 某
出 租
停 止
以 “
人 。</w>
习近平 同志
《 纽约时报》
, 美国
, 上
陈 光
长 、
贸 易
萝 卜
群 体
缓 解
给 他
移 动
秩 序
房 屋
态 度
奋 斗
场 ,
唱 歌
十 大
医 学
休 息
, 说
陈光 标
造 型
转 移
身 上
被 告
能 源
等 方面
知 名
此 事
是一 种
播 出
意 思
工作 会议
天 的
多 元
地 ,
围 绕
刺 激
以 后,
。这 些
5 000
,从 而
金 正
还 将
解 释
角 色
理 解
王 正
王正 敏
欧 洲
杭 州
李胜 基
张艺 谋
广 泛
审 理
城镇 化
回 到
咨 询
同 期
出 行
典 型
做 了
人 。
交 往
一 大
、 新
( 图)</w>
豆 腐
话 题
血 管
维生素 C
空 军
秘 密
神 经
热 点
渠 道
浙 江
沈 阳
杨 幂
时 的
时 刻
总 书记
应 用
已 被
屏 幕
发布 会
公 示
不 错
。 虽然
。 200
29 日
19 5
, 要求
, 没
预 期
陈 柏
这 位
详 细
联 播
秘 书
监 狱
爸爸去哪儿 》
河 南
每 日
杨 某
时 许,
新闻 联播
批 评
幼儿 园
和 社会
呈 现
十 二
具 备
公安 机关
公 租房
上 下
。 中国
陈柏 和
纵 火
的 前
的 两
法 》
检 测
查 处
权 益
晚 会
旅 行
摇 号
摄 入
志愿 者
市 值
家 属
大 厦
多 种
加 工
假 日
人大 常委会
了 。”</w>
中 院
。 目前
。 所以
。 对
, 因
都 市
转 变
能 否
看 不
的 不
理 财
满 意
消 化
江 苏
新年 的
情 报
就 业
审 判
大 部分
国 民
合 法
各 个
发展 ,
别 人
分 子
公 告
住 宅
人 物
主持 人
6 5
,只 要
,不 断
,一 些
, 两人
重要 的
询 问
粮 食
确 认
电视 剧
期 徒
期徒 刑
暴 力
整 改
抢 票
我 是
带 领
已 有
土 豪
出 去
值 班
中 。</w>
。这 是
。但 是
,有 人
, 一个
( 记者
鉴 定
释 放
过程 中,
药品 GMP
腐 败
美 女
称 “
相关 负责人
歌 词
机 、
昨 天,
收 益
寻 找
冲 突
休 闲
2014年 1月
阶 梯
错 误
适 合
还 会
献 血
演 出
海南 省
查 ,
机 遇
摄 影
房 间
户 籍
开 车
展 示
大 桥
备 受
同比 增长
发布 的
县 委
功 效
副 主任
公 斤
信 心
优 化
也 要
义 务
中 间
上 一
。 对于
5 2
, 共
面 ,
都 要
遭 到
网友 “
缺 乏
称 :“
科 研
流 行
泽 东
沟 通
毛 泽东
每 月
植 物
有 个
有 一个
数据 显示,
掌 握
房 价
微 信
异 常
平 安
巡 逻
岸 信
对此 ,
处 分
后 来
合 格
健 全
举 措
《 关于
。 然而
” 一
,这 一
, 想
金正 恩
道 :“
经 纪
等 ,
称 为“
眼 睛
电( 记者
牛 奶
深 刻
构 建
是 中国
新年 贺词
投 票
我 省
成 分
并 未
实 在
原 本
保 安
争 议
之间 的
之 路
两 年
万元 ,
一 世
” 是
” 和“
, 提高
马拉 松
退 休
超 市
精神 ,
百 分
环 球
物 流
海 上
污染 物
氧 化
最 佳
时 尚
放 弃
放 假
排 队
往 年
彻 底
小 学
商 务
取 消
区 ,
利 润
决 策
健 身
、 有
” 、
3 4
马 英
随 即
违 反
车 票
路 边
论 文
组 合
紧 急
有 点
无 论
效 率
心 里
当事 人
市场 的
岗 位
大 小
参 观
之 际
不 住
万 美元
“ 我
“ 不
6 00
2 个
鲁 木
鲁木 齐
驻 旧金山
较 大
职 能
老年 人
维 也
维也 纳
纳 税
等 。
研究 生
看到 ,
爆 发
检 验
机 器
有关 部门
文 物
携 带
抽 烟
恋 情
总 结
当 然
底 ,
年 初
平 稳
就 要
尚 未
在 接受
同 事
危 机
到 来
判 处
内 地
以 上的
他们 的
乌 鲁木齐
2 、
19 7
,最 后
% ;
马英 九
院 士
问题 的
轿 车
起 床
走 进
贷 款
耕 地
老 虎
统计 ,
的 地
男 神
爱 的
月 球
最高 气温
是 不
招 生
战斗 机
成 交
律 师
强 制
并 非
带 动
垃 圾
在 中国
图 】</w>
国家 的
各 自
乡 村
。 经
。 新
1 10
. 1
, 给
黄 某
飞 行
路 上
角 度
职 责
科 院
石 头
甲 午
流 量
审 计
太 平
在 公共场所
国家 安全
国 资
区 的
力 、
份 额
产 权
、 张
? ”</w>
. 2
,这 种
, 据
黑 色
还 没
转 型
贯彻 落实
调查 ,
访 问
老 板
纠 纷
王 导
海 洋
开 启
尊 重
安徽 省
在 北京
在 一
发生 的
前 的
前 来
出 现在
养 殖
允 许
争 取
丰富 的
业 主
一 度
8 8
,于 是
, 便
马 年
颜 色
阳 光
近 年
账 户
说 是
见 面
绿 色
环 比
炸 弹
海口 市
方 的
新 人
损 害
性 ,
广东 省
岸信 介
对 中国
审 核
大 会
回 来
同 意
例 行
住 在
乳 房
中 环
一 致
“ 大
3 名
2013年 的
,不 能
, 造成
适 当
违纪 违法
记者 在
西 部
蜂 蜜
的 主要
注 册
新年 音乐会
很 有
客 运
实 验
定 位
媒体 报道,
同 胞
到 达
利 斯
。这 一
。 另外,
e n
2014年 的
, 积极
, 由于
钓鱼 岛
车 道
车 主
走 访
评 论
记 忆
能 量
签 订
穿 着
白 领
理 论
烟 草
格 勒
来源 :
据 台湾
成 熟
感 受
情 节
开 心
年 代
工作 日
小 米
将 继续
发 放
反 而
加 坡
利 率
关 心
偶 遇
做 到
住 建
人 类
人 才
两 国
下 发
一 辆
a l
8 个
,这 次
, 进一步
, 请
面 的
送 到
老 公
电 动车
点 。
正 义
李 娜
李 先生
无 奈
新闻 》
改革 开放
改 进
恋 爱
得 知
工作 。</w>
宪 法
好 友
大 妈
多 人
外交 部
十 字
区 县
公 里,
优 秀
也 被
中 。
一 切
。 现在
。 可
T C
, 或者
, 促进
量 刑
都 没有
通 道
良 好
自 我
瞬 间
的 照片
生活 的
现 金
永 远
显 然
春 运
推 广
批 准
戒 烟
意见 》
引 来
平 衡
师 傅
家 族
害 人
实际 上
实 事
外 地
台 风
即 使
制 品
全 区
依 据
优 先
们 的
二 是
30 日,
, 坚持
远 离
还 没有
车 站
车 厢
理 念
杂 志
放 松
指 纹
常 委、
完成 了
安全 管理
大 战
在 “
国 土
否 认
分 类
凭 借
他 人
也 没有
一 条
一 张
P O
8 6
4 4
,为 了
, 致
革 命
青 岛
障 碍
通 常
起 诉
赛 季
警 惕
警 告
省 级
的 食物
班 子
爱 心
海 域
森 林
有关 事项
暂 时
日 子
方式 ,
教 师
影 视
工 具
化 名
办 事
再 度
企业 的
件 事
中 有
《 爸爸去哪儿》
A n
5 个
4 00
,只 有
, 大家
首 都
进 步
走 到
调 解
证 据
证 券
西安 市
维 持
研究 中心
的 基础
火 灾
注 重
有 期徒刑
政策 ,
拘 捕
打 算
工 人
将 会
外 国
国 产
印 象
博 士
加 油
副 书记
党政 机关
体 内
了 几
中 新
不 够
万元 。</w>
, 分别
, 全国
预 算
长 沙
进 程
进 口
辖 区
起 来,
评 选
西 亚
立 方米
的时候 ,
的 性
烟 花
温 度
清 晰
流 转
民 政
核 实
查 询
本 次
是 什么
早 熟
整 合
支 撑
拍 照
抓 住
情 ,
当 日
年 底
就 有
实 习
婚 礼
大多 数
台 北
养生 :
元 素
人 气
个 体
不 了
三 大
9 6
, 陈
, 发现
配 备
适 应
足 球
考 生
经济 社会
组 图)</w>
着 力
看 来,
用 水
用 地
理 由
涨 幅
泰 国
本 报
有 着
无 人
提供 了
感 动
情 感
安 装
女 生
大 学生
在 网上
在 内的
在 于
四川 省
四 个
力 。</w>
停车 场
例 ,
主 管
不同 的
万 名
一定 要
l e
9 个
5 5
4 个
,不 要
, 建立
频 道
部 的
的 手
气 ,
民 间
时 30
接 触
持 有
披 露
性 早熟
很 好
强调 ,
引 进
庆 祝
富 含
密 切
大 国
增 速
地 点
在 2014年
厕 所
博物 馆
办公 楼
创 业
出现 了
全 新
作 案
低 于
了一 些
中国 人
两 位
不 如
不 多
《 中国
、 中央
7 个
3 000
12306 网站
,一 直
, 需要
, 推动
高 铁
领导干部 带头
陌 生
问题 。</w>
返 回
达 到了
轻 松
车 内
车 上
超 标
苏 -
节 能
自 杀
老 百姓
第 五
生活 中
生 意
球 队
流动 性
日 报》
数 字
政策 的
抵 达
才 是
成 就
展 现
小 的
子 里
大 约
声 明
土地 增值税
国家 主席
团 体
售 价
党 员
会 的
他 在
人 事
买 了
下 车
万 余
、 中
i mi
1 .5
,并 在
,一 般
, 高
, 总
, 周
, [
( 化名
香 蕉
频 繁
随 意
钟 汉
近 年来
身 材
试 图
行 驶
纪 检
立 刻
窗 口
礼 物
流 程
水 ,
比 特
每 次
格 局
李 某
方面 的
新 版
年 末
就 可以
定 的
大 概
地 位
在 地
化 学
办法 》
判 断
农民 工
保障 性
人 均
不 知道
下 去
。“ 我
。 随后,
。 为了
c h
R a
4 8
, 那么
验 收
顾 客
通知 》
过 来
辞 旧
身 亡
该 公司
许可 证
覃 健
董 秘
舰 艇
经济 发展
相关 部门
爱 好
点 。</w>
激 情
消 除
氛 围
更 好
日本 首相
无 烟
新 修订
摩 托
性 能
张某 某
尼 斯
就 开始
孩子 们
姐 姐
外 的
卫生 计生
出 发
准 确
冲 击
冰 冰
信 任
主 题
中央 纪委
。 2014年
2013年12月 30日
2013年 11月
2 1日
,即 使
,其 他
阳 市
门 ,
长 时间
钟汉 良
郑 利
过 了
货 车
行 的
美 军
网 民
研究 所
病 情
激 动
流 感
期 ,
房 企
总 量
当 晚
开 了
庆 丰
工作 。
局 、
尼 亚
就 不
对 其
奇 石
外 界
图 为
和 谐
和 人民
和 《
分 为
出 版
出 售
内 衣
关 闭
信 用
人 群
亲 属
事业 单位
了 不少
乘 车
三 年
一 场
5 00元
10 点
,但 在
, 连
, 尤其是
龙 八
饰 演
野 生
邮 政
达 成
路 段
视 为
药 物
联 邦
红 十字
睡 眠
省 政府
相 应
的一 种
的 安全
电 台
用 的
爆 料
清 理
新 政
新 农
政府 的
收入 分配
擅 自
接 收
拨 打
扎 丹
惊 喜
性 、
市 、
学 籍
她 们
单独 二
公安 部
党 组
保健 品
人 力
二 战
二 人
上市 公司
一 边
。 今年
。 不
i s
; 而
2 日,
1月 3日
19 6
,每 天
, 经
, 王
, 此
, 既
, 努力
) 。</w>
龙八 部
赶 紧
说 话
让 他
装 修
草 莓
联合 国
级 人民法院
称 号
科学 家
私 人
禁止 吸烟
盗 窃
火车 站
梅 西
本 市
期 的
搭 配
提 起
提 示
措施 ,
强 行
强 大
小 伙
完 美
子 怡
妇 女
失 去
太平 洋
天 龙八部
国企 改革
取得 了
办公 厅
办 案
创 作
余 额
传 播
人 死亡
也 可以
上 。</w>
。其 中
。不过 ,
a d
An g
, 预计
, 结果
, 张
( 组图)</w>
领导 小组
防 范
闯 入
锻 炼
补 偿
考 察
租 赁
的 风险
的 历史
热 闹
海 峡
步 伐
显 著
明 的
常 务
市场 化
少 年
学 术
大 力
外 出
处 置
基金 会
咖 啡
创 建
养老 机构
关系 的
公 民
侦 查
以 上,
仍 有
人 社
互 相
习 俗
之 所以
4 3
200 8年
高 血压
项目 ,
随 时
陷 入
防 治
销 量
铁路 运输
输 入
让 你
范围 内
范 冰冰
脱 离
老 婆
给 了
第二 次
究 竟
石 家
看 见
的 消息
独 立
港 澳
浪 费
沙 发
求 婚
推 行
得 了
常 见
市 区
室 内
宝 马
嫌 犯
多 数
多 家
城 管
坚 定
周 年
吴 天
发生 在
协 商
十八 大
十 年
共 和
事 务
乡 镇
主 权
中 方
不 良
一 套
。 它
。 2012年
9 4
8 5
5 日
, 必须
, 很多
首 度
陈 某
透露 ,
选 举
过 于
路 ,
该 男子
解 读
花 园
约 会
米 ,
管理 局
石家 庄
睡 觉
的 外
生 日
环保 局
火 箭
清 城区
气 氛
曾 在
更 新
摄 氏
拿 出
报 纸
想 法
患 有
总 局
山 区
对 手
学 者
大 幅
基础 设施
地 图
在微博 上
副 局长
判 决
养老 金
便 利
侵 略
人民 检察院
三 星
一个 月
。 通过
。 比如
。 他们
、 水
”, “
” 在
a t
S U
9 5
24 小时
,有 效
, 仅
驻旧金山 总领馆
食品 药品
防 空
长 寿
贩 毒
诸 多
记 得
英 雄
良 好的
耳 蜗
老 院
罗 伯
纪 律
红十字 会
第三 次
短 信
的 家
的 学生
概 念
更 为
早 在
拿 着
性 感
度 的
巴 马
少 女
将 是
宝 宝
央 行
天然 气
后 再
发 的
发 改
南 宁
千 万
加 拿
制度 ,
元 。</w>
依 旧
之 外,
上 线
6 个
200 9年
,也 有
,不 得
,“ 我
, 共同
黄 色
首 个
镜 头
过 的
起 到
赵 忠
赵忠 祥
走 向
赛 事
资 格
诉 讼
视 窗
街 口
节 奏
统 筹
的 、
独 特
点 的
汇 报
摆 放
据 介绍,
执 政
打 工
想 要
开 工
延 续
康 复
完 整
多 项
地 下
固 定
商 场
吴天 君
另 一个
受 贿
制度 的
决 心
冰 雪
公平 正义
信 号
保障性 住房
作 业
估 计
仍 在
人民 群众
亚 鹏
之 声
中华 民族
中 日
中 学
不得 不
不 太
不 但
三 角
一样 ,
一 把手
《 条例》
。 截至
“呵呵 ”
o m
el a
SU V
3 2
1月2日 电(
) 。
餐 饮
青 春
院 长
陕西 省
部 位
这 项
足 够
负 担
调 侃
说 “
让 她
蓝 洁
胜 利
罗伯 特
细 则
线 城市
章 子怡
移 民
的 水
爱 你
江 西
案 例
未 能
是 为了
星 期
无 疑
敏 感
收 获
提出 了
打 破
成 年
性 和
志 强
差 距
局 势
尸 体
官方 微博
婴 儿
奶 粉
奖 励
奔 驰
天 。</w>
培 养
商 家
否 则
吗 ?</w>
名 ,
各 大
单独二 孩
共 识
公 办
党委 书记
供 电
人民网 北京
也 没
东 京
不 敢
上 有
万 吨
一 批
。这 个
。而 且
7 2
, 随后
, 认为
, 特别是
, 应该
麻 烦
零 点
雪 莲
阅 读
那 里
辐 射
轰 炸
跨年 晚会
被告 人
被 困
蓝洁 瑛
药品 生产
美 方
经 费
红 薯
真 是
看 来
的 车
的 国家
的 变化
留 在
犯罪 嫌疑人
特 征
炮 台
海南 视窗
法 定
汉 字
比特 币
显 得
教育 实践
提 到
投 诉
慈 善
建设 的
巴 勒
巴勒 斯坦
州 、
尔 加
家 居
外 来
售 票
呼 吸
周 围
吉 尼斯
口 腔
化 工
化 ,
力 和
分 泌
共 计
全 体
作用 ,
人力 资源
互 动
严 厉
不 在
三 是
一 系列
。 作为
、 无
” ;
F -
Ang ela
9 8
3 、
2014年1月1日 起
, 好
长 ,
遗 憾
违法 行为
许 强
警 务
衰 老
营 造
英国 《
花 费
自 信
能力 。</w>
维 族
经纪 人
福 利
短 期
的 家庭
的 企业
的 价格
病 人
疑 似
留 下
热 议
法 庭
河北 省
歼 -
武 装
本 网
普查 员
新修订 药品GMP
摄 像
执法 人员
总 额
急 诊
急 救
建设 、
居住 证
奥 巴马
头 部
头 条
多 年的
国家主席 习近平
囚 犯
和 其他
动态 验证码
刘 许强
出 动
凝 聚
关 塔
作用 。</w>
人民网 海南视窗
人 防
了 !
为 何
严 禁
上 去
》 等
、 小
“ 中国
o r
E TC
; 在
6 4
, 加强
(化名 )
高 达
高 考
高 兴
领 土
领 事
陆 丰
钱 ,
邮 报》
送 给
转 发
读 书
词 汇
被 盗
节 约
色 列
聚 集
第一 时间
秀 英
神 秘
知 情
相 似
球 员
热 量
浪 漫
浓 度
水 价
气 候
此 ,
李 亚鹏
权 利
本 来
新年 前
故 意
改革 ,
抢 救
抓 好
把 握
慢 慢
感 染
态 势
怀 疑
心 脏
对 记者
实 时
实 名
坐 在
国际 社会
哪 里
品 种
各 族
发生 了
厨 房
印 发
助 于
伏 尔加
仪 式
人 都
乐 团
主要 是
中 医
严重 的
两 天
东 部
一 体
。 随着
” 之
[ 美国
201 5年
15 0
,只 是
, 现
, 已经
% 、
风 格
隐 患
长 假
都 没
那 摩
送 往
追 究
运 用
路 口
苏 丹
纤 维
系统 的
签 证
研究 员
矫 正
相当 于
的 可能
癌 症
留 言
率 先
焚 烧
火 锅
潜 规则
求 助
武汉 市
案 ,
机 械
最 初
是 最
昨 晚
斯 洛
斗 争
拉 开
强 的
常 常
尝 试
小 客车
头 的
大 队
处 ,
基 因
国 安
回 去
发 育
医 师
力 度,
分 享
农 历
关塔 那摩
例 如
使 得
使 命
亲 自
交 给
二 次
中 旬
中 含有
上 “
一 片
“ 小
4 2
20 20
,并 将
,一 边
, 来
驾驶 员
面 向
锦 文
钻 石
退 出
还 能
贵 州
责 令
说:“ 我
计划 的
被 人
草 酸
而言 ,
相 同
的一 年,
游 行
正 能量
有 可能
更 高
更 大
施 行
新农 合
新 加坡
斯洛 伐
斯洛伐 克
据 了解
挪 用
抱 着
慢 性
年轻 人
巨 大的
学 会
大 使
复 兴
呢 ?</w>
告 知
发动 机
反 恐
半 岛
劳教 所
力 。
减 轻
兴 奋
全 民
入 住
亿元 。</w>
人 生
云 南
习近平 总书记
也 很
东 莞
业 绩
业 内
上海 市
万元 的
。据 悉,
: 一
7 7
1月1日 ,
1 万
, 自
, 才
, 形成
, 双方
饭 店
面 上
阿 尔
这 名
过去 的
赶到 现场
调查 。</w>
语 言
让 我们
西 红
虚 假
董事 长
获得 了
编 制
经济 增长
精 彩
等 部门
空 中
相 继
用 品
牙 齿
热 情
火车 票
清 算
民 营
欢 乐
楼 兰
最 为
新 增
放 心
支 队
擅 闯
挑 衅
户 口
总 经理
彭 冠
彭冠 英
干 警
已 在
差 异
密 集
大 病
大 爷
大 厅
外 ,还
回 答
周 末
周 刊
发 起
博 社
区 别
力 争
副 部长
制 贩毒
关注 的
党 和
信息 化
保 留
低 调
伪 造
传 出
伏尔加 格勒
从 来
二 、
了解 到
了 ,我
专 利
不 动
下 一步
。” 他
5 3
3 9
,多 云
, 避免
, 正
项目 的
邻 居
连 杰
跨年 夜
跟 着
贫 困
财 务
说, 他
说 的
试验 和
评 估
计算 机
西 北
股 市
给 我
类 型
租 金
种 植
社区 矫正
的 妻子
白 色
生物 威胁
王 晶
本 报记者
最 多
早 晨
新年第一 天,
故 障
抢 劫
成 长
必 然
并 不是
巨 大
小 平
对 待
子 ”
天龙八部 》
大家 都
大 脑
声 ,
坚 守
在公共场所 禁烟
园 区
嘉 宾
同 步
南 部
协 助
剧 中
刘 女士
乙 肝
主 角
两 侧
不 用
一 段
。这 种
。 后
。 去年
a c
, 比
, 吃
( 约
防 御
问题 。
适 用
追 踪
还 不
近年 来,
过 度
财 经
豪 华
记者 :
表 态
荣 誉
结 论
米 的
等 人
禁 区
的 规定
男 生
熟 悉
民生 实事
正式 实施
杜 慧
杜慧 颖
有 机
有 害
晚 报记者
时30 分
新闻 发布会
整 理
效 益
支 出
据 中国
拓 展
报 名
抢票 软件
抑 制
房 子
战 胜
或 许
我 就
当 天,
张 先生
帮 忙
少 数
审 查
定 期
存 款
大 、
外 公
境 内
填 写
塑 料
图 :
回 归
各 部门
发布 了
单独二孩 ”
十 几
出 轨
共和 国
全 力
入 户
克 兰
人 和
也 能
中 毒
两 大
世界 纪录
不 停
一 旦
i t
K imi
,无 论
, 才能
食品 安全
零 售
附近 的
阵 容
野生 动物
那 样
遗 产
谢 谢
计划 生育
菠 菜
肖 杰
肉 、
肇 事
纽约 时报
繁 荣
窗 户
相比 ,
直 播
的 要求
的 数据
的 基本
疯 狂
生 存
演唱 会
毒 品
来 了
服务 ,
有 利于
是 要
是 有
是 因为
是 不是
数 百
据 报道,
拿 到
情 侣
恶 劣
开 门
度 假
广 西
山 、
客 流
它 们
奥 运
头 。</w>
天 坛
因为 爱情
回 顾
吸引 了
参 考
即 可
占 用
南 苏丹
公交 车
全 莉
俱 乐
人民 政府
产 能
乙肝 疫苗
乐 观
主 办
中环 军营
个 工作日
。其 实
。 如
’ 的
o u
in d
7 00
2014年 元旦
, 可能
, 则
% 以上
香港 《
面 包
难 度
隧 道
陈 锦文
门 前
长 达
道 歉
造 假
过 年
诊 断
规 律
装 置
被 害人
行政 区
自己 在
胸 部
者 ,
考虑 到
经 典
答 应
省 市
的一 项
的一 些
的 最
的 市场
的 城市
生产 的
没 想到
此 同时,
正常 的
欧 元
查 看
极 端
朋友 们
最 美
无 菌
新一 代
招 商
所 得
循 环
审 议
媒体 报道
大量 的
大 街
多 万
埃 利斯
可 见
发改 委
反 复
加 盟
分 布
农 牧
全 场
保障 房
位 。</w>
今天 的
交通 事故
了 近
乌 克兰
之 前,
举行 的
中小 投资者
不 想
一 、
。据 了解,
o s
I PO
23 日
. c
,每 年
, 直到
, 北京
首 席
首 发
领导干部带头 在公共场所禁烟
雪 龙
门 诊
重 ,
部 委
通 信
过 多
边 防
辉 煌
较 低
路 、
葡 萄
舒马赫 的
自 助
童 名
社会 保障
的人 们
玻 璃
物 价
点 半
洲 际
洗 澡
某 些
林 某
本 土
有 很多
明 天
时 用
早 日
政治 局
据 悉
据 外媒
护 航
录 音
开发 区
工 厂
山 市
对 “
好 几
头 发
大 道
可 谓
变得 更加
发 达
南 瓜
加 速
副 主席
分钟 ,
冰 毒
伦 理
传 闻
以 色列
人民 的
乃 至
世界 上
下 跌
上 演
一直 在
、 一
[ 当地时间
3 个月
27 日
2014年 ,
1月 4日
,只 能
,也 就是
, 都是
, 很
, 占
首 批
韩 朝
长 效
还 可以
迎 新年
辞旧 迎新
起 点
谈 判
讲 述
西红 柿
裁 判
被 拍
艺 人
群众 路线
美国 的
罚款 。</w>
糖 尿
管理 ,
税 务
称 为
票 房
的 感觉
的 三
画 面
甘 肃
版 本
涉 案
模 范
杜 先生
最高 人民法院
更 大的
昆 明
早 已
新华社 记者
新 京
敬 老院
教 学
攻 坚
接 种
指 示
或 将
必 将
当 选
建 造
度 过
广播 电台
就 此
小 勇
子 宫
姓 名
如 下
基 于
培 育
地方 政府
国有 企业
四 年
吉 克
号 码
反对 派
半 个
分别 为
出租 车
仔 细
于 女士
事实 上,
了 两
专 辑
与 其
一 座
》 《
。 同时
” :
9 9
,使 得
, 中央
高度 重视
高 潮
高 层
队 员
远 程
进 了
较 为
谴 责
试验和 训练
论 坛
美 食
给 她
结 石
经营 者
线 索
纪检 监察
管理 中心
等 方式
童名 谦
站 ,
福建 省
研究 院
着 “
的 几
的 中
由 此
生物 安全
生态 环境
环 卫
父 子
演 练
泽 楷
正 门
标 识
服务 业
服 装
有 没有
有 多
有 利
无 锡
无 线
新闻 发言人
新 兴
收视 率
播 放
摔 倒
接 着
据 美国
找 到了
慰 问
愿 望
性 债务
巢 湖
尔 ·
将 为
它 的
婆 婆
好 好
在 现场
周 恩
听 说
听 取
叙 利亚
发展 。</w>
博社 村
南 极
医 保
加拿 大
前 进
刑事 拘留
内 阁
关系 ,
公共 服务
信息 ,
会 场
伙 伴
仍 未
二 十
书 架
不 易
不 明
不 出
一 线
。 美国
。 以
o t
:“ 我
5 月,
5 8
5 6
4 7
2013年12月31日 ,
,我 省
, 尤其
骗 取
除 夕
阻 止
钟 声
邹 侑
邹侑 根
适 度
送 上
迎接 新年
车 、
身 的
观 念
被 指
街 头
自 从
等 等
禁 令
的 确
的 名
的 原因
的 。”</w>
田 亮
现代 化
特 种
激 烈
温 馨
浦 东
每 一个
残 疾
歌葩 地图
榜 单
核 武器
最低 气温
智能 家居
智 慧
时 就
新 街口
收 藏
收 取
拼 车
担 忧
手 ,
所谓 “
所有 的
战 机
我 市
我 和
很 好的
待 遇
影响 ,
延 误
庆丰 包子
带 有
寿 命
对 抗
家 住
客 服
好 处
在 线
国 强
周 岁
可 是
受 访
去 的
制 的
关键 词
八 项
免 去
体制 改革
体 重
五 年
了 这
也 许
也 曾
之 风
中 科院
个 别
不同 ,
不 起
上 门
上 报
上 周
【 图】</w>
。 那
4 6
26 日,
1日 晚
,但 他
,一 位
, 车
, 根据
, 曾
, 应
魏 泽楷
高 于
驾 车
陵 王
走 出
要 把
芜 湖
航 天
肉 类
职业 病
老 家
维 权
细 菌
站 、
科学 院
社会 的
短 裙
着 陆
看 看
监察 局
的 东西
电 力
用 来
现 身
民 进
死 者
案 发
核 弹
极 大
有 趣
景 观
早 前
旁 边
斯 诺
数 十
散 步
成 的
恺 威
微 克
当 场
弹 道
对 比
字 ,
姓 男子
女 神
奖 金
大 大
城市 的
坦 言
国际 金融
国内 外
回 复
四 大
哈哈 哈哈
周 期
含 韵
后, 他
句 话
口 岸
变 成了
受 害
参 赛
务 实
刷 牙
刘 恺威
全 程
低 收入
会 、
优 良
仅 为
为 止
中 级人民法院
两 种
不 小心
。 警方
”。 但
”, 而
” 为
a m
Q Q
1 -
, 各
, 人
阶梯 水价
问题 上
采 集
道路 上
造成 的
连 锁
赛 车
课 题
说, 她
解 析
节 假日
舆 情
竣 工
神 奇
眼 球
真 人
看 着
目的 地
的 需求
的 。”
电 梯
灰 霾
活动 的
榆 林
柏 林
权 威
期待 。</w>
普 京
日本 人
新闻联播 》
数 额
拐 卖
意 愿
想 象
得 到了
弹道 导弹
已 成为
就 像
始 ,
外 面
复 旦
喜 剧
吉 林
合 影
只 有一
另 有
又 是
南 方
单位 和
医疗 保险
功 夫
凸 显
公布 的
公办 养老机构
停 产
俱乐 部
促 销
住房 保障
会 展
亮 点
之际 ,
业内 人士
不 超过
一 项
。 如今
。 前
、 中国
8 月,
5 7
4 000
3 天
200 6年
0 .
. .
,一 旦
, 警方
, 作为
, 下
驱 逐
风 景
领域 的
预 警
面 前
附 属
防 护
问 候
轨 电
超 生
起 火
让 我
警 官
西 方
致 癌
自 愿
胃 肠
股 票
股 权
网 购
编 队
精 子
立 场
称 ,“
秘书 长
种 食物
监察 部
的 目标
白 天
电 厂
特别 行政区
清 新
活 力
毫 不
村 庄
本 地
最 喜欢
暴 露
暂 停
是 :
昏 迷
日本首相 安倍晋三
无 数
新一 轮
提供 的
掸 邦
挪用 公款
拍 卖
抚 养
或 是
开 设
建 华
广播电台 、中央
带 来的
宏 观
安 门
安 置
太 太
大病 保险
大 楼
大 事
多 吃
外 科
在 家
在 今年
和 发展
周恩 来
名 的
名 为
口 ,
南 非
制 ,
关系 。
公 主
党 中央
信 贷
依 靠
伤 人
付 出
仅 仅
人工 耳蜗
于 是
主 张
两 性
东 海
不 满
不 容易
上 摆放
一 周
》 。
。因此 ,
。 张
。 大
“呵呵 ”,
8 日
6 000
4 9
29 日,
201 2
2. 0
16 0
10 年
- -
,有 些
,不 但
, 除
, 先后
, 三
高 端
领 先
韩 樱
难 道
门 槛
采 购
都 被
郭 德
郭德 纲
邓 大妈
透 过
连 接
过 ,
跟 踪
赵 韩樱
赵 先生
走 在
走 了
负 面
豆 浆
记者 会
规定 的
蒙 古
苏- 35
肌 肉
绿 道
继 承
经济社会 发展
线 ,
紧 紧
糖尿 病
粗 粮
签 署
站 台
积 累
着 急
目 录
的情况 下,
的一 位
现场 ,
海 陵王
测 量
治 安
没有 任何
水 、
林 业
本 届
更 好的
景 点
早 餐
日 益
效 应
排 除
捐 款
拉 萨
扫 描
手 中
成都 市
成 龙
性 欲
当 局
开 办
平方米 ,
干 燥
干 净
少 吃
将 近
将 来
学 家
姑 娘
失 望
夜 间
夜 ,
外 观
士 兵
块 钱
团 伙
商品 交易
商 店
十 足
北 部
动 脉
加强 对
出 来,
出 “
冬 天
全国 经济普查
入 境
党 内
兄 弟
健康 的
住 了
位 的
伙 食
优 待
以 下的
今 天,
人 心
了 对
书 法
也 就
中心 的
个工作日 内
两 家
与 家人
不 适
下 来,
一生 一世
。 近日,
。 19
、 黄
、 谢
、 国家
“ 我们
u r
o l
[ 国家
Ra in
9 7
40 岁
4 月,
2 2日
15 日
10 分钟
,这 也是
,我 市
,就 能
, 直接
, 男
, 当时
, 如今
( 含
黄 桂
黄桂 提
高 级
香港 警方
领导 班子
闽 江
遭 受
进 食
较 高
转 让
车 王
超 越
说 :
评 审
要 做
西 南
被 开除
营 销
若 干
节 ,
自 贸
肠 胃
而 不
维也纳 新年音乐会
组织 部
组 长
算 是
突 发
看 到了
的一 次
的 时
的 女
男 孩
珠 宝
现 有
环 海
玩 笑
物 ,
爸 妈
涉嫌 挪用公款
波 士
波士 顿
泡 脚
比 重
楼 顶
档 案
林 权
本 月
有 一些
日 历
排 行
所 需
情况 下
恐怖 袭击
总 队
很 不
彼 此
开发 商
床 上
已经 被
岳 母
就 餐
将 对
实 力
好 转
天 安门
复旦 大学
城乡 居民
埃 文
场 景
地 球
国 主义
名 义
名 为“
同 一
合肥 市
合 唱
发表 了
卫 星
副 市长
制 毒
几 十
冷 链
冷 空气
决 赛
八项 规定
全 世界
党 派
免 签
伦 敦
企业 、
以 来的
代 谢
亏 损
为 人
中心 ,
世界 和平
专 用
不少 网友
不少 于
不 顾
三 十
万人 次
万 辆
万 个
一 份
、 社会
、 华
”, 并
iPhone 5
; 对
5 年,
4 1
3 日,
24 日
2013年12月 29日
20 00元
13 日
,我 就
% 和
驻 军
铁路 安全管理
郭 涛
逮 捕
远 远
轰炸 机
跨 越
资本 市场
质 的
财政 补贴
豪 宅
读 者
订 单
警 示
行为 ,
薛 某
艳 芳
致 命
自 卫
联 社
给予 其
纳税 人
第二 季
稳 步
真 诚
看 了
目 光
的 经济
的 相关
的 情
登 录
甜 蜜
现在 的
环海 大厦
物 、
济 南
派出所 民警
活动 中
油 漆
气 球
死亡 。</w>
武 警
正 规
欣 赏
棚 户
棉 花
核 潜艇
查 明
来 到了
条件 下
机器 人
最 受
智能 手机
时 段
时 任
斯 科
打 了
性 侵
怎 样
心 情
很 少
建 国
延 长
巩 固
岁 末
居 环境
居 然
就 被
将 从
实 体
学 位
奇 葩
太 多
大 批
外 汇
地 面
在 这个
在 《
哪 个
和 挑战
合 适
吃 了
原 料
却 是
十 一
化 。</w>
剧 情
前 三
出 血
关注 。</w>
关注 。
公务 员
元 钱
元 的
停 在
作 者
何 炅
他 和
产 值
二 手
乳 腺
书 画
之一 。</w>
之 下,
中新 网
中共中央 政治局
不 上
上 级
一 同
》 (
。 对此,
“ 四
e s
G D
7 日
2013年12月 26日
,这 样的
,没 想到
,就 算
, 按
, 影响
, 令
首度 曝光
飞 往
雪龙 ”号
隐 形
队 长
队 的
门 外
都 能
通知 》,
这 部
足 以
赢 得
贺 新
调 节
解放军 驻港部队
航空 公司
自 觉
群众 的
缩 短
空 调
省 (
直 呼
的可能 性
的 设计
的 李
的 女性
的 儿子
的 伟大
疼 痛
电 器
王 宇
独 自
热 门
涉 毒
流 传
梅 艳芳
机 票
服务 的
有关 负责人
晓 明
是 从
时间 ,
时 许
斯诺 登
救 护
摩托 车
携 手
报 案
情况 。</w>
悄 悄
恒 大
总 数
忘 记
影响 。</w>
张 全
弟 弟
建设 和
巨 灾
局 面
局 ,
尴 尬
将 进一步
对 接
宾 馆
家 园
实习 生
委 托
处 的
声 称
埃 及
在 美国
在 工作
国安 局
吵 架
去 世
华 西
动车 组
前 天
制造 业
制 止
内 外
兴 趣
公布 了
公 诉
全 家
克 ,
先 行
便 是
依 托
作战 系统
今年 的
人民 共和国
人 为
争 吵
为 其
中国 特色
严重 违纪违法
丝 绸
东 南
与 允儿
不 愿
不 已
不 及
下 半年
上 映
一样 的
一 部分
一 件
《 天龙八部》
。 经过
。 按照
。 当时
、 公安
、 他
” 了
“ 最
o w
6 6
3 次
16 日
1 号
,让 人
,每 次
,最 近
,大 部分
, 坚决
颗 粒
隽 逸
阿 富
重 的
道 的
道 。</w>
通 州
这一 年
运 作
轨道 交通
车 门
走 上
贫 血
诞 生
诚 信
认 可
行 李
膳 食
羊 肉
网友 们
终 端
级 别
签 名
税 收
的 能力
的 就是
的 发
病 ,
电话 ,
用 车
生活 在
甄 嬛
焰 火
沃 尔
污 水
民 意
样 子
校 长
期 限
更 有
是 对
昨日 上午
时, 他
新闻 网
教育实践 活动
收 集
收 支
描 述
控 股
据 日本
损 毁
拆 除
护 照
扎 实
性 格
志 伟
必要 的
影 片
彩 色
当事人 李先生
延 伸
平 方
幅 度
差 不多
工 艺
届 全国
对 话
安全 局
安 居
大 门
国家 和
国 的
名 叫
吉克 隽逸
受 理
卫生 局
北京 时间
劲 儿
务 工
刷 新
分钟 后,
冰 箱
冬 泳
兰 特
公 寓
克 服
充满 希望
充分 发挥
便 ,
供 暖
体 检
伤 ,
交通 运输
事 后
争 夺
乌鲁木齐 市
中国 人民
个人 有关事项
世界 各国
不过 ,
不 可能
一 事
、 让
” 事件
i r
i l
GD P
C E
8 00
7 6
5 4
3 万
3 60
200 7年
200 5年
100 多
,致 使
,他 就
,不 是
,一 定
, 老
, 否则
, 加快
首 要
饮 料
随 机
重要 的是
邓 小平
转 账
象 征
谈 及
记 载
讯 (记者
见 证
补 助
蛋 糕
萧 蔷
英 镑
能 不能
考 验
罪 、
绿 化
经济 工作会议
组织 了
组 建
约 翰
精 力
篮 板
第三次 全国经济普查
第三 方
笔 者
种 类
种 种
硕 士
真 相
省 长
目 击
监 会
的热 情
的 研究
的 孩子
的 天
的 多
的 声音
的 努力
百 年
痕 迹
王 先
王先 东
爱好 者
热点 新闻
漳 州
消息 称,
活动 。</w>
民进 党
每 周
母 舰
正 当
标志 着
条件 的
李 连杰
有 什么
时 速
时 有
旨 在
日 报
新型 城镇化
新 鲜
搭 档
揭 秘
推 荐</w>
捷 克
指 控
招 聘
招 呼
担 当
抗 议
成 品
感 叹
性 。
征 收
廉 政
应该 是
幸 运
已经 成为
左右 的
岛 屿
将 “
实 战
姆 斯
妹 妹
大 众
地 、
在 此
国 四
只 好
双 手
医 药
勒 索
前 后
制度 。
分 解
出 门
出 来的
保 密
便 宜
但 是
伤 亡
传 言
任 职
亲 切
也 不能
主 导
中央纪委 监察部
中华 人民共和国
与 “
不 宜
一 路
一 级
一 对
一 半
。 除了
。 当天
、 王
、 市
” 字
” ,但
e t
a y
9 3
7 5
3. 0
18 00
12 3
10 月,
,并 对
,以 免
,他 的
,一 起
, 部分
, 相关
, 推进
) 和
(约 合
! 祝福
龙 头
驱逐 舰
食 堂
颗粒 物
韶 山
难 得
阳 县
金融 资产
金融 机构
采访 时,
部 和
邮 件
遵 守
透 明
选择 了
进 而
进 京
这 条
转 化
费 、
货 物
观 看
自治区 党委
而 被
者 。</w>
网络 上
缴 纳
给 自己
给 你
组 图】</w>
级 战
约 束
系统 ,
第二 天
程度 上
社 保
示 威
着 手
的 母亲
的 政治
的 公司
百 万
疫 情
电 池
生 元
理 想
爆 竹
照 片</w>
满意 度
游 泳
清 洁
清 明
歹 徒
欧 盟
次 数
极 为
时 会
旅行 社
文 艺
教 训
收视 份额
掀 起
捐 献
承 受
执 照
成 “
恶 性
总 公司
忽 然
心 ,
座 谈
带来 了
工 地
小 长假
密 码
存在 的
失 败
天 下
天 。
大 规模
多 岁的
基 尼
在 新
国土 资源
国 立
哥 哥
命 运
吗? ”</w>
台 上
古 代
发 射
半 年,
助 理
加大 对
初 ,
养老 保险
共 产
公 里的
信息 。</w>
俗 话
传统 文化
会 长
会 被
优 质
他 是
仍 是
人 行
人 家
亲 密
产生 的
产 量
习惯 ,
主管 部门
临 近
中 山
上 空
三亚 中院
三 级
万 户
【 组图】</w>
《 意见》
。此 次
。当 然
。” (
。 陈
。 尽管
。 因
。 另外
B C
A 股
8 000
7 家
3 人
2000 年
11 点
1 1日
,其 余
,他 在
, 若
, 继续
, 打
龙 江
马年 春晚
频 频
领导干部带头在公共场所禁烟 有关事项
领导干部带头在公共场所禁烟有关事项 的
靠 近
青 睐
阿 婆
金 库
遏 制
进 去
这 张
运动 员
迎来 了
越来越 多
起 飞
负 债
诗 龄
记者 了解到,
表示 “
融 合
获 取
艰 苦
致 电
联 盟
联 动
耳 鼻
网站 消息,
紧 密
第 2
秀英 炮台
社会 管理
着 眼
看 起来
目 的,
的 背景
的 男
的 现象
的 发生
的 内容
的 内
的 下
疲 劳
疗 法
特 雷
特 点,
满 了
消 耗
活动 。
河 豚
武 平
棚户 区
栏 目
标准 的
查 获
村 里
服 役
最 早
无 效
改革 创新
搜 索
损 坏
托 管
情 人
思 考
很 容易
很 大的
庆丰包子 铺
年前 的
平 等
干 预
市 纪委
山 西
小时 的
将 被
富 裕
家 具
宁 波
学校 的
姿 势
失 踪
央 广
多 月
增长 ,
基本 医疗保险
均 为
在这 里
在 全国
国家 治理
回 落
嘉 诚
商 铺
吧 。</w>
名 男子
吉尼斯 世界纪录
吃 得
右 侧
受 到了
原 材料
博物 院
南 北
华 人
包 装
分 手
出 发,
几 位
农民工 工资
军 方
公安 厅
公安 分局
入 学
党 风
充 足
倍 。</w>
修 宪
侵 犯
依 赖
体 ,
会议 ,
休 假
介 入
亿元, 同比增长
人大 代表
人们 的
了《 关于
买 票
也 不是
个 城市
丝绸 之路
不小心 ,
不 见
上 吸烟
三 天
。而 在
、 文化
、 低
“ 好
w w
: 在
: 30
8 4
27 日,
2013年 10月
12月31日 ,
11月 ,
,还 要
,一 辆
, 重
, 未来
高 管
领 取
预 报
阿富 汗
队 ,
钢 铁
迹 象
进 取
这 份
轻 易
车 。</w>
躺 在
身体 健康
货币 政策
误 区
许多 人
记者 :“
计 委
装 饰
表 彰
英 文
节目 《
能 在
考 古
罗 马
给 他们
结果 ,
结 算
红 线
纠 正
等 候
祝 愿
研究 发现,
看 望
省 份
相关 的
目 的是
监督 管理
的 马
的 过程
的 生
的 决定
的 10
畜 禽
现 状
特雷 佩
燃 烧
漂 亮
深 度
法律 法规
毕业 生
毒 素
每日 邮报》
树 立
杨 议
李 嫣
李 女士
最 伤人
曼 联
普 及
是否 会
日 起
新 规
新 生
数据 ,
敦 促
接 连
排 毒
拆 迁
担 保
技 能
承 包
扩 张
感 受到
意 志
开 庭
布 拉
已 久
居民 身份证
小 孩
寻 求
实施 “
完成 投资
安全 的
季 节
子 上
子 。</w>
婚 讯
头 、
大 豆
大 兴
均 已
场 的
启 用
向 记者
合作 社
各族 人民
吃 的
史 上
可 在
发现 了
发 票
又 有
厚 的
厘 米
卫 计委
南海 海域
单 纯
加油 站
前 期
分 之一
出 新的
决 议
关系 。</w>
党组 书记
做 出了
倒 数
保 守
保 姆
你 ;
作 出了
住 院
传 承
传 媒
会展 中心
会 ”
亿元, 占
亿 人
人员 的
事件 ,
事 宜
之 外
之 余
中 部
中 、
个月 ,
不 开
一 年,
。他 说,
。 日本
。 今天
★ ★
”。 “
”, 是
” 中
50 元
50 万
2013年 度
1月1日 电(记者
1月 2日,
19 日
19 80
18 0
,这 位
,她 们
,其 中,
,“ 我们
, 看到
, 市场
, 同
, 东北
高 先
高先 明
马 儿
青 少年
集中 在
阿 华
长 城
锁 定
都市 报记者
这个 “
近 10
达到 8
辛 苦
赵韩樱 子、
赵韩樱子、 彭冠英
说 ,在
蟒 蛇
蓝 色
获 悉
茶 叶
花 了
舰 载
航 运
胞 集团
老 汉
网友 的
缺 少
结果 。</w>
经 期
细 化
组织 的
红 帽
米 饭
简 易
第 六
研 制
眼 耳鼻
监 护
的 精神
的 最大
的 她
病 症
男 朋友
生物威胁 防御
狂 欢
烟花 爆竹
温 州
清 除
混 合
涉嫌 犯罪
消防 官兵
流 失
法 治
沿 着
江 青
汉中市 人民检察院
水 下
气 、
楼 梯
标准 ,
标 签
某 军
极 其
李 茜
权 、
权 ,
有 序
有 不少
曹 某
智 贤
日 的
日 期
新年贺词 。
文 学
救 治
搭 载
提醒 ,
接 下来
捍 卫
指导 意见
投 放
打造 的
手 持
我是 歌手
感 慨
性 。</w>
思 路
怎 样的
徐 琴
影响 到
引 领
度 污染
平 民
市 的
局 部
就 “
寒 冷
富 豪
宗 教
嫦 娥
媳 妇
婚 纱
奢 侈
奇 怪
夫 人
大气 污染
均 衡
在 其
国家 主权
和 妻子
告 别
吾 尔
后, 将
后 续
合 生元
号 ”
召开 的
原标题: 养生
占 据
协 同
华 南
区 )
化 解
包 间
加 剧
前 一
到 的
创造 了
分析 ,
净 利润
候 选
信用 卡
伦理 剧
会 所
会 儿
人 被
了 自己
习近平 在
也 就是
个 性
两 人的
下午 5
下一 代
三 、
《 新闻
《 因为爱情
。 自
。 专家
、 陈
”的 “
”。 他
A P
6 8
5 万元
2013年12月 30日,
200 4年
1月2日 电
1 %
,李 娜
,也 让
,也 要
, 按照
, 呼吁
, 刘
, 先
魏 琼
高 居
饭 后
餐 厅
频 率
静 态
隔 离
酸 盐
避 孕
造 血
途 径
这个 词
过 境
辣 椒
身 着
赋 予
该 校
该 剧
评 议
被 骗
营养 价值
菜 、
芳 应
色 的
色 彩
航 行
舒 服
致 以
自 家
老 爸
综合 征
维 吾尔
维 修
绯 闻
线 的
红 枣
策 略
等 级
看 法
盛 顿
的 选择
的 车辆
的 路
的 社会
的 方法
的 市民
的 工作人员
病 毒
番 茄
男 方
猜 测
特别 的
牌 照
点 燃
洪 某
每 人
框 架
村 委会
机 型
未 来的
朝 阳
是一 名
无论 是
无 偿
文 字
整 顿
教育 、
收费 站
擅自 闯入
提 倡
推 销
排 查
抓 捕
扶 贫
成 效
总体 方案
心脏 病
心 血管
微 企业
得 以
形 态
干 细胞
常 规
常 年
市 )
已 是
巨 额
岁 月
少女 时代
将 成为
客 人
实现 了
安 保
媒体 的
如果 是
处 处
处 以
在 新年
圆 满
图 书
国资 委
国 税
困 扰
回 头
品 质
向 警方
吃 什么
可 疑
另一 方面
古 装
原 来的
历史 的
华 盛顿
升 值
励 志
列 入
分 左右,
冷链 物流
军 国主义
内 裤
关 押
党 建
光 荣
值得 一
便 捷
作用 。
余额 宝
体系 和
伤 者
会 上,
休 克
代 理
介绍 说,
仅 有
亲 戚
书架 上摆放
之 内
中 最
中 年
东方 卫视
业 的
世界 各地
不仅 是
不 让
下 水
下 旬
上 头条
一 款
》 杂志
》 。</w>
。此 前
、 更
、 政府
“ 两
r o
6 日
28 日,
2013年 9月
,大 力
,不 管
, 2012年
高 清
马 路
风 雪
领 证
项目 建设
陈 女
阿 里
都 可以
这 类
跑 车
超 出
资源 配置
资料 图)</w>
责任 。</w>
责任 。
财 富
谨 慎
谈 话
说 ,这
记者 问
西 兰
花 车
艺术 品
自 曝
能 让
胡 军
背 后
股 东
聚 焦
美国 《
美 丹
罕 见
级战 犯
约 定
素 质
第 十
移 交
真人 秀
的 男性
的 比例
的 新闻
的 原则
的 关键
的 产品
白 酒
甲 级战犯
用 途
用 手
用 人
生产 、
生 长
生 成
特 意
焦 点
激 发
澳 门
演 绎
注 射
水 量
毕 竟
段时间 ,
此 时
正确 的
案 组
根据 《
某军 港
林 改
来 临
村 支
朝鲜 半岛
朝 着
服 用
有一 定
有 4
是 他
是 为
早 就
日 军
旗 下
文 书
教育 部
故宫 博物院
政法 系统
摄氏 度
搞 怪
提 及
提 交
我 在
意 大
意大 利
得 很
徐 剑
当事人李先生 :“
开 场
开 创
平 凡
工程 师
居 委会
尺 寸
害 怕
实 效
孙 杨
如下 :</w>
好 。</w>
头 盔
头 痛
多 了
增 幅
地 的
在 该
在 大
国家 级
四 五
四 个月
喉 科
周 一
后 果
只 需
发生 一起
双 重
友 好
又 一
医院 、
化 妆
包 含
动 的
动 员
制度 改革
到 处
出 。</w>
养老 院
全面深化 改革的
全 智贤
先进 的
信 托
保 养
依 次
会 计
伊 朗
什么 样的
人们 对
产品 的
五 大
也 有人
之 下
义 勇
中美 关系
中国 经济
中 的“
两 个月
不得 在
不 止
上 世纪
一 道
。 面对
。 随后
。 昨日
。 就
。 周
、 美
、 刘
℃ ,
R A
:“ 你
9 点
8 2
6 .
4 、
3 月,
2012 年,
201 1
1月1日 起
1月1日 报道,
14 0
1 30
,这 里
,还 会
,每 个
,是 因为
,但 这
,但 由于
, 自己
, 常
, 哪
, 反而
, 去年
, 二
黄 仕
黄仕 宣
高 压
高 。</w>
风 ,
题 材
领事 馆
领 袖
零 下
陈 先生
长 春
铜 川
鉴 于
重 污染
里 克
部门 的
遗 址
道 理
转 向
轨电 车
跟 随
说 起
说 了
设计 师
解放 思想
规范 化
观 点
要 素
表明 ,
表 情
行政 处罚
行业 的
蓝 图
营 改
营改 增
苦 等
若 羌
节 点
脖 子
联 络
考 研
网 球
编 译
纳 粹
约 有
简 直
筱 玮
策 划
称 ,在
社 交
睡 前
眼耳鼻 喉科
目前 的
皇 帝
的基础 上,
的 部分
的 资金
的 爱
的 效果
百 余
瘦 身
电 、
瑞 拉
瑞 士
王宇 澄
王 诗龄
王 女士
片 ,
照 ,
点 击
湖北 省
游 玩
润 东
波 动
民 办
步 行
模 特
榜 首
检查 ,
案 的
李 嘉诚
机 。</w>
机 ,
本 钱
未 经
有 助于
有 力
最 好的
最 多的
曾 志伟
曝 出
是 由
明 白
时 被
时 而
方案 ,
方 某
新 技术
敲 响
数 千
政 务
搞 笑
描 绘
排行 榜
据中国 之声
损 伤
指挥 中心
指 定
抓 紧
执 勤
房地产 市场
意识 到
恐 怕
性 地
怎么 办
快 递
微 笑
形成 了
当 初
开 ,
延 安
年度 最伤人
年 纪
年 均
带 给
市 公安局
巴 黎
已 达
左 手
崛 起
少 了
小 型
小 ,
将 军
家 门口
家 乡
宣传 部
客 观
实 质
宋 筱玮
安 监
守 则
威 尔
委 内
委内 瑞拉
姓 女子
妥 善
城镇 居民
在 家中
在 了
在 上海
回 了
四 是
商品交易 市场
和 国家
告诉记者 :“
吸烟 ,
合法 权益
各 区县
反 政府
去 ,
原 原
协议 ,
北 方
动 漫
加 重
加 州
到来 。</w>
分 工
出 境
内 有
公 车
党的 十八大
克 尔
保险 公司
余 名
何 润东
体系 ,
伴 随着
以下 简
人民 生活
亩 ,
了 该
之 年
义勇 为
中国 国际
中 西部
严重 损毁
不 懂
不 容
下 。</w>
上午 10
上 半年
一 番
一 声
一 四年
一 下,
。这 次
。但 是,
。他 还
。 北京
、 地
、 二
”。 而
” 行动
” 称号
u s
u n
iPhone5 s
N O
8 7
6 号
5 1
30 万元
2014年 第一
20 日
2 人
19 0
17 日
14 日
1. 2
1 亿
1 万元
1 200
.c om
- 8
- 25
,全 市
,也 许
, 较
, 提升
, 帮助
, 做
) 在
龙 岩
高 温
验证码 的
驾驶 人
颁 布
青岛 某军港
震 惊
零点 报告
陌生 人
阳 、
防 务
重 返
配 送
适 时
进一步 加强
较 大的
车 间
车 子
身份证 件
跌 幅
购 房
谦 虚
调整 完善
调整完善 生育
课 程
证实 ,
证 、
议 员
触 犯
见 义勇为
要 注意
被 问
被 视为
被 称为“
被 “
表示 ,在
衡 阳市
血 糖
蒸 发
落 马
节目 中
腹 部
老 人们
美国 政府
米 、
管 制
答 案
等 到
积 水
社 报道,
破 解
研究 人员
相应 的
的人 群
的 重大
的 这
的 责任
的 核
的 女儿
环境 ,
玉 兔
率 为
特别行政区 同胞
特 约
特 定
潜 水
滋 扰
清 水
涵 盖
流动 人口
洛 杉
洛杉 矶
泗 县
河南 省
每 个人
此 前,
模 拟
模 仿
板 块
来看 看
条 ,
机构 和
有效 的
有一 种
曲 目
曝光 的
星 球
明 园
新的一年 里,
新年 快乐
新 车
新 娘
政府 性债务
改 为
收购 《纽约时报》
收入分配 改革
摄 )</w>
提出 ,
推 出的
拿 下
拓 宽
抵 押
护 卫
抓获 。</w>
才 知道
所 属
慢性 病
意见 ,
总 监
心 愿
征 求
弘 扬
开 幕
开 局
店 的
库 存
平 说,
市 红十字会
已经 是
就 算
对 我
对 张某
寒 风
审 稿
字 符
婚 庆
委 书记
奥 迪
大 胆
大 牌
多 年来
多 尔
多 。</w>
夕 ,
处 。</w>
增加 ,
城 际
在 南京
土 壤
圆 明园
国 王
围 观
告诉 你
吸烟 、
台 “
受 损
发展 和
县 级
原标题: 两性
厅 长
占 有
动 画
副书记 、
剧 院
制度 、
判处 有期徒刑
刚 开始
内 涵
公 立
入 侵
党 籍
克 、
停 放
借 鉴
借 助
修 复
会 让
会 。</w>
亲 人
二 轮
了 个
主 流
主 力
为 大家
中国特色 社会主义
中国 游客
个 人,
不 符合
不 必
上 面
上 车
上 网
上 河
上 。
万人 次,
一 把
一 块
一 出,
》 报道,
》 在
。这 样
。他 的
。“ 我们
、 行政
、 在
、 国务院
: 我
90 后
8 9
5 、
5 9
30 分钟
30 %
25 日
2014 是
200 2年
20 种
20 日,
195 1年
18 日
00 万
.5 万
,更 是
,就 会
,后 来
, 进行
, 绝
, 当地
, 分
( C
( A
黄 子
黄 先生
风 暴
预 订
靖 童
零 时
难 ,
除 此
陆 军
阴 影
长 远
银行 卡
铁路 线路
金融 信息
里 程
通 用
进一步 做好
这 是一
这 事
过 分
辈 子
载 着
跨年 演唱会
跟 我
跑 到
赵 薇
费 劲
谷 歌
谢楠 的
说 过
诱 惑
识别 区
证 ,
议 事
订 票
计生 委
警 戒
观 光
街 坊
营 区
英国《 每日邮报》
苏 联
胡 国
育 儿
肝 脏
联系 到
而 已
老 乡
美丽 乡村
编 辑
统一 的
经济 损失
索 契
篮 球
答 :
等 问题
窦 靖童
科研 试验和训练
祈 福
短 短
短 片
的一 家
的一 名
的 黑
的 行
的 眼
的 电话
的 旅游
的 新年
的 患者
的 具体
的 他
登 高
癌 、
疑 问
电视 机
环比 上涨
物 理
爱 ,
煤 炭
然而 ,
热 烈
灯 光
游 乐
清 华
混 乱
消 失
流 浪
活 跃
汇 率
殴 打
梳 理
桌 上
核弹 头
校 区
村支 书
最高 的
曾 被
时候 ,
时 隔
新闻 发布
新年第一 天
新 城
教育 局
收 缩
收 受
摆 脱
推 出了
授 权
抵 抗
报告 个人有关事项
把 自己
把 他
扶 持
我 想
惊 讶
怎么 样
忍 不住
录 制
当 代
强 奸
开 玩笑
度, [
度,[ 最高气温
并 无
平方米 的
山 路
属 实
层 次
就 医
将 迎来
对 他
家 企业
定 为
安全 套
娃 娃
夸 张
太 大
天津 市
场 比赛
图片 来源:
国际金融 中心
国 足
国 办
器 官
器 、
喝 水
哈 夫
和 高
吧 ,
向 他
名 称
各 方面
号 的
台 的
叫 “
取得 的
去年 11月
去 除
单位 的
十 件
助 攻
办 、
劝 阻
剧 组
到 位
利 息
刘 松
出 身
出 演
出 事
凌晨 1
凌晨 ,
内 蒙古
其 它
共产 党
公开 赛
全 县
入 选
入 了
值得 注意
倡 导
信息 、
信 访
保 卫
促 使
依依 的
供 养
从 小
亲 子
二 代
二 〇
二〇 一四年
了 我
了 4
也 让
乔 峰
之前 的
之 家
中新 社
中, 有
中 区
丝 毫
专 职
不 着
不 当
不 完全
上 学
一个 “
一 看,
一 期
。此 外
。 安倍
。 到
。 下面
、 经济
、 生产
、 海
、 林
、 工商
、 周
、 交通
、 上海
…… ”
”。 (
”, 在
“呵呵 ”的
“一 把手
“ 雪龙”号
“ 你
“ 中央
u t
o o
ind y
a s
; (
8 元
8 万
200 1年
20 %
12月 ,
10 日
,有 关
,是 否
,其中 包括
, 实行
, 减少
, 具有
黑 龙江
骄 傲
马 俊
首次 组织了
风 光
额 度
项目 、
顶 级
隐 私
附 加
阿 根
阿根 廷
铁路安全管理 条例》
里 。</w>
都 觉得
都 知道
都 很
都 将
郑 秀
速 通
进 来
返 还
运 -8
过 来,
身 穿
贺 国强
费 。
贡献 。</w>
调整完善生育 政策的
证明 、
证 监会
让 他们
计划 ,
詹 姆斯
言 论
观 测
要 坚持
表示, 目前
衡 阳
行动 ,
艺术 家
舰载 机
舒 适
致 富
自然 灾害
自 称
胡 萝卜
股份 有限公司
联 手
罪 名
经营 户
类 的
管理 的
管理 、
稳 中
私 房
私房 钱
督 促
真 央
看 出
相 处
相 反
直 至
的情况 ,
的 美好
的 男子
的 健康
画 家
电影 《
球 迷
现 役
焦 虑
热 的
热 播
漫 画
湘 乡
清 晨
淘 汰
法 制
气 体
比 亚
欠 税
核 心的
来 回
村 的
机 组
期 望
有 小
最后一 天,
最后 一天
更 容易
曙 光
星 的
明确 ,
日 游
方 针
方 位
新 台
斯 蒂
摄像 头
据 《
捉 迷
按 摩
持续 到
扬 言
所 长
房地产 开发
战 后
成都 商
惩 罚
情况 下,
情况 。
悲 剧
忽 视
德 斯
形 容
当 中
引 人
开展 “
建 房
平台 ,
干 扰
布 局
巴 基
巴基 斯坦
左 侧
巡 航
履行 职责
届 时
小 编
导 师
室 ,
宣 称
宣 告
定 安
完 工
它 是
学生 的
姐 妹
好 、
套 ,
天 堂
大 院
大 S
处理 。</w>
处 女
处 在
处 。
增 添
均 价
场 面
在 意
国 网
国 Ⅳ
回 购
喜 事
商 户
和 水
和 无
和 安全
吴 镇
吧 !</w>
向 往
向 全国
后, 在
后 才
后 宫
可以 在
可 持续
变 更
变 形
却 不
危 楼
占 到
博 锐
单独二孩” 政策
区域 内
加 以
前 列
出 炉
出 于
几 次
农 户
关塔那摩 监狱
公务 活动中
公务 接待
免 疫
克 力
倾 向
依 照
使 劲
作 ,
体现 了
住 所
低 温
伯 格
传统 的
任 命
从 中
人员 、
人 ”
亲 友
产生 了
交通 厅
五 个
书 、
习近平 办公室
也 不会
之 以
义务 教育
为 例,
为 :
中 表示,
中 签
业 、
世界 杯
专 题
不 愿意
下 班
上班 族
一 间
一 不小心,
》 和《
。” 小
、 生
、 多
” 报道,
“ 有
“ 抢
an d
L E
F- 22
D A
B A
; 二是
:一 是
9 日
7 .
30 万
3 万元
201 7年
200 3年
2 号线
10 天
0 52
-25 度</w>
,中国 人民
,[ 最低气温
, 现场
, 强调
, 原
, 全面
麦 克
高 效
骨 髓
马 来
马 克
首 歌
领 衔
韩 联社
露 骨
难 题
降 雪
陈 芳应
铁路 总公司
重 启
重 伤
郭 某
郝 邵
郑秀 文
那么 多
道 、
造血 干细胞
进 出
过去 ,
过 节
身 影
跳 河
路 兴
赵 路兴
走 ,
贯 穿
购 置
责任 ,
豪 车
调查 组
调 动
说 服
讲 ,
记 住
要 在
裤 子
被 捕
茶 话
花 生
芯 片
致 死
肿 瘤
老 有所
翻 译
网友 纷纷
综合 治理
综 艺
经济 圈
经 销
管理 系统
等 多
移 送
科 主任
私 家
破 裂
知 的
真正 的
看 的
看 守
相 结合
皇 后
的高 度
的问题 。
的 首
的 调查
的 美
的 精
的 真实
的 形式
的 丈夫
留 下了
界 的
甲午 战争
王 先生
状态 ,
煤 场
烟 雾
漏 洞
溥 仪
渗 透
深 水
流 通
治理 能力
治 病
沥 镇
污染 源
汇 聚
水 中
武 术
樱 桃
模 型
李 云
机动车 排放
机制 。
期 盼
有 过
最高 领导人
更 换
曝光 后,
暴 雨
暗 示
晚 上,
昨天 上午
时间 :
新 款
斯 特
整 修
改善 韩朝
支 援
搜 集
提高 了
提起 公诉
探 测
指 责
把 “
抄 袭
成为 了
感 和
想 起
惩 戒
总 会
怀 旧
开 播
店 里
广播 公司
常 态
左右 。</w>
局 副局长
尾 气
就是 要
小时 。</w>
导 向
对此 表示
实 业
学 历
媒体 采访时
妨 碍
好 事
头 脑
太阳 能
天 数
多 久
外 部
处分 。</w>
墙 壁
坚 强
场 合
在 港
在 12月
国家安全 局
国 会
呼 声
吸引 观众
后 面
各地 要
各 方
司法 局
发生 爆炸
县委 书记
厦 大
历 经
单 身
十 多
医院 的
劳动 者
动 手
办案 民警
剧 烈
刷 卡
制 服
到 来,
列 为
出 新
出 国
内 心
公众 对
全面深化改革 元
全 身
党的 群众路线
保持 适度
便 民
供电 公司
佩 戴
传 递
伟大 复兴
伟 英
企 图
从 未
今年 元旦
仅 是
亿元, 同比
亿元 的
人 是
人 受伤
京 华
了一 组
了 5
了 ,还
之一 ,
之 旅
举 动
主要 的
主 干
为主 的
为 他
中央 的
中央 八项规定
中华民族 伟大复兴
中, 我们
中 文
个 百分
丢 失
世界 大战
专 著
不 管
不 变
不 下
下 滑
下 来的
上河 图
三亚中院 办公楼
三 种
三 次
一 律
一 开始
一 向
一 只
一 代
《 新闻联播》
。在 这
。 希望
。 刘
、 旅游
、 安全
“ 黑
“ 高
e d
T A
N A
5 亿
4 .
2020 年
11月 份
,让 他
,它 们
,也 会
, 防止
, 过
, 表示
, 经过
, 未
, 开始
, 加上
, 决定
, 人们
( 资料图)</w>
高 调
马来 西亚
马拉 维
香港 驻军
香 烟
首 播
风 情
颖 超
领导干部 报告个人有关事项
预 案
顺 序
雷 达
雌 激素
集 中,
难 的
陪 伴
降 至
间 谍
间 的
银 联
野生动物 园
采访 了
郝邵 文
邓 颖超
追 寻
迟 迟
违法 犯罪
进行 的
进行 滋扰
这些 人
达 标
边 的
身 为
跳 楼
跨年 晚
足够 的
贵 妃
贪 污
该 市
诚 挚
试验 训练
试 行
议 题
规定 》
街 上
营 运
莫 斯科
药品生产 企业
自 嘲
能 使
胡国 初
股 ,
聋 哑
耐 心
老师 的
老 杨
翔 展
美国 在
罗 晨
缺 陷
维生素 B
统一 登记
给 出
结 尾
约 为
管理 办法
笔 钱
穿 戴
积 金
石 油
相 撞
的话 题
的情况 下
的一 部分
的 各种
的 5
病 房
生活 。</w>
犹 豫
牺 牲
特殊 的
爱情 公寓
燃 煤
煤 矿
烟 瘾
火 爆
激 励
漳 州市
演 讲
海 岸
没有 人
没 法
没 什么
沙 拉
汪峰 的
每 个月
此 外
正 风
楼 的
核 武
林 心
村 村民
杀 人
机 动
未 成年
最 差
暴 风雪
景 象
晚 餐
昨 晚,
无 许可证
新兴 产业
文 集
放 置
支付 宝
插 件
排 水
授 予
挂 牌
拯 救
拘捕 一名
抽 查
抱 怨
技术 改造
扮 演
户 外
意 图
患 病
急 性
影响 。
强 大的
强 国
引起 了
开除 党籍
开 拓
开 会
延 缓
年 头
常 识
巴 斯
已经 有
巨 星
层 楼
尔 的
将 要
将 以
寡 妇
宿 舍
宣传 片
实现 “
完 成</w>
安倍 参拜靖国神社
宇 宙
委员 、
如果 你
她 在
女 王
奉 献
失 调
大 麻
大 赛
大 奖
外 形
备 案
在 深圳
国 庆
啊 !
唾 液
和 他
吴镇 宇
同 台
司法 行政
口 袋
口 径
发表 新年
发生 后,
发 电
原因 ,
原 来,
博 主
南京 市
南 太平洋
千 亿
医 护
匆 匆
势 力
加 之
力量 ,
剩 下
初 衷
初 中
创 下
刚 才
刊 登
分 公司
冰 冷
冬 奥
农 药
其 次
其 中的
其 中,
公 积金
公 信
全 过程
做 过
保 存
使用 的
作 证
佛 山市
住 户
任 团
从 “
产 统一登记
交 规
交 代
亚 太
井 喷
五 保
二〇一四年 新年贺词。
事 先
了 10
买 卖
乡 亲
也 都
为 期
为 中国
两 起
世界 的
不同 程度
不 清楚
不 清
不 服
不 一样
上 前
三沙 新闻》
三 胞集团
一 段时间
一 早
一 方
一 共
一 人
。与 此同时,
。( 通讯员
。( 完
。 香港
。 针对
。 那么
。 最
。 一些
。 12月
、 金
、 服务
i v
Q I
7 点
7 年,
6 万
4 %
2014年1月1日 ,
20 年
20 个
2 名
1月2日 电(记者
199 8年
19 4
10 万
10 %
- 15
,这 让
,这 也
,多云 ,[最低气温
,全 力
, 经常
, 本
, 像
, 下面
( P
鲜 明
高 原
马俊 飞
风 ”
项 链
靠 谱
非 洲
降 落
附属 眼耳鼻喉科
防 卫
阎 迁
阎迁 涛
问 责
重 点,
郑州 电视台
遗 体
适 航
送往 医院
追踪 :
追踪: 整修
追踪:整修 即将
追踪:整修即将 完成</w>
进 、
辖区 内
较 高的
车 队
身 后
路 面
越 南
费 ,
责任 的
谎 言
说, 自己
证 书
讯 据
视频 :
要求 。</w>
要 比
蔓 延
落 成</w>
落 地
草 案
范围 ,
航母 战斗
舞台 上
至少 有
自 豪
脚 步
肾 脏
肥 胖
老有所 依
老有所依 海南
老有所依海南 7家
老有所依海南7家 新建
老有所依海南7家新建 敬老院
老有所依海南7家新建敬老院 落成</w>
羽 绒
美 好的
罪 ,
网站 “
网 点
经历 了
经 国
组成 的
纵火 案
红 烧
简单 的
简 短
科 长
福 袋
禁烟 令
禁 忌
确 立
着 ,
真 的是
看 得
盈 利
的几 率
的, 由
的 过程中
的 歌词
的 投资
的 态度
的 2014年
登 山
病 例
电子 商务
生 效
甄嬛 传
玩 手机
玩 偶
特 困
特 勒
版 的
爸 比
潜 在
满 满
清明 上河图
海南 热点新闻
海 淀
海 沧
浏 览
测 算
派 ”
洲际 弹道导弹
泡 沫
泄 露
沈 建华
汇 总
水平 。</w>
气 管
气 的
民生实事 :
民 国
毫 升
比赛 中
武 昌
步 入
正 好
检察 机关
校 方
机构 的
服务 中心
服务 、
有 益
月 经
最 具
晚 报》
晒 出
是 谁
日 来
无偿 献血
新年 伊
新型城镇化 规划
新京 报
新 景
敛 财
教育 ,
收视 新人
接受 群众
指 南
指 令
招商 引
招商引 资
拉 克
护 肤
护 栏
投资 、
把 它
所 致
我 会
成 危楼
成危楼 追踪:整修即将完成</w>
懈 追求
感 冒
惠 民
情况 的
总 务
性 爱
忙 碌
心 、
录 像
张 国立
引起 的
引发 了
广东省 公安厅
带 走
希 特勒
岁的 儿子
少 的
小时 后,
小 刚
将 全面
导演 高先明
导 航
导 游
导 报记者
对 近
对 《
富 强
客服 热线
实施 细则
实习 编译
官 网
安全 岛
安全 、
守 法
字 样
嫖 娼
如此 ,
如 同
好 心
女 演员
女 方
女 婴
大 臣
外 贸
夏 季
复旦大学 附属眼耳鼻喉科
基本 上
地 说:“
地 利
地 。
在 香港
在 某
四 周
响 应
和 解
命 令
司法行政 系统
可 靠
另 据
取 暖
发表 新年贺词
参赛 者
县 政府
县 (
卖 淫
华 裔
区 间
北 青
北 海
加快 推进
功 甫
副 总
制 订
制 成
刘松 怀
刑 拘
分别 是
几 百
减 速
冰 场
农牧 民
农 产品
内 务
公益 性
入 口
克 强
充 实
偶像 伦理剧
做 饭
值得一 提
保持适度 流动性
何 美丹
传 奇
会 不会
企 事业单位
任 免
仓 库
亿元 、
亿元 ;
交通 安全
五 ”
了 这一
乘 地铁
之 处
之 举
为主 ,
为 民
中小 企业
中国 驻
中国 虎
中 药
个人 信息
严 密
两 条
专家 表示,
不 正
下午 4
上 台
三亚中院办公楼 成危楼追踪:整修即将完成</w>
三 号
万元 。
一 群
一 年的
《 三沙新闻》
。( 海峡
。 我国
、 西
、 省
”。 在
” 被
” 就
” 也
” ——
i on
[ 三亚中院办公楼成危楼追踪:整修即将完成</w>
F 1
6 3
5 天
4 万
2 50
1月 3日,
,还 能
,而 这
,并 以
,她 的
,但 因
,但 却
,以 此
, 身体
, 法院
, 时间
, 去
, 切实
, 几乎
高 官
食用 油
食 物</w>
食 ,
风 俗
顾 文
顾文 启
鞋 子
面临 的
随 身
随 之
陪 同
降 雨
陈 婷
间 接
长 安
销售 额
铁路 警方
钙 、
金 价
重 症
重 案组
重 复
那 时
遵 循
造成 了
迪 斯
违 建
这 边
这 款
过 渡
过 后,
辆 车
辅 助
较 快
转 入
趋势 。</w>
起 的
赶 赴
赵 志强
走 势
资料 图:
贵 的
质量 管理
诽 谤
试 射
许 伟英
记者 采访时
记者 来到
见 过
要求 。
要 想
被开除 学生
被 子
表 面
行 走
蒋 介
蒋介 石
落 户
莫 言
荧 幕
苏 宁
航空 母舰
航 线
至 第
腹 泻
脱 困
肛 裂
聪 明
职 权
群 岛
缩 水
统计 局
精 品
类似 的
签 约
筹 集
空 域
稳定 的
稳 妥
科 考
礼 品
碰 撞
确 诊
硕士 研究生
看 点
相 差
相 亲
目标 ,
目击 者
的中国 梦
的 说法
的 平均
的 3
登 上
界 定
电 商
生态 文明
生 涯
生 前
理 事
班 主任
现 年
现 任
环球 时报
环境 保护
玉 米
率 、
热 气球
火 ,
潜 力
湖南省 政协
渴 望
渐 渐
深 的
海淀 区
法院 审理
此 举
正定 人民
正在 调查
歌 唱
标准 、
枢 纽
条件 ,
条 子
李胜基 与允儿
本 质
有 毒
最 新的
替 代
更好 地
曝 光</w>
普查 对象
是一 位
星 级
明显 的
明 镜
时间 为
时, 发现
无 可
新 专辑
文化 遗产
政府 对
政府 在
攻坚 克
改革 、
收益 率
支 行
摸 清
摄 取
搭 建
援 助
提 取
掸邦 军
接到 报警
接 地
据外媒 报道,
振 兴
挖 掘
押 钞
报》 1日
报 废
投入 使用
抑 郁
批 发
打 仗
扎丹 的
手 指
手 中的
房产 证
房 的
成为 “
惊 人
总 值
急诊 科
德 华
微克 立方米
得 分
徐 全
录 入
当 成
强烈 谴责
张 含韵
开庭 审理
建设 发展
廉 洁
并 且
平 常
常 吃
市委 常委、
市值 蒸发
市 县
巴 西
巡 查
履 职
少 用
小时 后
小区 居民
小 镇
小 康
小 叶
尊 严
将在 2014年
将 达到
对 策
实习编译 :
妓 女
女 孩子
失 明
大 年初
外交 安全局
复 苏
地 向
在 高
在 路边
圣诞 节
喜 爱
啊 ,
味 道
吸 毒
同 行
同 性
合 力
变化 ,
受 灾
发达 国家
发 帖
双 边
又 一次
参加 了
县 、
厨 师
原标题:两性 养生:
原则 ,
原 有
占 地
功甫 帖
力 于
前 晚
前 提
刷 指纹
制造 商
制度 。</w>
列 ,
出 让
出 游
出 击
凶 手
决定 性
农业 生产
农 机
其他 的
其他 人
公安部 副部长
公务活动中 严禁
公 约
公 然
党组书记 、
储 备
保护 区
便 秘
体系和 治理能力
低 价
以为 是
付 款
今天 是
亿 万
人民 解放军
人 人
亲 民
京 津
京 城
产品 ,
产业 发展
买 菜
书 写
也 需要
九 条
之 日起
之 后的
之 不易
举 证
为主 题
为 此
为 受
中 队
中 介
个 别人
严重 违纪
严 惩
与 人
与 之
不 高
不 远
不 时
不 幸
不 对
不 合格
下 属
上 来
上 年
上 、
万 达
一直 没有
。 至于
。 昨日,
。 昨天,
。 图为
。 例如
、 马
、 杨
、 市政府
、 公共
、 产业
、 三
” 地
t er
on d
o g
a x
P S
P E
A T
: 00
7 8
5 .
25 日,
18 个
15 个
13 14
1000 元
1000 万元
- 5
,被 告
,而 不是
,在 中国
,以 便
,东北 风
, 社会
, 实际上
, 如何
, 公司
, 保护
( 即
( S
( M
魅 力
高 。
马 桶
预 约
项目 。
露 出
震 撼
霆 锋
集 会
阳 区
防 控
阅读 :</w>
长 度
锦 玲
银行 的
钱 包
金 属
金 先生
里面 的
酒 、
都 想
那 种
遗 传
逐 一
进 站
这是 我
这么 多
这 段
这 两
近 百
过 上
边 ,
辛 勤
车厢 内
车 展
车 ”
身份证 、
身 心
身 上的
趋 于
账 单
请 求
说 道
话 筒
许 愿
记 者</w>
警 车
角 ,
视 力
西 瓜
被 迫
被 砍
表示 ,这
衔 接
著 作
营业 执照
营 可
航班 延误
自 制
能够 实现
能力 的
聚 会
者 们
美 术
缺 失
缴 费
缓 慢
维族 囚犯
维 拉
维 亚
经济 、
终 身
线 、
纵 横
纪念 邮票
繁 琐
米 兰
穿 过
称 的
禁止吸烟 的
社会 公平正义
硬 件
看 待
相关负责人 介绍,
相 助
监 视
的第一 天
的新 型
的 问题,
的 运动
的 身材
的 要求,
的 结果
的 明星
的 思想
的 山
的 实际
的 哥
的 功效
的 12
百 城
痔 疮
畅 通
用 药
生 ,
环 路
犯罪 的
特 大
爱你 一世
热 火
炒 作
激 动,
湖南 、
湖 人
港 口
清 剿
液 晶
海口 环海大厦
法 人
没有 什么
没 人
汉中市 红十字会
气象 台
气 血
正式 启动
正 面
楼 下
格 兰
校 园
枪 支
构 筑
条 约
杜 绝
李 升
李升 基
杀 害
机遇 之
服 刑
有 网友
有 机会
最高 法院
最高 可
曾 任
是 通过
时间 内
时 光
日本 的
日本 海上
无 视
无 下
新年前 夕,
新年前夕, 国家主席习近平
新 股
新 交规
文 具
放 学
放 入
改善 民生
播 出的
推荐 :</w>
排 在
掌 控
按照 国家
按 规定
持 刀
招 待
报道 中
扩 散
打 招呼
才 会
所 含
战 术
感 言
恐怖 分子
得 上
很快 就
形 状
录 取
强烈 的
建议 ,
废 止
幼 女
年 货
年 计划的
平 静
平 日
带 孩子
市长 肖杰
市场 ,
市 级
巴 巴
差 别
尽 力
就 已经
小客车 指标
小 朋友
对 自己的
对 着
定 价
定 于
完成 ,
宋 忠
学 科
威尔 谢
威 廉
姿 态
妹 子
套 餐
大 步
大 。</w>
大 。
处理 ,
填 报
堪 称
坦 承
地铁 站
地 理
在 办公室
土 楼
国资 国企改革
团 聚
因 涉嫌
商 量
哈 佛
和国家 机关
和 支持
和 你
周 某
吸烟 的
吴 某
合 成
各级 党政机关
各国 人民
号 牌
可 爱
口 味
发 病
发 抖
反腐 败
反 击
去年 9月
去 了
原 理
厂 家
即 便
卫 冕
博 弈
卖 萌
华南 虎
十件 民生实事
区 和
化 合
勇 敢
勃 勃
勃 兰特
加 热
剧 本
前 面
前 妻
前 夫
到 “
利用 职务
初 期
分 化
出 道
准 入
冷 水
决定 ,
内 分泌
六 大
全 文
入 场
党 支
儿童 医院
候选 人
保证 金
侦 破
佩 伦
体 汉字
低 ,
位 列
伴 随
传 达
会 继续
会 影响
众 人
代 言
他 ,
亿元,占 年计划的
人员 在
事实 上
争 执
买 到
买 入
之 二
主 场
为 自己
中小 学
中区 重案组
个体 经营户
严格 执行
东 风
不少 人
不 忘
下午 2
一起 ,
一直 是
一 小
一 号
一 句
一 一
《 清明上河图
《 我是歌手
。此 时,
。可 是
。(记者 刘
。( 李
。( 实习编译:
。 最终
。 最后
、 相互
、 同
” 活动
“中央 社
“ 在
y m
r a
h t
PM2.5 的
LE D
I F
D NA
? 为什么
; 第二
: 你
7 000
7 .0
6 人
5000 元
5 名
4 号线
4 G
2014年1月1日 起,
2013 -
2 万
13 个
12 岁
100 个城市
1. 0
1 米
052 D
.7 %,
,而 在
,有 网友
,无论 是
,同时 也
,他 是
,也 可以
,一 方面
, 谁
, 许多
, 故
, 往往
, 年
, 平时
, 双
齐 全
高 档
骨 折
骨 头
骏 马
马拉松 赛
饱 受
食 药
风 云
领域 改革
韩国 《
面 部
霸 机
集 结
随 便
除此 之外,
限 量
限 于
陈 建
陈 姓女子
阿 朱
阿 姨
防 癌
重 量
采用 了
部门 在
部 手机
邦 纳
速通 卡
违反 中央八项规定
进展 。</w>
进一步做好 领导干部报告个人有关事项
进 军
这 件事
还有 很多
运 20
辅 导
转 学
车 牌
身亡 。
起 航
走 红
赖 特
贩 卖
账 号
财政 部
谎 称
谋 划
谈 到
调查 发现
调 度
说 他
说 什么
误 解
诉 求
设计 的
设计 ,
见 习
裁 决
被 执行
行政 拘留
蜡 像
蛋 黄
藏 在
获 释
莱 坞
范 爷
节日 期间
船 舶
舞 蹈
致 辞
脾 气
脑 血管
胡萝卜 素
胡 小姐
肾 结石
而 且
者 ”
美 、
罗马 尼亚
罗 拉
绿 地
综合 整治
维 斯
结束 后,
结 局
经销 商
经济 体制
组 ,
精 心
篇 章
等 多项
第 七
祝福 。</w>
社区 居委会
确 有
看不 清
看 病
看 。
省 会
盾 构
相关负责人 表示,
相 克
盛 典
监督 、
的第一 天,
的前 提
的事 实
的《 关于
的 角度
的 节目
的 生产
的 文化
的 技术
的 元旦
的 传统
的 任务
百 货
生 病
生 理
生 子女
现 行
环境 监测
环境 、
玫 瑰
特种 设备
版 ”
爱心 人士
照 射
热 潮
点 名
灿 烂
火 山
潜 射
演 技
溃 疡
湿 度
温 泉
添 置
消 毒
消 协
法 拉
治疗 ,
没 了
江 县
汉中市红十字会 办公室
汉中市 纪委
永 定
此 类
歌葩 最
桐 庐
来 水
杀 死
机 会,
朱 丽
朝鲜 最高领导人
是否 有
时间 表
时 至
早 上,
日本海上 保安
日本海上保安 厅
日常 生活
日前 在
无菌 药品
无烟 机关
无 辜
无 证
新 气象
斯 兰
文 创
救 命
放 射
改 正
摇 滚
掌 声
据 新华社
换 届
挑战 赛
报 复
抢票 插件
抢救 无效
抗 癌
把 她
批 文
手 里
手 表
房产 证</w>
我们 就
我 觉得
患者 的
恐 惧
总领馆 正门
性 物质
得 不
影响 了
彩 票
式 的
异 地
开始 “
幻 想
年轻 的
年 金
平方 公里
常 委
帮 扶
带 上
帝 国
希望 ,
布 尔
市委书记 吴天君
已 成
州 的
山 ,
展 望
屁 股
尼 西亚
尺 度
小伙 子
小 杨
小 军
将于 今年
将 有
家 、
室 、
实现 中华民族伟大复兴
实名 举报
宝 贝
宗 武
宗 旨
宋忠 平说,
宋 某
子 。
姓 大学生
她 家
奥 地利
夺 回
夫妇 俩
天安门 广场
大 师
外交部 发言人
复旦大学附属眼耳鼻喉科 医院
增 收
境 外
基础 上,
基 调
基 亚
地 上
在 日本
图书 馆
国家治理 体系和治理能力
困 境
啦 !”</w>
唯一 的
和社会 保障
和 邮政
和 中国
周 年,
吗? ”
向 社会
后 将
后 发现
名 。</w>
右 手
可 通过
只有 一个
只 见
受 益
取 代
发展 、
发 微博
反 抗
双 钩
友 谊
又 将
原来 是
历史 上
印发 《关于
卫生计生 机构
卫生计生 委
占 道
博 爱
南 山
单 一
医院 ,
北 路
北 广场
包 裹
勇 于
前 景
前 日
刑 警
分 散
出 场
出 具
出 任
出 不
几 天,
冠 华
农 ”
养老 服务
其实 是
公 正
八 大
全 新的
入户 登记
党的 建设
克 制
健康 、
做 的
做 得
修 建
信息 。
例行 记者会
作证 遭
低 保
位 居
以下的 罚款。</w>
代 价
今天 上午
亿元, 增长
人员 伤亡
交易 所
交 谈
了 ?
为 总书记
临 湘
临 床
中央 电视台
中 还
中 海
严肃 查处
严格 的
严 峻
两 张
东南 亚
业 界
世 人
丑 闻
不 治
不 应
不 便
上 来,
上 旬
上 传
一直 持续到
一 堆
。” 在
。 对此
、 好
、 [
”一 词
” 和
” 中,
“ 新
ym ond
S h
S P
Ra ymond
O P
B BC
80 后
80 %
8 点
72 小时
6 点
3 .5
20 多
20 分钟
20 万
1月 5日
199 9年
12 种
1. 4
,让 你
,并 称
,将 在
,但 其
,不 同
, 组织
, 杨
, 应当
, 市民
, 属于
, 外公
, 发展
, 原本
, 3
龄 化
黄仕宣 新年
黄仕宣新年 将
黄仕宣新年将 圆
黄仕宣新年将圆 电动车
黄仕宣新年将圆电动车 梦
黄仕宣新年将圆电动车梦 想</w>
魔 仙
高 出
高 中
骨 骼
驾驶人 记
驾驶人记 分</w>
驻港部队 营区
驻 军营
香港 警务
香港警务 处
香港 人
首发 肖杰
首发肖杰 签名
首发肖杰签名 送
首发肖杰签名送 本网
首发肖杰签名送本网 记者</w>
饰 品
顺 风
韦 伯
面对 面
震 慑
集 中的
难 、
阿婆 为受
阿婆为受 虐
阿婆为受虐 者
阿婆为受虐者 作证遭
阿婆为受虐者作证遭 殴
阿婆为受虐者作证遭殴 派出所
阿婆为受虐者作证遭殴派出所 无下
阿婆为受虐者作证遭殴派出所无下 文</w>
闹 钟
间 隔
长 约
锅 炉
量刑 规范化
重 型
部 级
遣 返
通过 对
通过 中国国际
通过中国国际 广播电台、中央
通过中国国际广播电台、中央 人民
通过中国国际广播电台、中央人民 广播电台、中央
通过中国国际广播电台、中央人民广播电台、中央 电视台
选择 在
送 至
进 出口
这 对
返 航
运 送
过 得
过 大
转化 为
转 身
转 换
路 的
超 女
贿 赂
贾 某
谱 写
谋 杀
该 县
试 点,
设 想
解放军驻港部队 总部
解 毒
角 落
视频: 阿婆为受虐者作证遭殴派出所无下文</w>
规 章
见 度
要 让
装 ,
被盗 抢
被 警方
表示 ,对
衢 江
街坊 四
街坊四 邻
行 车
融资 规模
虚 拟
英国 广播公司
苦等 8年
苦等8年 仍未
苦等8年仍未 拿
苦等8年仍未拿 房产证</w>
艰 辛
自贸 区
自 贡
脑 部
胶 原
胡 斯蒂
胡斯蒂 娜
美 容
结构 、
经纪 公司
经济 带
经 开
组织 ,
纸 杯
纪检监察 干部
红 包
红 军
精神 病
管理 工作
等 国
等 因素
第五 代
第二 个
第一 批
第一 大
竞 选
穆 沙拉
穆沙拉 夫
禁 毒
破 冰
码 头
着 一个
眼 ,
看 好
目 睹
监测 点
的是 ,在
的名 字
的, 可
的 机会
的 最新
的 时代
的 改革
的 手机
的 成绩
的 干部
的 做法
的 4
百余 业主
百余业主 苦等8年仍未拿房产证</w>
登记 、
男 人的
电 休克
电休克 疗法
申请 人
用 心
生 于
球 ,
环球 时报》
王 子
率 达
独 生子女
特困 户
特困户 黄仕宣新年将圆电动车梦想</w>
物业 公司
牢 牢
爱 ”
煽 动
热 爱
热 带
烟 头
点 评
滞 留
游客 乐
游客乐 游
游客乐游 新景
游客乐游新景 点</w>
港 独
海口环海大厦 百余业主苦等8年仍未拿房产证</w>
海南 实施
海南实施 新交规
海南实施新交规 一年
海南实施新交规一年 :
海南实施新交规一年: 共
海南实施新交规一年:共 对近
海南实施新交规一年:共对近 88
海南实施新交规一年:共对近88 万名
海南实施新交规一年:共对近88万名 驾驶人记分</w>
海南 2013年
海南2013年 十件民生实事
海南2013年十件民生实事 完成
海南2013年十件民生实事完成 接受群众
海南2013年十件民生实事完成接受群众 检
海南2013年十件民生实事完成接受群众检 阅</w>
流 域
津 贴
洗 浴
注 明
法拉 利
沿 海
治 污
汽车 尾气
民政 部
民 调
民 用
欲 望
检 疫
案 。</w>
格 外
核 查
枞 树
极 品
极 具
来说 是
条例 》,
李 崇
机遇之 年</w>
本网 关注
本网关注 :
本网关注: 特困户黄仕宣新年将圆电动车梦想</w>
期 末
朝鲜最高领导人 金正恩
有 力的
有 两个
曾 多次
曾 佩伦
更加 美好
普通 的
普查 数据
是 以
时, 她
时 才
日 趋
无 所
无 关
旋 风
新年前夕,国家主席习近平 通过中国国际广播电台、中央人民广播电台、中央电视台
新修订药品GMP 认证
文 献
数据 显示
数 次
教育 的
教 养
政 委
放假 安排
放 开
收入 、
摄影 师
搬 迁
援 引
据中国之声 《新闻
捉迷 藏
按 时
持 平
拿 起
报 了
抢 夺
扬 子
托 德
打 通
打 印
战 士
或者 在
成立 了
情绪 激动,
恐怖 嫌犯
思 维
徐 谨
当 即
张 卫
张卫 华
引 入
开 行
建设发展 机遇之年</w>
建设 。</w>
建筑 面积
座 位
应 有的
幸福 的
并 轨
年龄 的
帮 你
带着 女儿
带 ,
市长肖杰 :
市长肖杰: 2014是
市长肖杰:2014是 建设发展机遇之年</w>
市场 、
巴 士
工 会
岳 伦
岩 石
岛 国
岁 。
山东 省
屋 内
小 偷
寻 常
宣 判
审稿 :
审 ,
宠 物
实体 经济
宜 居环境
定 点
安全 生产
安 康
守 望
学 友
孙 女士
存 量
存 放
委 屈
好 像
大 喊
多 小时
复杂 的
备受 关注的
处 级
基 准
坚持 “
坚 信
地 。</w>
在 外
在 国内
国际 化
回家 的
回 报
四 方
喂 食
商 圈
商 合
商合 杭
和 完善
和 她
呼 和
周刊 》
含有 大量的
名 誉
各级 政府
台风 “
可能 在
可 爱的
可 控
可 怕
变 身
变 动
发展 战略
发 给
发 明
县 长
升 至
十 五
医疗 费用
区 市
北京 的
化合 物
包括 :
勘 察
势 头
加 价
功能 ,
办公室 主任
到 现在
到 来的
别 的
别 墅
创业 板
刘 亦
刘亦 菲
列车 上吸烟
分 管
出现 的
出 访
净 化
冯 小刚
写 满
写 下
关注 度
关 爱
关 停
全 线
全 方位
克 莱
光 线
元旦 首发肖杰签名送本网记者</w>
倾 听
保健 食品
伤 口
会 给
会 同
会 使
企业 家
任务 。
仲 裁
以下简 称
从 业
仍 旧
人社 局
人 次
交易 平台
交 换
争 光
买 的
书记 市长肖杰:2014是建设发展机遇之年</w>
书 记</w>
也 纷纷
乘坐 地铁
之 中,
举行 了
主 治
为总书记 的
为 10
中国 驻旧金山总领馆
中 路
丧 失
丝绸之路 经济带
东 大街
东 亚
专业 化
不正 之风
不得 超过
不久 ,
不 需要
不 该
不 分
不 低于
下午 3
下 载
下 手
上午 10点
上 诉
三沙 书记市长肖杰:2014是建设发展机遇之年</w>
万 象
七 八
一定 的
一 阵
一 针
一 趟
一 根
一 本
一 审
《三沙新闻》 元旦首发肖杰签名送本网记者</w>
《 公安
。该 剧
。截至 目前,
。我们 要
。” 张
。(记者 李
。 民警
。 有些
。 更
。 改革
。 报道
。 同
。 各
。 另一
。 两人
、 科学
、 百
、 最
、 从
” ,这
’ ,
y S
in g
iP ad
i c
[ 北京市
T E
G al
C indy
A QI
9月 4日
9 月,
70 多
7 月,
6 次
4 名
30 岁
3. 3
3 年,
3 00元
199 7年
17 日,
12月 28日
11 个
1. 8
1 次
1 个月
1 :
0 .4
.5 4
.0 3
,有 时
,我 区
,并 于
,将 于
,多 家
,在 “
,他 和
,不 料
,一 是
, 近日
, 迅速
, 至今
, 打造
, 所有
, 尽管
, 均
, 保持
, 1月1日
黄子 华
黄 岐
高 等
高 架
马 祖
香 艳
首 飞
饮 用
餐 馆
额 的
颌 骨
颇 为
顶 层
鞭 炮
难 免
陈 全国
阿 曼
门 店
长沙 营可
长 跑
长 三角
销售 的
铁路总公司 客服热线
金 钱
量 为
酸 、
配 方
那 天
避 开
遥 控
遗 留
通 车
途 中
适 量
退 役
违反中央八项规定 精神
进京 证
进一步 调查
这一 幕
这 家
过去 的一年
边 缘
轻 微
轮 椅
转移 到
跟 帖
越 野
超 限
赞 助
贺 岁
购 车
账单 写满
账单写满 盈
账单写满盈 字
账单写满盈字 游客乐游新景点</w>
课 目
诺 基亚
说, 当时
误 会
话 ,
设施 ,
认为 是
认 出
誓 言
解决 方案
视 察
观察 。</w>
见习 记者
见 到了
要 是
要 将
要 “
装 的
裁判 文书
被 网友
被 媒体
表示, 2014年
行政 审批
行为 的
行 程
融 入
获 奖
荧 屏
英 寸
艾 滋
艰 难
自身 的
自己的 梦想
自 建房
膝 盖
腿 部
背 影
股 价
职 ,
聊天 词汇
而 努力
者 在
老 伴
美国 国务院
美国 和
美 的
网络 和
网 银
经验 ,
经济 体
红 素
系统 、
系 数
精 卫
管 网
管 控
筹 备
等方面 的
等 方式,
等 多种
笔 畅
站 点
立案 调查
稳中 求
称 之
祖 父
破 案
直 言
的人 物
的 颜色
的 钻石
的 表现
的 蔬菜
的 海
的 有效
的 最佳
的 张
的 吸收
的 另一
的 信息
的 传闻
的 世界
瘫 痪
用 好
用 ,
生产 总值
生 的
理财 产品
班 级
班 牙
牲 畜
物价 局
牢 固
牙 膏
爸爸 们
爱 唱
爱 乐
燃 放
烦 恼
烟 火
激 怒
演 艺
溶 胶
湖 区
游 账单写满盈字游客乐游新景点</w>
清 醒
添 加
海南 游账单写满盈字游客乐游新景点</w>
浅 田
洽 谈
治疗 费
治 久
油 品
汪 精卫
永 久
水 源
气 溶胶
民 俗
毫 米
毫 无
毛主席 的
毕业 后
比 对
段 誉
殡 仪
殡仪 馆
正风 肃
正在 进行
正 文
正 体汉字
欺 负
棚户区 改造
检察 官
树 林
条 款
李崇 禧
杀 手
机 的
未来 发展的
服务 。</w>
有 轨电车
有 媒体
有 哪些
有 不
最 快
暴 恐
暖 气
是 指
是 想
昨天 (
时用 “呵呵”,
时 在
既 然
无 聊
新 浪
新 中国
文 稿
散 装
效果 。</w>
放 缓
改 版
提高 到
提升 ,
措施 。
据 香港
捐 赠
拥 抱
招 考
拉 脱
报警 。</w>
找 不到
批 示
打电话 给
扎 堆
手 脚
所 未
我们 家
我们 在
成 以上
意 ,
情况 进行
情 。</w>
悬 挂
恶 意
恐怖 主义
总 领事馆
微博 上
得到 进一步
徒 步
很 大,
建设 。
建议 :
建立 健全
应急 预案
幻 觉
年 份
平 价
带动 了
带 回
帅 气
布 鲁
市红十字会 账户
已经 在
州 长
崩 溃
展 览
层 出不
层出不 穷
尸 检
尔 夫
少女时代 成员
少 ,
小 红帽
对此 事
家长 们
家 。</w>
客 流量
实现中华民族伟大复兴 的中国梦
宜居环境 建设
定 了
完成 后,
学 霸
好 评
好 多
失 误
失 血
夫妻 二人
太 空
天坛 生物
天 成
大年初 一
大学 的
大 火
多 样
处罚 金
基础 上
场 内
地 将
在家中 自杀
在2013年 的
在 这一
圣诞 老人
土地 流转
国 债
善 后
和 家人
呼和 浩
呼 救
周 总理
周 二
同 居
合同 诈骗
合 计
各级 领导干部
右 翼
台 ”
古 人
受到 法律
受 试
受 害人
反 思
县 城
去 年,
厦门 市
卫生 间
卧 室
协 作
升 旗
千万 不要
十 六
区 委
区 。</w>
北 美
劳教 局
办 主任
前 行
创新 、
刚刚 过去的
刘 姓大学生
列车 的
分析 人士
分 裂
分 歧
出来 。</w>
凤 荣
几 年,
几 个月
准 岳母
冲 动
关 怀
公里 。</w>
公斤 ,
公共场所 禁止吸烟
公 顷
全国 歌葩地图
党支 部
元旦 海南游账单写满盈字游客乐游新景点</w>
元 、
傍 晚
倒 是
保 管
侦 察
你; 一不小心,
作 了
体 现在
伤 ,有人
传 染
会 是
会 员
会 “
价值 观
代表 大会
亿美元 ,
人力资源 和社会保障
京津 冀
享 受到
产权 房
产业 结构
交 涉
交 付
二 线城市
二 级
了一 系列
了, 我们
了, 就
了 ”。</w>
了 ”,
乳腺 癌
也 应
也 对
也 为
之间 ,
主 打
为 核心的
为 基础
为 之
丰 田
中央 领导
中国 男子
中 青年
中 信
两 孩
两 地
业 余
世 ,
专门 的
不能 说
不好 意思
不久 前
不 行
不 成
不 堪
不 含
不 去
下午 ,记者
下 调
上 调
万余 元
一次 性
一 笔
一 天,
一 口
【 环球时报
。(记者 陈
。 若
。 王
。 法院
。 没有
。 日前,
。 即使
。 二是
。 一般
、谢 娜
、 负债
、 德国
、 使用
” 计划
” 组织
“ 零点报告
“ 东
—— —
a g
[ 很多人
S u
S A
PM I
O S
Gal ax
9 时
9 00
7 4
6 名
6 、
6 %
5 分钟
3月 1日
31 个
3 位
2012年 12月
2 10
1月1日 电(
14 年
12月 30日,
100 克
10 万元
.8 万
.0 9
,那 就
,这 名
,让 我们
,致 以
,最 好
,就 连
,可 谓
,又 是
,再 加上
,全 省
,一 年
, 送
, 进而
, 结束
, 截至
, 怎么
, 市
, 增强
, 基本
, 吴
, 取得了
, 及时
, 今天
, 之后
(约合 人民币
( 包括
( 二
龙头 企业
默 默
黑 暗
高峰 期
高 级人民法院
高 、
骑 着
首要 污染物
首次 公开
首度曝光 书架上摆放
首 位
颠 覆
韩 某
青 海
青 团
雾霾 天气
院 校
限 期
降 温
问 :
长 治久
长治久 安
长 山
销 毁
银 幕
金 店
金 丝
采访 中,
采取 有效
酒 ,
配合 下,
部门 将
邻 国
那 儿
遇 见
通州 区
选 址
退 市
违纪违法 案件
违纪 问题
进一步 完善
这 两天
还 表示,
迈 勒
过 多的
车 身
路 径
跨年晚 会,
跟 他
跑 步
足 足
越来越 多的
赶 往
走 路
赢 得了
资 深
贾 迈勒
货币 基金
货 款
财 物
谢 娜
调整 为
调控 政策
诸 如
说:“ 我们
该 车
该 案
设置 了
记者 的
认识 了
警方 的
警惕 :
解决 。</w>
解 除
观 澜
观澜 湖
要 去
要 从
西 班牙
西 沙
被 砸
被 判
表示 ,他们
表示 ,他
表 白
补 血
行 人
血液 循环
血 拼
荷 兰
范 畴
苹果 公司
花 香
色 素
自 律
胎 儿
肌 肤
耳 朵
老 人的
美国 总统
美 兰
网站 上
缅 甸
绿 城
绳 之以
绳之以 法
给 女儿
经济 体制改革
级 ,[
级 ,
红 光
繁 华
紫 琼
管理 体制
等 问题,
等 多个
等 均
等 各项
等 “
第一 期
笑 着
竞 赛
立 体
立 交
空 置
稳定 、
称 :
科学院 院士
禽 流感
离 奇
离 不开
福州 新区
福利 院
矿 物质
石家庄 市
看 似
监管 安全
的问题 。</w>
的人 ,
的 衣服
的 营养
的 良好
的 日子
的 支持
的 想法
的 强
的 夫妇
的 天气
的 土地增值税
的 唯一
的 利益
的 出台
的 关系
痛 、
疏 散
留 守
用 血
生命 危险
生产 生活
生 殖
生 日,
现象 ,
狮 子
特 有的
牵 头
牙 龈
燃 油
照片 ,
热 衷
灵 活
漂 移
满 贯
湘 潭
湖南 省委
游 、
渣 土
清 远
清 洗
海南热点新闻 推荐</w>
海 冰
注 入
法 玛
沉 淀
气象 局
气 息
民生实事: [
民生实事:[ 老有所依海南7家新建敬老院落成</w>
民众 对
民主 党派
比 普通
每天 吃
每 逢
正风肃 纪
正文 】</w>
植 入
格勒 诺
根本 上
核 导弹
查 验
某 种
柏 芝
林 峯
来 之不易
村 ,
权 的
机 前
朴 槿
本 文
未 婚
有 权
有 意
曾 有
更 改
曝光 台”
普 选
晚 高峰
晓 风
是 针对
是 我
春 天
明 珠
时 限
时 要
日本 宪法
无菌 药品生产企业
无 比
无 意
旅游 局
施 行,
新年前 夜
新 能源
故意 伤害
支 柱
推出 “
控制 ,
据台湾 媒体报道,
拍 到
拉脱 维亚
押钞 员
报 价
技 巧
房 、
截 止
成了 “
感 知
想 过
恐怖 组织
总体 部署
性 生活
思想 和
德国 总理
微 软
很多 ,
很 正常
很 可能
征 集
影响 力
彭 帅
当 下,
强 ,
张某 在家中自杀
张 贴
弃 婴
开办 者
建设 项目
建设 成为
建立 了
度 、
店 铺
店 主
广东 卫视
年 满
平凡 的一年
干部 群众
幕 。
带着 孩子
布 置
市民 的
市委 、市政府
市场 上
市、 区)
已经 开始
已 累计
已 构成
工程 建设
工作 者
工作 和
工 人、
层 面
尖 叫
小 微企业
将 持续
将 他
封 闭
封 锁
对 照
对 地
富 有
富 帅
家里 人
家 门
家 电
室 友
审计 署
审判 决
实验 室
实 地
宝 鸡
宏 伟
守望 相助
宇 春
学 前
好 莱坞
好 了,
奶 奶
女 童
女 明星
女 主角
大 片
大 声
大 于
多元 化
多 地
外 号
处分 ;
增 量
塔 尔
基础 。</w>
基 隆
城 郊
地 处
地 块
在 自己
在 纽约
在 新的一年
在 他
国防 和
国 九条
困难 和挑战
喜 悦
商 人
商 事
唱 《
和 田
和 县
呼和浩 特
周 五
周 三
呕 吐
告诉记者 。</w>
启动 “
吧 。”
向 美方
向 大家
后, 她
后, 再
同期 】
同 盟
合理 的
各 位
司 令
可能 有
可以 通过
只有一 天
古 丽
发表 声明
发行 不超过
发 扬
反 馈
双 向
又 在
参 照
去年12月 28日
原标题:养生 警惕:
压 轴
历史 文化
印 章
卫生 组织
占 比
单独 两孩
半 数
半 夜
午 饭
升 高
十二 五”
医护 人员
区 (
势 而
劳教 人员
加 班
办、 国办
剑 桥
前 所未
制 、
到 医院
切 身
分析 师
出 资
几 家
冬奥 会
农民 自建房
农 场
军 委
军 区
关 切
共 青团
六 张
公共 交通
八 成
党的 十八届三中全会
党 组织
先 是
元旦 假期
元 升
儿子 的
儿 女
像 是
储 存
停 放在
做 一个
修改 后
保 电
供 奉
作 物
传染 病
会 见
以 外
以 内
从 此
今日 起
什么 时候
人民 医院
人员 安全
交通 委
交 所
交 叉
五 是
事故 原因
事 、
了一 条
了一 台
了 ,“
也 成为
乐 趣
之 便,
主 播
为总书记的 党中央
丰 胸
中新社 发
中 外
中 原
中 办、国办
两岸 关系
两 周
东西 ,
东大街 派出所
世界 卫生组织
与 此同时,
不能 同
不 肯
不 移
不 文明
不 小
不 存在
下 机
上 方
上 千
一 部
一 时
一 所
一 台
一 会儿
一 ”
【 正文】</w>
【 同期】
《 联合
。这 样的
。然而 ,
。” 该
。” 她
。(完 )</w>
。 预计
。 中方
。 中新社发
。 198
。 11月
、 知识
、 省政府
、 打
、 对
、 共同
、 五
” 这一
” 活动,
“三 农”
“ 这
“ 对
“ 土豪
“ 台
u mi
i m
el l
[ 北京
V 60
CE O
B I
; 区
: 我们
8 年,
8 .
6 年,
5 万
4 年,
4 个月
3 D
28 岁
21 时
2014年 新年
2013年 前
2010 年,
15 岁
12月30日 报道,
12 个
1 名
1 12
- M
,有 利于
,我 想
,并 把
,并 与
,因 而
,其中 有
,以 防
,也 不能
,也 不
,上 面
, 随着
, 男子
, 接受
, 所
, 4
鼻 子
黄 山
高 大
高 价
高 产
驱 动
香港 的
馒 头
餐 ,
食物 的
风 貌
预 示
靠 泊
静 脉
需要 一个
附加 值
门 的
长 久
钱 某
钱 。</w>
钢 琴
金额 为
金 日
金日 成
里 ·
酒 精
配 偶
都 不能
逐 年
选 拔
逃 离
送 礼
退 货
追 问
迷 奸
违法 建筑
进行 一次
进 门
这一 年,
这 座
近 来
近 3
过 。</w>
输入 ,
辈子 小心
轻 轻
践 行
路 上,
跨年 演唱
超 额
起来 。</w>
走 廊
赡 养
赠 送
贪 腐
质 、
负 有
说, 如果
说 我
话 语
诗 诗
记者 看到
记者 昨日
训练 。</w>
认 同
解 救
视 野
见 的
被 依法
表示 。</w>
表 述
行政 权力
行 情
落 到
获 批
荣 获
范 儿
节目 中,
船 员
舰 队
舅 舅
自卫 队
自 首
腹 胀
腹 股
腹股 沟
脸 蛋
背 部
肉 ,
肃 政
联 赛
联 想到
职业 生涯
耗 费
群 安
美 ,
罪 刑事拘留
罚 单
网购 平台
网 记者
网 ,
缴 获
缩 小
缓 刑
绿城 广场
给 大家
绍 卡
绍卡 利斯
绍卡利斯 基
绍卡利斯基 院士
细 致
纸 条
级 地震
约 ,
纤维 素
红 白
紧 接着
索 尔
精神 、
精 算
管理 部门
管 道
等 相关
等 症状
笼 子里
第一 艘
站 着
稳 健
秦 师傅
秘 诀
私 下
禁烟 区域
祭 拜
票 选
社会 生产
社会 各界
短期 内
眼 镜
看守 所
省委 常委、
目 。</w>
的一 系列
的 门
的 道路上
的 第
的 电影
的 条件
的 时刻
的 房
的 微博
的 原
白 萝卜
白 发
痛 苦
病 。</w>
疾 控
男 的
电 线
由 第
瑟 瑟
理 应
环保 局局长
王 志
王 岳伦
独特 的
热 水
烈 士
火 热
激 活
演 奏
滑雪 场
湖 新
游乐 设施
清 单
涉及 的
海南 岛
海 北广场
海 关
派 对
洲际 导弹
洛 克
没 能
没 收
沙 特
汗 水
水平 的
民 歌
民 工
毛 群安
比 尔
每 小时
歼- 20
死亡 ,
武警 官兵
此 项
此 时,
歌 迷
次 会议
森 碟
格勒诺 布尔
核 电
果 然
林心 如
来 得
村 长
李 伟
未 必
有 时
有 很大
更多 人
更加 幸福
是一 场
是 需要
是 当前
明确 表示
明 明
时30 分,
时 机
早 早
早 年
日本 军国主义
日 后
无线 电
无 机
新疆 维吾尔
新年的 祝福
新台 币
新 歌
断 了
文化 志愿者
数 名
教育 和
教 练
政策 和
政府 部门
政 局
放 进
放 到
收入分配改革 细则
搜 救
提示 :
提出 的
提 问
措施 。</w>
推 着
推 向
接 吻
掌握 了
挽 回
挑 选
指挥 部
拼 命
拦 截
拖 欠
报告 》
护卫 舰
护 士
抢 购
抗 菌
抗 氧化
抄 长山
技术 的
找 出
打 着
打 来
手 掌
所 说的
我们 这个
我们 国家
我们 共同
意义 。</w>
患 上
恰 恰
志愿 服务
德 里克
微博 里
影 星
形象 。</w>
张 馨
张 成
开 口
庞 大的
年轻 观众
年 级
年 仅
已 婚
居民 家庭
居住 地
就 需
尖 端
小 说
小 三
将于 2014年
对张某 以
对张某以 涉嫌挪用公款
对 该
客 厅
审批 手续
审 三
审三 公示
定 义
宗 盛
宋 某某
宋 争光
安 检
孕 妇
嫌疑 人的
威尔谢 尔
始, 万象
始,万象 更新
好 了
女 朋友
奥 特
天 价
大 户
多 方
多 位
填 补
城管 执法
型 的
坠 楼
坚 果
场 馆
地 把
地 对
地 在
在 被
在 海外
在 京
在 一个
土地增值税 清算
圈 、
国际 收支
国家 战略
回 国
善 行
商 城
售 卖
唐 某
哺 乳
响 起
和 记
和 张
呵 护
周 笔畅
含 义
吧 ?
向 媒体
后, 又
名 列
名 下
同 伴
合 并
吃 喝
台 南
台 ,
可以 让
可 达
另 一位
叠 加
叔 叔
参 数
压 缩
卫生 部
卡 路
占 领
卖 家
单位 、
协 定
华 东
十 七
医疗 机构
区 大
劳动 党
动 了
务 必
办公 桌
劝 说
剧 场
剥 夺
分 辨
分 行
分 分钟
出 院
出 手
几位 主演
减 排
准 基
冷 静
冰 块
军事 报道
军 人
内容 。</w>
内 政
养老金 并轨
典 礼
兴 业
关 节
共 享
兰 州市
六 约
公示 不少于
公务活动中严禁 吸烟
公 报
公 建
八 一
全面深化改革元 年
全文 如下:</w>
全 美
党组书记、 局长
党和 国家
偿 还
偶 尔
做 “
偏 重
保 罗
侵 害
依法 提起公诉
体 征
体 内的
低 估
伪 装
伤 势
会议 室
会议 员
会展中心 站
会 导致
会 增加
以及 “
以 2
今 后,
亿 亩
人防 设施
人事 调整
人事 任免
人 道
人 次,
人 性
产业 园
互 助
互 动,
于 2013年
二手 房
二 胎
事 后,
了 自己的
了 三
了 ,但
也 是一
也 从
为 由
中国 军队
中 纪委
中 期
个工作日内 进行
两 三
东 条
东 山
世界 排名
专项 资金
与 美国
不 绝
不 法
不 好,
不 吸烟
下 达
上 榜
三 口
一把手 ”
一定 程度上
一个 多月
一下 。</w>
一 季度
一 夜
一 刻
一 )
》 一
《清明上河图 》
《 铁路安全管理条例》
《 明镜
。这 位
。据 了解
。” 这是
。 直到
。 由
。 小
。 后来
。 你
、 财产
、 信息
” 上
“一把手 ”
“ 微
“ 开
‘ 呵呵
umi a
t h
i g
[ 十八届三中全会
[ 京华
M ot
KTV 唱歌
C 罗
B S
AP P
;区 住建
; 第三
; 三是
; “
9 2
9 .
6 7
500元 以上
3名 中国
20 余
18 日,
100 元
100 %
10 个
1 小时
1 号线
0 .5
,这 款
,让 这个
,有 点
,更 有
,当 然
,就 可以
,就 像
,在 一
,哪 怕
,全 年
,也 没有
,也 不是
,主要 是
,不 如
,一 家
, 马
, 长
, 跟
, 能够
, 省
, 晚上
, 支持
, 学校
, 国家
, 凝聚
, 企业
, 仍
, 享受
, 东
, 2014
%以上 。</w>
黑 客
黄 晓明
鱼 、
高 宗武
骨 干
骑着 自行车
验证码 ,
马 尾
首都 机场
首次 在
首度曝光书架上摆放 六张
首先 是
首 《
饭 菜
饥 饿
食品药品 监管
食 欲
飞行 器
领导干部带头在公共场所禁烟有关事项的 通知》
领 跑
顾 问
顺利 推进
面 貌
面 舰艇
靠泊 青岛某军港
非 机动车
非 公
需要 ,
需求 ,
零 食
集 聚
雁 涛
随 手
陆 某
阿里 巴巴
阿曼 古丽
阿 拉
阿 峇
阿峇 波
阿峇波 威
阻 碍
闹 事
闲 置
问题 上,
闫 海洋
闪 光
长江 大桥
长 大
链 接</w>
铁路运输 企业
钱 的
金 斯
金 、
量 身
重 组
里 有
配 有
都是 “
都会 在
部 部长
郑州 市委
道路上 迈
造 林
送 到了
远 的
远 低于
这样 一个
这 场
返航 靠泊青岛某军港
近 几年
过 剩
辽宁舰 为核心的
辞 职
较 多的
转型 升级
车型 的
车 祸
跳 舞
路 上的
赶赴 现场
走 完
走 。
赞 成
赞 同
赛 场
资金 约
贴 身
购票 顺序
责任 公司
责任 人
说, 他们
说 自己
说 她
试验 区
认 知
观众 的
观 赏
观 景
要 通过
要 带头
襄 阳
装 有
被 查
表示, 将
表 面上
行为 。</w>
蟒 川
蟒川 镇
虚 构
薪 酬
花 、
艰苦 奋斗
航母战斗 群
致 力于
自 责
能够实现 自己的梦想
能 见度
联系 方式
耽 误
而 出,
耀 庭
羽绒 服
美丽 的
美 味
罗 先生
网站 的
网 的
缺 铁
维生素 E
继 刚
绞 刑
给 孩子
结 晶
经营 管理
经开 区
经常 吃
组成 部分
线 。
纯 金
纪委 、
索 要
签 字
答 复
第一 季
笑 容
竞争 力
窗 外
突 出的
穿 越
空气质量 指数
空 白
稳步 推进
稳定 。</w>
科 的
祝愿 各国人民
祝愿各国人民 能够实现自己的梦想
确实 是
破 题
研究中心 主任
督 办
眼 泪
看 过
相 距
相 识
相 机
目 的。</w>
监督 管理局
皇 家
的伟大 事业
的一 条
的, 你
的 钱
的 职业
的 老人
的 第二
的 积极
的 父母
的 爱情
的 游戏
的 温
的 案件
的 服务
的 最高
的 日本
的 办法
的 办公室
的 20
病 、
疑 虑
留 下的
男 星
电话 里
电话 。
用 电
用 气
用 “
生命 体征
生 动
瑟瑟 发抖
琼 海
环境 的
猪 肉
特 区
爱乐 乐团
爱 。</w>
爆炸 案
照 料
煎 饼
点 什么
炎 、
火 星
火 势
瀑 布
激 进
漫 长的
滥 用
清华 大学
混合 所有
深 深
消 法》
海 试
浙江 省
注意 到
法玛 尔
沿 线
油 腻
油 耗
汝 州市
汝州市 蟒川镇
汕 尾
汉中市 政府
水 的
民族 团结
毛 巾
比赛 中,
毅 力
步伐 。</w>
此 案
欠 薪
橄 榄
楼 盘
楼 市
检察院 对张某以涉嫌挪用公款
梦 ”
案件 正在
核 电厂
核 准
样 本
标准 化
来 往
机制 、
本身 就
有限 责任公司
最 容易
曼 苏
更多 的人
晚 间
晚 报
显示 屏
是 我国
是 很
是 大
明确 规定
明 知
时 左右
早 饭
日 渐
日 报记者
无许可证 情况下
无许可证情况下 进入
无疑 是
无 ”
旅游 市场
方向 盘
新闻 推荐</w>
新 西兰
新 藤
新 篇章
新 任
新 人,
料 ,
文创 产品
散 落
政府 和
政协 主席
改革的 道路上迈
播出 时
撤 离
撞 击
摄入 量
搞 垮
搞垮 一间
提出 “
提 速
提 早
描绘 了
推进 改革的
推荐 阅读:</w>
探 险
排队 买
招 募
拍 戏
拍 了
拉 着
拉 客
报道称, 中国
护 理
抚养 权
抓住 了
手 法
手 柄
所 持
所 周
战胜 了
战 场
戒 毒
我 区
成 是
戏 骨
慎 重
感 恩
感 兴趣
情况 和
恭 喜
总统 普京
性 激素
性 文件
快速 发展
快 餐
快 地
心 灵
心 地
很好 地
很多人 都
征求 意见
往 下
彩 排
当 做
当 今
强调 ,要
强大 日本
强 硬
强 劲
弥 补
张成 泽
张 阳
开展 了
开 业
建国 65
店 员
应 在
库 尔
幽 默
年 期
常务 副
带 到
师 范
师 生
市 政
差距 。</w>
差 生
工作会议 上
工作 领导小组
工作 要做
工作 作风
工 作</w>
工 伤
岁的 小
岁末 ,
屠 宰
局 的
尽 可能
就 行
就 来
小 幅
小 小的
将在 改革的道路上迈
将 生
将 根据
将 更加
对 社会
富 民
寂 寞
宽 松
实质 性
官 邸
完成 。</w>
完 毕
学生 们
孙 耀庭
存 储
子 就
婚 期
婚 外
婚 后
威 夷
如 期
好 地
女儿 的
女 粉丝
奢 华
奋 战
头 号
失 眠
央视 春晚
夫妻 俩
太 保
大家 一起
大学 教授
大 连
大 树
大 方
夜 班
多 是
多 云
多 。
外媒 称
夏 威夷
处理 好
处处 长
处 决
声 。</w>
增加 到
增 进
塞 尔
基 数
基 尔
城际 动车组
城市 群
城市 管理
城市 、
型 驱逐舰
坚定 不移
场 地
地区 ,
地 带
在一 旁
在 1%
在1% 以上的
圈 ”
国家 ,
国务院 港澳
国产 航母
回 升
器 。</w>
嘉 玲
商合杭 铁路
唱 片
哭 着
品牌 的
和邮政 业
和 规范
和 海外
和 文化
和 我
和 各
吸 取
吴京 微博
吓 坏
向 汉中市
向 公众
吐 尔
各 单位
号 召
史上 最
可 穿戴
只 放
古 田
口 罩
变 相
受访 者
取得 新
发 、
反 省
及 其他
参 演
参 保
去年 10月
原则 上
原 始
原 先
历史 新
历 程
却 没有
即将 迎来
卡 车
南 沙
单位和 个人
华 尔
北青 报记者
包 、
劳 斯
功能 的
副主席 童名谦
制品 、
到 场
划 分
刑警 队
刊 文
分 开
出 彩
凌晨 2
准岳母 娘
决策 部署
决 算
农 贸
农 庄
军 舰
军 民
内容 属实
兼 职
具有 重要
共同 生活在
共同 努力
六 个
公建 民营
公布 婚讯
公务 用车
全 社会
党 纲
党 校
先 前
储 诒
健康 长寿
停 留
偏 僻
倒 票
倒 入
信息 系统
保持 着
促进 了
便 可
侵略 战争
供 水
例行 新闻发布会
作为 一个
何炅 、谢娜
何 时
体 温
住建 厅
住 处
伟大 祖国
会 后,
优惠 政策
众 所周
伊 拉克
任何 人
价 的
件 ,
代 购
代 码
从来 没有
人防 办
人民 日报》
人大常委会 主任
人 间
人 送
亲 近
互联网 金融
事故 ,
事发 后,
事件 。</w>
了一 份
了 许多
了 ,这个
了 ,但是
乞 讨
之一 。
为 您
为 市
为 啥
丰 满
中心 主任
中央纪委监察部 网站
中国 在
中 将
两名 男子
专 属
与 他
不再 是
不 论
不 听
不 利
不 像
不 佳
上下 班
上 限
上 百
三 季度
三 四
三 位
一定 会
一 幕
一 头
一 处
。据 介绍,
。当 日
。一 是
。” “
。 香港《
。 近期
。 让
。 第二
。 很多
。 当地
。 只要
。 于是
。 之后,
、大 连
、 舰
、 生态
、 爱
、 广州
、 学校
、 发展
、 南
、 北京
、 10
℃ 。</w>
” 专项
” ?
“ 偶像
ww w
w s
p er
o d
iPhone 6
e c
a ut
[ 昨日
W ind
N BA
M I
L G
: 从
: 中国
: 0
8 日,
7 次
7 大
60 岁
6 日,
6 亿元
50 %
5 家
4 人
38 条
37 天的
3. 7
3 80
24 个
23 日,
2013年 8月,
2011 年,
20 名
2 岁
196 1年
16 号线
15 年
12月 29日
12 日
12 .8
100 余
100 万
- 2
,这 对
,这 份
,还 可以
,有 媒体
,有 助
,无 疑
,我 觉得
,并 没有
,实现 了
,大 约
,可 是
,努力 把
,但 对于
,但 从
,他 曾
,也 被
,一 律
, 重点
, 达到
, 笑
, 然而
, 标志着
, 林志颖
, 星
, 提出
, 待
, 各种
, 原来
, 北
, 剧中
, 争取
) 》
鼓 鼓
黄 埔
鲜 肉
高 涨
高 新技术
高 地
驻 捷克
马 力
马 伊
香港驻军 禁区
香港人 优先
香 菇
首播 时就
首度曝光书架上摆放六张 照片</w>
首先 要
饲 养
饰演 的
飙 升
风 的
风 波
颁 证
顿 时
项 试验和训练
页 面
面 、
静 安
雪莲 一家
雪 地
集中 整治
集 群
隔 壁
随 地
险 些
阶 层
阵 雨
间 断
问 了
长期 高居
长 队
长 得
长 征
镇 的
错 过
链 条
链 接
银 桥
钰 莹
钥 匙
钓鱼岛 附近
金丝 楠
重大 疾病
重 罚
里程 碑
酝 酿
酒 吧
都 存在
郑 州市
邓小平 同志
邓 文
遭 到了
遇 难
遂 宁
逛 街
通过 新修订药品GMP认证
通报 曝光
逊 色
逆 袭
逃 跑
送 回家
远 距
远 ,
进行 “
这个 时候
近 距离
迈 向
过上 更加幸福
过 量
达到8 .54
辽宁舰 顺利
输 出
较 大,
躺 着
踢 足球
跳 水
路 人
起 步
起 来的
起 伏
赵韩樱子、彭冠英 、张
赵韩樱子、彭冠英、张 含韵
赵韩樱子、彭冠英、张含韵 等
赔 付
资源 的
资料 显示,
质 检
货币 信贷
负 荷
谢 霆锋
谈 恋爱
调 味
谁 来
说 ‘
说 ,这些
诚挚 的
证明 ,
证件 照
证 等
设计 、
记者:“ 当时
订 制
计 时
警告 ,
警 力
誉 为
言 语
触犯 《公安
触犯《公安 条例》
西 洋
被拍 到
被 撞
衷 心的
街 办
衍 生
行动 。</w>
血 和
著名 的
菜 百
莫 名
英 小学
芳 的
芳的 乳房
芬 芳的乳房
芝 加
芝加 哥
节 省
节 的
节 俭
船 上
般 大小
航 站
舟 共
致 使
自 来水
自 2013年
膀 胱
腾 讯
脾 胃
脸 上
胆 固
胆固 醇
肯定 是
联系 ,
耕 耘
而 至
而 来
而 在
而 又
者 、
考 场
网站 报道,
编队 航行
编 码
统计 申报
经营 性
经济 建设
经济 发展的
经 查,
绍卡利斯基院士 ”号
练 习
纳 拉
纳拉 维
纯金 打造的
纯 收入
纪检 组
纪念 日
紧紧 围绕
精 良
米 。</w>
签订 了
笼 罩
第二次 手术
第一 季度
第 24
竞 价
空 间,
稿 件
稻 花香
租 飞机
科 目
禁 食
神 情
祖国 和人民
社 论
碰 到
知 心
眼 下
真的 很
看 出,
看 不到
盲 目
盲 人
目前 为止
监 禁
的风险 。</w>
的新 模式
的人 ,我们
的 身体
的 超
的 游客
的 消费者
的 民警
的 战略
的 感情
的 学习
的 低
的 位置
登 机
病 床
用人 单位
生活 习惯
珍 惜
现场 的
环卫 工
王 晓
猩 猩
猝 死
独 岛
物 资
爱 上了
爆 出
熄 灭
烹 饪
热 炒
点 点
点 是
灭 火
演 习
滚 滚
源 于
湖南省政协 原
湖南卫视 首播时就
清城区 纪委
深 感
涨 跌
消息 。</w>
海外 金融资产
浴 室
浩 瀚
浓 浓
浏览 器
流 入
派” 家庭
派”家庭 剧
波 兰
泓 源
治疗 。</w>
沉 着
沃尔 沃
污染 防治
汉中市人民检察院 向汉中市
汉中市人民检察院向汉中市 中级人民法院
汉中市人民检察院向汉中市中级人民法院 依法提起公诉
汉 口
水 分
气 压
民政 厅
民 事
毫 克
歼- 10
死亡 。
正 值
歌曲 ,
歌 ;
欢 聚
次 于
模式 ,
模 糊
榜 样
椅 子上
检察院对张某以涉嫌挪用公款 罪刑事拘留
标 哥
某 和
果 断
林 、
极 大的
杰 伦
来 安
条件 下的
村 官
李 克强
本 田
未 来,
期 内
有一 定的
最后 一个
最 暖
更加 注重
更 要
晨 报
显示 器
显 现
是当前 吸引观众
是当前吸引观众 的新模式
是什么 ?
是一 项
是一 家
是一 件
是 我的
是 我们
是 怎么
是 世界
是 :“
时期 的
无锡 市
无 期徒刑
旗 舰
新年 钟声
新年 新气象
新京 报记者
新一 年的
新 村
新 宝
数量 和
数 学
数 值
教 父
教 堂
敏 镐
政 华
改 良
收视新人 王
收 拾
撤 销
撤 出
摧 毁
接受 采访时
接 下来的
排 泄
排 污
拯救 中国虎
招 标
抵 御
抱 有
报道 ,在
报了 警
报》 报道,
护 送
把 我
把 你
找 个
批 复
扬 尘
扑 灭
才 发现
所在 地
我 不是
成绩 。该剧
感觉 到
感 的
感 ,
意 料
想 想
想 办法
想 到,
想 不到
惩 治
情 形
恐 慌
总 收入
性 低
念 头
快 男
快 ,
志愿 军
志 清
心 脑血管
心 。</w>
微博 @
得 更加美好
得 不到
很 是
征 程
往 来
影响 到了
当 月
强 度
弯 曲
张亮 父子
张 家
开庭审理 。</w>
开始 了
延缓 衰老
度,[最高气温 23
度,[最高气温23 -25度</w>
店 内
底 线
应 酬
平 潭
平 市
干部 职工
干 脆
幕 后
常 德
市场 监管
巨灾 保险
巨 头
工商 户
工商 局
巡 视
崔 天
崔天 凯
崔 丽
峰 会
就 读
尔 顿
少 林
小伙 伴
将在改革的道路上迈 出新的
将 面
将 与
封 顶
对 新人
对 她
寒 冬
家 里的
客 人,
实施 了
实 的
定 制
子 公司
嫩 模
婴儿 安全岛
婚姻 登记
如 懿
好 看
头 晕
央视 二轮
央视二轮 播出时
大 雾
大 哥
大 便
大 伟
夜 晚
外汇 管理局
外国 人
处罚 的
增 设
基尼 系数
培 英小学
场 、
地 段
地 域
在这 里,
在 南
在 全球
在 互联网
图片 来自
国际金融中心 大厦
国际收支 统计申报
国有企业 改革
国有 资本
国家 变得更加
国家变得更加 富强
困难 ,
回应 。</w>
回家 ,
四 处
嘴 巴
善 于
哈 登
咪 表
和记 黄埔
和 服务
和 大
和 儿子
味 甘
周 口
员 和
含有 丰富的
向美方 提出
后 悔
后 备
名 录
名 人
同 食
吉 祥
各项 工作
各种 风险
吃 萝卜
吃 东西
号 ,
台北 市
台 词
台 军
另 一名
古装 剧
变得更加 公平正义
变化 的
变 革
取 证
发生 性
发现 场
发 送
发 掘
双重 标准
双 双
又 被
又 一个
县 公安局
原因 是
历 时
厂 长
单 、
午 餐
升 温
十 余
区域 的
区 ”
包 围
勒 乡
动物 园
务工 人员
办事 处
办 学
剧 集
前所未 有的
刻 意
刺 伤
制度 和
刘 诗诗
分 红
分 摊
分 。</w>
出生 于
出现 “
出席 活动
出台 的
几 年的
决定 免去
军 工
写 入
冒 充
内容 ,
内务 部
其 后
其 余
关押 在
兰 红光
六 七
公益 项目
公共 卫生
公共 关系
全国 各地
全 是
全 局
党风 廉政
党派 人士
克 拉
傅 政华
偶像伦理剧 是当前吸引观众的新模式
停 机
倒 塌
信 仰
俗话 说,
供 给
供 气
你 !
体 质
伴 侣
伤 残
伤 。</w>
伟 大的
会在 新年
会 。
伙食 费
伙 同
众所周 知
伊 斯兰
企业 和
仿 佛
任 雪
仰 卧
他 。</w>
从 今年
从 严
仅 在
亿 韩
人行 道
人民网 福州
人民网 1月2日
人民生活 得更加美好
人民 代表大会
人 头
亲 吻
交 管
亚 冠
二 期
了一 种
了一 次
了 很多
了 多个
了 四
了 。“
了 6
乳 业
也不 例
乘坐 热气球
乖 乖
丽 莎
主治 医生
主办 方
主 人
为 代表
临湘 市
中国 好
中 韩
中 医院
个体 工商户
两个 孩子
两 口
东部 地区
东 路
东 侧
专业 合作社
专 访
不 透
不 胜
不 老
不 符
不 畅
不 来
不 抽烟
不 妨
下午 1
下 列
下 。
上 阵
上 看,
三 年,
一起 吃
一起 去
一次 ,
一个人 做
一 颗
一 身
一 行
一 支
一 再
【环球时报 驻
》 、
《因为爱情 》
《 功甫帖
。记者 昨天
。据 统计,
。” 吴京
。” (记者
。(记者 王
。( 王
。 英国
。 至
。 第
。 新华社记者
。 将
。 吃
。 不仅
、 蔬菜
、 管理
、 甚至
、 法规
、 投资
、 手机
、 学
”。 这
”。 对此
” 上,
“偶像 派”家庭剧
“中央社 ”报道,
“ 老
“ 翔展
“ 双
ow s
oo k
le y
a )
[ 上海
T OP
R S
PM 10
Mot o
M ac
L umia
H 7
H7 N
Galax yS
F BI
9 日,
9 年,
72小时 过境
7 、
60 年
6 月,
6 个月
6 1
500元以上 2000元
5 人
40 万
21日 汉中市人民检察院向汉中市中级人民法院依法提起公诉
21日 ,
2013年12月31日 前
2013年12月 26日,
2013年 ,我们
2013年 ,中国
200 多
20 万元
2 个月
1日 起
199 5年
1980 元,
1 天
1 元
.c n
.5 %
- 14
,这 家
,该 公司
,被告 人
,用 于
,有 不少
,最 大
,新 增
,或 许
,后 者
,但 如果
,但 他们
,但 仍
,不 然
,一 天
,《 因为爱情
, 骗取
, 需
, 随时
, 达到了
, 超过
, 计划
, 祝
, 生活
, 深入
, 涉及
, 此次
, 显示
, 家人
, 完全
, 吴京
, 各项
, 发表了
, 医生
, 利用
, 做到
# 汽油
鼓 舞
鼓 楼
默 克尔
黄色 内衣
鲍 曼
高 楼
骑 行
骆 驼
马克 思
马 的
马 丁
香港警务处 警察
香港警务处警察 公共关系
香港警务处警察公共关系 科
首 届
风险 。</w>
风 气
预示 着
韦 大爷
难 民
难 怪
隐 瞒
陆 家
陆家 嘴
阻 力
阳 台
防空 识别区
问题 进行了
问 政
闭 幕
长江 实业
长江 学者
长春 花园
长效 机制
长 途
铃 声
铁 道
铁 大桥
钱 财
金 牌
重 重
重 申
重 建
里 斯
酷 似
酒 席
配 型
部 电影
部 地区
郑州 市委书记吴天君
道德 模范
造成 严重
造 就
通信 、
退 了
追寻 实现中华民族伟大复兴的中国梦
追寻实现中华民族伟大复兴的中国梦 ,也
追寻实现中华民族伟大复兴的中国梦,也 祝愿各国人民能够实现自己的梦想
追 捧
追 回
进取 、不
进取、不 懈追求
进取、不懈追求 的人们
进 来,
这 起
还 得
返 乡
近 似
辽宁舰顺利 完
辽宁舰顺利完 成为
辽宁舰顺利完成为 期
辽宁舰顺利完成为期 37天的
辽宁舰顺利完成为期37天的 南海海域
辽宁舰顺利完成为期37天的南海海域 科研试验和训练
辉煌 。</w>
较 2012年
轮 胎
车 司机
踏 实
跨越 式
跨 行
跨 年,
跨 境
跟 她
足 迹
超额 完成
超过 100
起 身
起 码
赵 公
赤 裸
贴 近
贴 心
购物 卡
贫 寒
质 问
调 理
课题 组
说 到
语 音
评 出
设立 了
设备 的
设 法
设 有
讨 厌
认为 “
誉 为“
解放军 海军
视 作
规范 管理
观 望
要 有
要 对
要 以
被 要求
蒙 上
董 卿
落 泪
营养 素
营养 学
营业 收入
萌 娃
茄 子
范围 内的
苏- 27
艾滋 病
艰辛 的努力
船 厂
航 母</w>
舟共 济
舟共济 、共同
自动 填写
能力 等
能力 。
胃 酸
肩 负
肢 体
肇事 者
职 场
职 员
考虑 ,
网 报道,
编队航行 训练
绩 效
绞刑 架
绝对 是
给 观众
结 账
结 ,
经历 和
终 审
纪念 碑
级 的
糕 点
精 致
精 液
粉丝 们
简 化
等 着
等 的
等 媒体
等 于
第一艘 航空母舰
笑 了
章 玉
窃 听
稳 增长
稳 中有
称, 中国
称 自己
积极 进取、不懈追求的人们
科技 创新
科 科长
科 姆
离 子
离 世
祝 贺
硬 骨头
破 除
研究 ,
矿 长
短 暂
知情 人士
知情 人
睿 睿
着一 张
着 装
真 心
省委 、省政府
省 、
相 恋
相 对于
直呼 “
目前 正在
目 的。
盖 世
盖世 太保
监督 检查
监 听
的热 量
的是 “
的影响 力
的伟大事业 ,需要
的伟大事业,需要 付出
的伟大事业,需要付出 艰辛的努力
的一 幕
的, 成功
的,成功 总是
的,成功总是 属于
的,成功总是属于 积极进取、不懈追求的人们
的 验证码
的 趋势
的 草酸
的 红
的 目的
的 画
的 男人
的 物质
的 民众
的 朋友
的 实施
的 官员
的 售价
的 单
的 全部
的 习惯
百 元
疆 域
界 首
电 网
电 信
用 手机
生活 质量
生活 总是
生活总是 充满希望
生活总是充满希望 的,成功总是属于积极进取、不懈追求的人们
甄嬛传 》
瑕 疵
理 工
琅 岐
班 上
珠 三角
环境 空气质量
玩 具
率 。</w>
犹 如
犹 太
犹太 人
特色 的
特约 记者
特 地
照 。</w>
热 心
烤 红薯
烟草 制品
点 、
满 怀
滑 冰
滋 补
湖南省政协原 副主席童名谦
港 台
清城区 环保局局长
深 ,
涉嫌 严重违纪违法
消防 人员
消费者 权益
海 事
海 、
活 泼
洪 涝
注意 力
法 医
法 令
治 愈
没 钱
没 办法
沙发 上
沙 滩
江 堰
汉 台
水 利
民主 党
比 去年
每天 都
每个 家庭
每 到
死 刑
步 步
正 处于
次 日
楼兰 文化
楼 楼顶
棋 牌
桥 梁
校 训
标志 性
果 蔬
杨 女士
村 干部
机前 买票
机关 干部
机关 、
朴槿 惠
服 饰
有关 规定
有 消息称,
有 好
最受 欢迎
最 强
最 后,
曼苏 尔
更 年期
暗 访
普查 人员
晒 出了
是需要 我们共同
是需要我们共同 为之
是需要我们共同为之 奋斗
是需要我们共同为之奋斗 的伟大事业,需要付出艰辛的努力
是 非
是 美国
是 其
昨天 是
星球 上,
星球上, 应该
星球上,应该 守望相助
星球上,应该守望相助 、同
星球上,应该守望相助、同 舟共济、共同
明确 要求
时30分 许,
时 捷
时 20
时 ,在
早 高峰
日 均
既 有
无机 气溶胶
无 需
无 力
旗 帜
旅游 景区
旅 程
新建 住宅
新年前夕,国家主席习近平通过中国国际广播电台、中央人民广播电台、中央电视台 ,发表了
新年 祝福
新型 大国
新华社记者 兰红光
新华 网
新 产品
敲 诈
政 绩
改革 试点
改革 和
改 编
搞垮一间 厂
揭 开
提升 。</w>
推进 “
推 特
接地 气
换 乘
捐 助
振 奋
挑 逗
指 向
拟 发行不超过
拉萨 市
拉 动
承 办
找 了
扭 曲
扬子 晚报记者
打 扮
所有 人
所在 。</w>
所 为
户 ,
战胜了 各种
战胜了各种 困难和挑战
战 绩
战 役
或 在
或 其他
或 不
我们这个 星球上,应该守望相助、同舟共济、共同
我们 都
我 要
成都商 报记者
成绩 来之不易
意识 ,
意 向
想 让
想 ,
惊 艳
情 趣
总 裁
总 决赛
怪 异
性侵 害
性 别
必 需
心 态
徐 先生
很不 平凡的一年
彩色 动态验证码
当 兵
当 中,
强 迫
强 、
开工 建设
开始 的
开 辟
开 往
开 头
床 位
幸福 安康
常 住
帮 我
市场化 改革
市场 供应
已经 影响到
已 超过
已 然
已 对
已 完成
已 于
工作人员 表示,
工作 压力
崭 新的
岁的 女儿
岁 时就
山 大
屠 杀
届全国 人大常委会
届 时,
尼 克
就 没有
就 曾
就 将
尕 特
尔 斯
少 于
将 积极
将 由
对外 开放
宿 州市
容 纳
家园 。</w>
家 中,
客运 量
实际 上,
实战 化
实 实在
安全 部队
安 抚
守 护
孩子 在
孤 独
孙 女
孙 国
子 弟
嫦娥 三号
娘 家
姓男子 ,他们
姓男子,他们 涉嫌
始 于
妙 招</w>
如 实
她 对
她 从
她 也
女 人的
套 取
奔 波
太 监
天 鹅
天 时间
大小 写
大会 堂
大 腕
大 肠
大 中
夜 里
夏 天
复 始,万象更新
增 至
塑 造
堆 积
基 切
培训 、
城市 和
埋 葬
在 资源配置
在 我
在 家里
在 学校
在 内
图 案
国 军
国 会议员
团结 在
回 应</w>
回 事
喝 酒
喜欢 的
喉 咙
商 贸
响 ,
品 尝
和海外 侨
和无 党派人士
和 网站
和 不
命 案
呼吸 道
吴 佩
向警方 报案
吐尔 尕特
后, 两人
后 者
合作 ,
各种 证件
各 民主党派
吃 货
吃 完
司法 机关
号 为
台湾 地区
台湾 同胞
台 前
可以 搞垮一间厂
召开 会议
只 想
另 类
句 “
口 碑
口 水
口 号
口 、
受 骗
受 阻
发表新年 讲话
发表 的
发生 火灾
发布 《关于
发展 。
反映 ,
反 潜
双方 的
双 休
参 股
去年 的
去年 12月31日
卵 巢
卡 通
占 了
南 航
华尔 街
华 北
华 为
千 里
区 。
化妆 品
包括 “
勘 测
劳动 教养
助 阵
动车组 列车上吸烟
加入 了
剧 《
刚 好
则 在
刘 锦玲
分分钟 可以搞垮一间厂
分 队
分 许,
分 。
出一 张
几 名
凌晨1 点
决定性 作用
冰 糖
冯 章玉
农村 居民
军事 专家
军 用
军 备
写 道:“
冒 险
再 生
再 也不
再 一次
养 颜
养 成
具体 的
兵 的
关闭 关塔那摩监狱
关 乎
共同生活在 我们这个星球上,应该守望相助、同舟共济、共同
共 建
全面深化改革 作出
全面深化改革作出 总体部署
全 天
兑 现
充分 体现
元旦 ,
元 复始,万象更新
像 素
偷 偷
偶 然
健康 状况
做 起
做 客
做 大
做 些
假 装
假 币
倾 斜
值得一提 的是,
倍 。
修改后 的《
保障 。</w>
保 暖
供应 商
供 求
使用 的是
你 》
作风 建设
作 弊
作 家
余 万元
体 、
伤 痛
会在 2014年
会 动
会 做
以及 其他
以前 的
以 外,
以 习近平同志
他的 妻子
从 最初
从 一个
仍 处于
什么 ?
亿元 。
亿人 共同生活在我们这个星球上,应该守望相助、同舟共济、共同
人民币 汇率
人民 大会堂
人均 纯收入
人 文
人 居环境
人 中
产品 。</w>
交警 部门
交 了
亚 硝
亚 华
五 家
于 湖新
二 环
二 楼
事件 的
事 关
了一 段
了一 下
了, 你
了 试验
书 面
书 ,
习近平 主席
也不 知道
也 非常
也 越来越
也 已
之 中
举行 。
为 目的
丰 台
中心 城区
中共 十八大
中 之
个 人的
两 级
两 年,
两 个人
专项 整治
专家 指出,
与 女友
不得在 禁止吸烟的
不 舒服
不 禁
不 利于
下降 ,
下午 在
下 雨
三 五
万 平方米
万 一
万 。</w>
一年 里,
一 看
一 点,
一 日
一 事,
一 :
《 人民日报》
。这 名
。比如 ,
。在 改革开放
。他 说:“
。” 而
。” 王
。“ 当时
。 省
。 最近
。 日前
。 再
。 之后
。 不少
。 三是
。 2013年12月
、 老
、 结婚
、 红
、 白
、 生物
、 气象
、 抓
、 八
”的 字样
”, 以
”, 他
” 来
” 或
“ 神
“ 爸爸
t p
ow er
m m
is s
ht tp
an g
a k
[京华 时报
[ 昨天
Wind ows
Q E
Moto X
M V
L A
H7N 9
A N
; 是
; 同时,
90 年代
8 名
8 %
70多 亿人共同生活在我们这个星球上,应该守望相助、同舟共济、共同
7 9
7 .9
6 -
4 》
3 家
27 次
24 日,
21 世纪
2014年 是
2012年 9月
2012年 6月
2000 万
2 次
2 月,
2 位
1月1日 起,
1日 ,
199 6年
19 个
19 3
17 个
12月 26日
10 名
1 —
00 多
- 6
,还有 大量
,记者 在
,由 此
,有 助于
,是 对
,我们 将在改革的道路上迈出新的
,对 方
,多云 ,东北风
,多云,东北风 5
,即 便
,其 次
,使 其
,也 希望
,不仅 可以
,一 分
, 都会
, 逐渐
, 说明
, 觉得
, 网友
, 终于
, 消费者
, 海
, 此前
, 政府
, 建议
, 天
, 增加
, 各界
, 台湾
, 共有
, 严重
, 5
( 左
( B
鼓楼 区
鲁 尼
高 野
骑 自行车
驻军营 区
马伊 琍
香港 特别行政区同胞
首次组织了 以
首次组织了以 辽宁舰为核心的
首次组织了以辽宁舰为核心的 编队航行训练
首度曝光 。
首 选
首 秀
首 日
饰 )
饮 用水
风 景区
颅 内
预 售
顿 饭
项目 。</w>
韦 唯
面 试
静 茹
雨 季
集体 自卫
陪 着
限 行
陈 家
阿 热
阿热 勒乡
阎 良
问题 和
问 题</w>
长期 的
长城 画
铅 块
铁路线路 安全
铁路 安全
铁 质
针 剂
金 色
金 域
量 化
里 求
里 ,“
配送 中心
都 得
都 含有
都 可能
部分 地区
部 电话
邮 箱
邦纳 综合征
那么多 爱
那么多爱 我和
那么多爱我和 他和
那么多爱我和他和 我们
那么多爱我和他和我们 的人,我们
那么多爱我和他和我们的人,我们 领证
通过 认证
通过 “
通报 称,
通报 ,
通 往
途 中,
选择 。</w>
逆 回购
适 宜
送回家 中。
退 票
连 日来
违反中央八项规定精神 典型
远 不如
进展 情况
进 驻
进 度
这里 ,我
这张 照片
这 台
这 件
还 对
还 原
还 不错
迎接 新年的
过 道
过 滤
过 往
辞旧迎新 之际
载着 女儿
轮椅 上的
轮 奸
转 基因
车 迷
身份 信息
踢足球 的照片
赴 南海海域
赖 以
赖以 生存
贿 选
费 。</w>
贵 宾
购物 中心
购买 、
责任 追究
谢谢 那么多爱我和他和我们的人,我们领证
调 料
调 取
调 到
诽谤 和
说 道:“
说 完
说 。
误 导
语 文
评 委
证券 纠纷
记者 采访
让 国家变得更加富强
让国家变得更加富强 、让
让国家变得更加富强、让 社会
让国家变得更加富强、让社会 变得更加公平正义
让国家变得更加富强、让社会变得更加公平正义 、让
让国家变得更加富强、让社会变得更加公平正义、让 人民生活得更加美好
让 中国
认为, 2014年
警察 局
解放 和发展
视 觉
视 网
见 状
西瓜 皮
被执行 人
被 送到
被 烧
被 害
衷心的 感谢
表现 出
葫 芦
落 幕
营 救
药品生产 质量管理
范围 。</w>
范 志
范志 红
苏 有
苏有 朋
芬 兰
脚 印
能 为
胞 ,向
肖 婶
肌 瘤
联邦 调查
联 席
职能 部门
职务 犯罪
而 成
老年人 优待
老 人,
翔 安
美国 、
羊 城
置 换
罗 某
综合 执法
维 码
维 和
统一 到
给予其 开除党籍
给予其开除党籍 、行政
给 出的
结构 和
经营 权
经济 的
经济 工作
经常 出现
经 贸
组合 拳
纹 身
纪委、 监察局
纪委、监察局 给予其开除党籍、行政
红白 歌
红 一
索契 冬奥会
索 赔
精 英
类 别
等 信息
第二 名
第一艘航空母舰 辽宁舰顺利完成为期37天的南海海域科研试验和训练
符合 条件的
竟 是
称之 为“
称 被骗
科技 有限公司
私人 订制
离婚 后
离 职
福州 市
福 清
禁止 在
祖国 、
碳 水
破 获
研究 、
研 讨
石 景
知识 产权
知心 热线
着眼 于
着 。</w>
眼 前
真 伪
看不清 ”。
看不 清楚
省 人大常委会
相互 理解
直 辖
目的, 是要
目的,是要 让国家变得更加富强、让社会变得更加公平正义、让人民生活得更加美好
盖 伊
监督 。</w>
皮 鞋
的数据 ,
的手 散步
的心 态
的基础 上
的地 球
的事 业
的主 题
的东西 ,
的下 身
的一 面
的《 新闻联播》
的。 我
的, 是
的 食品
的 重
的 都是
的 解放军驻港部队总部
的 肉
的 活动
的 日
的 故事
的 意见
的 形象
的 帮助
的 女星
的 处理
的 力量
的 军事
的 先
的 价值
白 虎
登 场
病 的
疾病 。</w>
疾控 中心
畜 牧
留 意
电视 购物
电视 、
电 路
申请 一套
田 径
生 猪
甘肃 省
琢 磨
理 石
球 场
玩 耍
猥 亵
独 家
犯 事
牵 手
物 的
牛奶 鸡蛋
牙 医
爷 爷
爱 美
爱 得
熬 夜
煮 熟
热 恋
烧 烤
点 赞
点 火
点 歌
炮 轰
澳门 特别行政区同胞
澄 清
演 示
源 解析
源 头
港 版
温 柔
清城区环保局局长 陈柏和
清 热
清 政府
深 长
深 受
淘 宝
消 保
洗 手
法 学
治 庸
没有 及时
没有 了
沙 龙
沙 漠
汽车 的
污水 处理
江西 省
汉中市 卫生局
汉 阳
水 泥
氧化 碳
气 。</w>
毛主席 是
比较 大
母亲 的手散步
段 宜
段宜 康
死亡 人数
此 后,
此 后
欧 美
欢 度
梅 )</w>
梁 静茹
桌 子
根本 目的,是要让国家变得更加富强、让社会变得更加公平正义、让人民生活得更加美好
核 对
树 木
标准 汽油
标 记
柴 油
查 寝
枸 杞
果 实
林 丹
杰 克
杨 贵妃
杨 紫琼
来 做
李云 迪
李 宗盛
李 宇春
权 限
本 国
未 有
未 发现
服务 。
有关 。</w>
有 8
月 初
最好 看的
最后 的
最 重要的
最 应该
曲 《
暖 阳
智慧 和
晨 报记者
晓 棠
明确 的
明确 了
时代 广场
时 空
早 期
日 方
无许可证情况下进入 香港驻军禁区
无 限
旅客 正常的
方式 。</w>
新篇章 。</w>
新型 直升机
新华社记者兰红光 摄</w>
新中国 成立
新一 届
新 标准
新 春
新 办
斯 、
敦促 美方
敢 于
敞 篷
救 灾
效 能
效 仿
改善 ,
收入 。</w>
擅自闯入 位于
擅自闯入位于 中环军营
擅自闯入位于中环军营 的解放军驻港部队总部
摇 头
提醒 广大
提出 申请
推进改革的 根本目的,是要让国家变得更加富强、让社会变得更加公平正义、让人民生活得更加美好
推着 轮椅上的
接受 了
接受 。</w>
挖 矿
挑 着
按 计划
指数 :
指导 下
持 卡
拟 给予其
招生 考试
招 姓男子
报告 ,
报 考
护 舰
抖 动
找 来
扩 建
扎 伊
手机 的
所需 的
房 事
戴 着
战略 性
我们 推进改革的根本目的,是要让国家变得更加富强、让社会变得更加公平正义、让人民生活得更加美好
成熟 的
成功 的
成功 ,
成了 一个
愤 怒
感受 到了
意味 深长
意 。</w>
惯 例,
患 上了
悉 尼
急 需
快 女
忠 诚
必须 在
必 不可
德国 人
得 太
很 重要
彭 州
彭 丽
彭丽 媛
形成 的
当天 的
当 年的
归 还
强行 闯入
强制 性
张 继刚
弋 阳县
开车 到
开始 交往
建设 新
康 泰
度 和
应当 按照
应 缴
床 戏
广告 、
年龄 段
年 关
幅 长城画
帷 幕
帮 她
帖 子
市场 在资源配置
已经影响到 旅客正常的
差 点
巨 臀
巧 克力
工作的 通知》,
工作 室
工作 关系
工人、 农民
工人、农民 、知识
工人、农民、知识 分
工人、农民、知识分 子、
工业 和
工 信
岳 父
山 的
山 南
屏 蔽
居 家
就是 为了
尖端 武器
尔 兰
少数 民族
小 姨
射 击
导致 的
对 自己
对 应
寝 室
容 忍
家 底
室 外
宣 泄
审议 通过
审议 并
实施 的
实施 。</w>
实 干
宜 宾
定位 为
宏观 经济
宏伟 蓝图
安全 绳
安全 。</w>
安 庆
安 卓
安 、
孙 子
孙 先生
子 在
女性 在
女儿 的下身
奢侈 品
奇 特
失去 了
太 多,
天气 气候
天 弘
大 餐
大 笑
大 有
大 幕
大 咖
多 彩
多 与
外 卖
复 出
壮 阳
城乡 建设
城 、
型 号的
坚决 反对
坚 实
地 说,
在微博 中
在工作 岗位
在 网络上
在 校
在 建
在 实现
在 前
在 元旦
圣诞 树
国防 部
国有 资产
国家主席习近平 发表新年贺词
国家 队
国家 新型城镇化规划
国务院 关于
国内 新闻
因此 ,
因 与
回 首
喝 了
喀 什
咳 嗽
和网站 已经影响到旅客正常的
和田 玉
和海外侨 胞,向
和平 宪法
和 钙
和 提高
周 先生
呢? ”
员 、
告诉 我
含 蓄
吧 。”</w>
向警方报案 称被骗
向 前
后 方
后 发现,
后 也
名 字
同性 恋
吉 利
合适 的
各界 人士
各族人民 ,向
吃 到
史 蒂
台湾同胞 和海外侨胞,向
台 州
可能 性
只 剩
古 今
古 井
叠 压
变 速
变 电
受试 者
受伤 的
发现 女儿的下身
发挥 作用
发布 的《
发布 信息
反腐 倡
反腐倡 廉
反 问
双 脚
及 社会
及 周边
参观 了
县 区
去年 底
去年 8月
去 看
去 医院
去 做
去 。</w>
厚 非
厉 行
历 年
卡 、
南海 区大
南海区大 沥镇
南 站
南 、
卖 掉
华西 都市报记者
华 沙
半个 小时
医学 专家
区域 ,
匹 配
包 容
包 厢
募 集
助 推
动 向
加快 发展
加 紧
加 盖
办公桌 上有
办 发言人
制贩毒 犯罪
制度 ;
制 约
利益 的
利 尔
创造 出新的
创 新的
创 始
则 表示
刘许强 带着女儿
刑警队 队长
切身 利益
分 耕耘
出让 金
出版 社
出台 了
出 土
凯 希
冻 结
冷 ,
决定免去 其
农民工工资 支付
农业 部
军 说,
写 真
再 现
其实 ,
其他 乘客
兵 团
兴 致
关塔那摩 基地
六约 社区
六 个月
公立 养老院
公司 ,
党支部 书记
党建 工作
党员 干部
光 芬
充满 了
充分 肯定
元 首
允儿 送回家中。
停 靠
假 想
倒 在地
倒 卖
信 念
保 章
保 洁
保 时捷
使用 。</w>
使 其
佛山市 南海区大沥镇
体 积
住 宿
住 ,
低 胸
低 。
伸 出
会议 上
会议 。</w>
会 造成
会 对
会 发生
会 主席
企业 在
任务 是
任务 。</w>
价格 的
以上 。</w>
从 2014年1月1日起
今 后的
亿 立方米
人社 部门
人口 、
人 有效
亮 哥
交 友
五 项
互 联
二 维码
争议 的
争 端
了 他
了 中国
了 下来
了 !”
买 家
买 了一
也 比较
也 开始
九 十
之 城
之 中。</w>
举行 。</w>
举 债
主 委
为 首
为 官
为 国家
临 客
丰 收
中旬 ,
中央 和国家机关
中国 驻旧金山
中国 海军
中国 房地产
中含有 丰富的
中午 12
中 起
中 标
中 村
中 所
个 好
严格 控制
严厉 打击
两人的 约会
两 款
两 岁时就
东条 英
专 线
与家人 推着轮椅上的
与 韩国
与 女
不 觉
不 算
不 相
不 掉
不 惜
不 小的
不 予
下 跪
上 都
上 楼
上 杭
三 项
万 亩
一直 以来
一 辈子小心
一 神秘
一 楼
一 杯
一 中院
。当 时,
。中国 人民
。不 管
。” 这位
。“ 现在
。200 8年
。( 陈
。 记者从
。 王某
。 特别是
。 有人
。 文章
。 市
。 尤其是
。 可以
。 即
。 分析
。 三
。 2011年
、 赵
、 紫
、 科技
、 生活
、 何
、 任
、 2
”的 称号
” 有
” 成为
” 工程
” 将
” 为主题
“台 独
“ 报废
“ 打
i d
en t
at ch
[ 社会
[ 国内新闻
[ 军事报道
[ 人事任免
S M
P ower
I C
F- 35
E SP
A K
A C
? 这
: 性早熟
72小时过境 免签
6 年的
40岁 张
4 次
4 日,
31日 ,
29 岁
28岁 招姓男子
22 个
2000 多
1月1日 晚
1月1日 上午,
199 3.0
16 日,
11 时30分
10 元
- 3
,让 他们
,李 连杰
,有 时候
,最 重要的是
,新 车
,我们 就
,我 的
,当 日
,小 米
,她 在
,多 次
,在 无许可证情况下进入香港驻军禁区
,在 她
,因为 他
,全 场
,以 后
,他 说,
,也 将
,不 知道
,不 再
,“ 三
, 马上
, 面对
, 立即
, 研究
, 着力
, 相比
, 生
, 特别
, 水
, 日前
, 无法
, 指
, 当天
, 太
, 发表
, 了解
( 来源:
( T
( N
齐 心
黯 然
鹦 鹉
鲤 鱼
高 院
验证码, 字符
验证码,字符 清晰
验证码,字符清晰 ,且
验证码,字符清晰,且 不分
验证码,字符清晰,且不分 大小写
验证码 还在
驻港部队营区 门外
驻港部队营区门外 进行滋扰
驻港部队营区门外进行滋扰 ,并
驻港部队营区门外进行滋扰,并 擅自闯入
驻港部队营区门外进行滋扰,并擅自闯入 中环军营
驻港部队营区门外进行滋扰,并擅自闯入中环军营 的行为
驻港部队营区门外进行滋扰,并擅自闯入中环军营的行为 ,中央
驻港部队营区门外进行滋扰,并擅自闯入中环军营的行为,中央 政府
驻港部队营区门外进行滋扰,并擅自闯入中环军营的行为,中央政府 严重
驻捷克 大使
驱 护舰
首次 赴南海海域
首次赴南海海域 试验训练
首次赴南海海域试验训练 以来,
首 轮
首 尔
餐 具
食药 监
飞机 、水
飞机、水 面舰艇
飞机、水面舰艇 和
飞机、水面舰艇和 潜艇
飞机、水面舰艇和潜艇 ,有效
飞机、水面舰艇和潜艇,有效 配合
飞机、水面舰艇和潜艇,有效配合 了试验
飞机、水面舰艇和潜艇,有效配合了试验 ,同时
飞机、水面舰艇和潜艇,有效配合了试验,同时 带动了
飞机、水面舰艇和潜艇,有效配合了试验,同时带动了 部队
飞机、水面舰艇和潜艇,有效配合了试验,同时带动了部队 实战化
飞 抵
风 采
颂 伊
颁 奖
项试验和训练 课目
韩国 娱乐圈
面积 达
静态 验证码,字符清晰,且不分大小写
霸机 ”
霖 学校
需求 。</w>
雷 诺
雷 克
集体 林权
难 忘
难 受
隐 蔽
随身 携带
陈 志
陈 奕
陈 凯希
陈 兆
附 件
阵 营
闻 名
间 隙
问题 ;
问 我
问 他
门 票
门 户
门 、
镇 、
锦 赛
错 了
金融信息 中心
金 泰
重 心
采访时 称,
采取有效 措施
都市 报
都不 敢
都 江堰
部队 出动
郑州 地铁
那 头
道 菜
道 ,
通过 银行
通过 网络
选举 的
迫 使
连 发
远 航
进行 ,
这是我 照
这一 天
这 辆
还 需要
还 被
还 未
近似 实战
近似实战 条件下
近似实战条件下 航母
近似实战条件下航母 作战系统
近似实战条件下航母作战系统 感知
近 两
运 会
迈 克
过去 的一年,
过上更加幸福 的生活
过上更加幸福的生活 ,还有大量
过上更加幸福的生活,还有大量 工作要做
辽宁舰 自
边 界
辉煌 。我
辉煌。我 坚信
辉煌。我坚信 ,中国人民
辉煌。我坚信,中国人民 必将
辉煌。我坚信,中国人民必将 创造出新的
辉煌。我坚信,中国人民必将创造出新的 辉煌。</w>
轻 生
轻 度
软件 和网站已经影响到旅客正常的
身体 的
身份证 号
身 高
身 价
踏 上了
践 踏
路 网
路 由
路 桥
路 公交车
跌 破
起 居
赶 上
走 过
走 。</w>
赞 扬
赖以生存 的地球
赖以生存的地球 建设成为
赖以生存的地球建设成为 共同
赖以生存的地球建设成为共同 的美好
资料 图</w>
贺 泓
费 的
购票顺序 了,这个
购 入
贫困 户
责任的 债务
财 税
负责人 介绍,
谱写 伟大祖国
谱写伟大祖国 发展的
谱写伟大祖国发展的 时代
谱写伟大祖国发展的时代 新篇章。</w>
谣 言
谢谢那么多爱我和他和我们的人,我们领证 啦!”</w>
谍 照
调查 显示,
请 假
说 着
说 得
该 政策
该 国
诠 释
试 ,
评论 员
评审 团
设置 的
设 定
设 在
论文 造假
许 茹
许茹 芸
讲 解
记者 李
记者 会上
议 论
讨 要
认识 到
认证 官
计算 ,
解放和发展 社会生产
角 。</w>
视网 膜
要求 各
要 多
西藏 自治区
西 斯
被 打
衰 弱
表示:“ 我们
表示,对 香港
表示 衷心的感谢
表示 感谢
表 决
补 肾
衣 物
街 镇
行政 执法
行 列
血和 汗水
螃 蟹
蜂蜜 水
虐 待
落 月
落 ,
营造 有利于
获悉, 2013年
荷 尔
荷尔 蒙
荣誉 谋杀
英 里
苏 轼
花 山
色 。</w>
艰苦奋斗 ,共同
艰苦奋斗,共同 谱写伟大祖国发展的时代新篇章。</w>
般 的
航站 楼
致癌 物
致以 诚挚的
致 歉
至 关
自治区党委 、政府
自己 ,
自助 售卖
自助售卖 机前买票
自 2014年1月1日起
腿 被
脱离 危险
脆 弱
能力等 100余
能力等100余 项试验和训练课目
能力 和
能 耗
背 后的
股 本
聘 请
联 和无党派人士
职务 。</w>
耕地 红线
者 将
老百姓 过上更加幸福的生活,还有大量工作要做
老 鼠
老 许
老 张
羡 慕
美国国务院 外交安全局
美国 国家安全局
美 腿
美 白
美 景
美 人
罗 夫
网 聊
网 吧
缺铁 性
编 组
缓 缓
维 尔
维 利
绝 大多数
给 我们
结果 显示,
结构 调整
经营 范围
经济 状况
经济 学
经常出现 字符
经常出现字符 叠压
经常出现字符叠压 的情况,
经常出现字符叠压的情况, 验证码还在
经常 性
终 止
细 颗粒物
组织 机构
组 团
纽 带
纪录 。</w>
约会 被拍
红一 白
紊 乱
糟 糕
粮食 生产
粗 暴
类 节目
算 ,
筛 选
等 领域
等 职务
等 服务
等 情况
等 国家
等 传统
等 一系列
笼 子
第五代 战斗机
第二次 世界大战
第二 大
符 其实
笔 记
章 )
站 的
立 足
穿 上
稳中求 进
稍 微
程 某
程 度,
称 ,他
积 分
科学家 们
科 室
科 利尔
票 价
社保 基金
碎 片
确 权
研究生 考试
研 判
真诚 希望,
真诚希望, 世界各国
真诚希望,世界各国 人民
真诚希望,世界各国人民 在实现
真诚希望,世界各国人民在实现 各自
真诚希望,世界各国人民在实现各自 梦想
真诚希望,世界各国人民在实现各自梦想 的过程中
真诚希望,世界各国人民在实现各自梦想的过程中 相互理解
真诚希望,世界各国人民在实现各自梦想的过程中相互理解 、相互
真诚希望,世界各国人民在实现各自梦想的过程中相互理解、相互 帮助
真诚希望,世界各国人民在实现各自梦想的过程中相互理解、相互帮助 ,努力把
真诚希望,世界各国人民在实现各自梦想的过程中相互理解、相互帮助,努力把 我们
真诚希望,世界各国人民在实现各自梦想的过程中相互理解、相互帮助,努力把我们 赖以生存的地球建设成为共同的美好
真 容
看到 的
看不 出
看。 不能说
看。不能说 看不清楚
看 上去
相对 较
相关 部队出动
相关 规定
直接 经济损失
目标 指示
盘点 2013
监控 录像
的爱 和
的爱和 正能量
的情 景
的心 情
的影响 。</w>
的作用 。</w>
的伟大 实践
的伟大实践 中,我们
的伟大实践中,我们 已经
的伟大实践中,我们已经 创造了
的伟大实践中,我们已经创造了 无数
的伟大实践中,我们已经创造了无数 辉煌。我坚信,中国人民必将创造出新的辉煌。</w>
的人 才
的两 大
的一 天
的,你 得
的,你得 使劲
的,你得使劲 看。不能说看不清楚
的, 所以
的, 左
的,左 晃
的,左晃 右
的,左晃右 晃
的 项目
的 重点
的 选手
的 规定,
的 表演
的 痕迹
的 状态
的 物品
的 批评
的 手段
的 图片
的 同学
的 合理
的 交通
的 ,但
百分 点。</w>
百 多
登记 工作
略 有
留 给
留 学
畅 销
电话 、
电影 版
电 热
由于 在
用水 量
瑟 ·
瑞 金
理 性
球 衣
环球时报》 记者
环境 污染
王 雁涛
玉 泉
狠 狠
狠 抓
状况 。</w>
牵 引
物 种
片 《
爱你 一生
熟悉 的
熟 练
照顾 孩子
煤 业
然 无
烟草 控制
烟 ,
火 烧
滨 江
满 屋
湖南省政协原副主席童名谦 严重违纪违法
湖人 队
深刻 的
淡 淡
涌 现
消防 部门
浸 泡
海军 相关部队出动
海 况
浩瀚 ,星
浩瀚,星 汉
浩瀚,星汉 灿烂
流 出
注 销
注 :
法令 纹
法 案
法 新
法 、
泉 所
沿 街
治疗 费用
治 国
河北省 交通厅
江 淮
江 浙
水平 。
水平 ,
水 霖学校
水 资源
氧化 硫
气 和
毛 里求
每个 人的
每 立方米
每 平方米
母亲 的
残疾 人
武警官兵 、公安
步行 街
此前 的
正式 开始
榆 阳区
楼 层
桶 汽油
柠 檬
柏 泉所
林志 玲
枕 头
来说是 很不平凡的一年
来说是很不平凡的一年 。我们
来说是很不平凡的一年。我们 共同
来说是很不平凡的一年。我们共同 战胜了各种困难和挑战
来说是很不平凡的一年。我们共同战胜了各种困难和挑战 ,取得了
来说是很不平凡的一年。我们共同战胜了各种困难和挑战,取得了 新的
来说是很不平凡的一年。我们共同战胜了各种困难和挑战,取得了新的 显著
来说是很不平凡的一年。我们共同战胜了各种困难和挑战,取得了新的显著 成就
权力 过于
机关 事业单位
朱丽 倩
朱 家
朱家 臣
术 后
本 书
未来发展的 宏伟蓝图
未 缴
未 提
朋 克
朋克 公主
有关 规定,
有人 在
有 能力
有 3
最美 脸蛋
最低 工资
最 温暖
曝光台” 栏目
暧 昧
智 力
普 生
显示 出
是 被
昨日 上午,
星 星
旺 季
时代 的
时 点
时 常
时 10
无 不
旋 律
旅客 的
方案 》
方 言
新年 音乐
新 颖
新 的一年,
整 容
教育 厅
救援 行动
救护 车
政法 系统的
政府 军
政 客
改革 方案
改革 发展
改 装
收获 。在改革开放
收获。在改革开放 的伟大实践中,我们已经创造了无数辉煌。我坚信,中国人民必将创造出新的辉煌。</w>
收 回
支持 和
支 配
搞 得
援 藏
提出 要
描绘了 未来发展的宏伟蓝图
掩 饰
控烟 的
接近 “报废
探 讨
排 起
据新华社 电
据中国之声《新闻 纵横
据 香港《
捕 捉
按照 “
挂 历
担 负
报 业
抢票软件 接近“报废
抢票软件 ,多家
抢票软件,多家 抢票软件接近“报废
折 扣
折 叠
投 保
把 这些
批准 ,
扶贫 开发
执 导
打造 “
打 捞
手机 ,
手 工
所有 人都
房产 局
房 ,
戴 上
战争 的
战 ,
或者在 其他
或者在其他 列车的
或者在其他列车的 禁烟区域
我们国家 和人民
我们国家和人民 来说是很不平凡的一年。我们共同战胜了各种困难和挑战,取得了新的显著成就
我 也
成 人
懂 得
想 看
惩 处。</w>
恶 化
恋情 曝光
总 投资
性 质
怀 着
忽 略
快 感
忙 着
心血管 疾病
微信 公众
微 量
得 更
很 简单
很 强的
很 不错
待 观察。</w>
影响到了 抢票软件,多家抢票软件接近“报废
影 评
彩色 的,你得使劲看。不能说看不清楚
当 晚,
当 时,
张 大伟
张 勇
开放 日
开 支
开 出
建成 小康
建国65 周年
延 庆
废 弃
应该 在
应 力、
床 ,
庆祝 新年
庆 贺
广播 电视台
广场 、
幸福安康 !</w>
并 不能
年末 ,
年 会
平台 、
干 爹
师 大
市场 需求
市场 份额
已 开始
差 ,
巧 妙
工作 ;
工人、农民、知识分子、 干部
工业 化
工 、
山 隧道
山 县
展现 了
居 高
尾 巴
就是 爱你一生
就 变得
尚 有
少 量
小平 同志
小 龙
小 时</w>
小 子
小 便
将全面 启动
对记者 说,
对 面
对 全面深化改革作出总体部署
对全面深化改革作出总体部署 ,共同
对全面深化改革作出总体部署,共同 描绘了未来发展的宏伟蓝图
密 度
家人 团聚
家 用
宣 言
客 家
审 讯
实现 营业收入
实施 ,
宝 龙
定 性
官方 网站
宗 派
宏 飞
安监 局
守 候
宇宙 浩瀚,星汉灿烂
孩子们 快乐
学前 教育
学 金
孤 寡
孕 期
子宫 肌瘤
子 弹
妻子 的
妊 娠
好 感
她 是
她 已经
奥运 会
太阳能 电池
太 多的
天, 占
天 空
天 文
天 府
大气 灰霾
大学生 村官
大 雪
多与 女性
多 起
多 处
多 发
多 功能
外 资
复杂 ,
处罚 。</w>
处理 器
增 多
塞 俄
塞俄 比亚
塑料 管
城镇化 工作会议
埃 塞俄比亚
型号的 飞机、水面舰艇和潜艇,有效配合了试验,同时带动了部队实战化
垄 断
坚守 在工作岗位
均已 摘
均 有
地 质
在 场
在 任
国际 关系
国民 党
国四 汽油
国务院港澳 办发言人
国企改革 总体方案
国企 高管
国 力
国 人
国 三
固定 资产
四川 省委
四 肢
啦 啦
啊 !”</w>
商 讨
哈哈哈哈 哈哈
咳 咳
和谐 稳定
和 特点
和 李亚鹏
和 朋友
和 投资
和 工作
命 中
周 岁的
员 在
吴佩 慈
吞 吐
吗? 你
向 西
向 “
后 又
名单 。</w>
名 符其实
名 将
名 乘客
同时 段
同 一天
同 一个
合 约
各种风险 和挑战
吃 法
叶 酸
可谓 是
可以 用
可 直接
可 惜
召开的 全国
叫 做
取 决
取决 于
发表 二〇一四年新年贺词。
发表二〇一四年新年贺词。 新华社记者兰红光摄</w>
发生 。</w>
发现 自己
发 文
发 愁
双 臂
参与 投票
原因 。</w>
历史 遗留
厂 商
卷 福
却 被
卫生局 医
卫生局医 政
卫生 服务中心
卡 在
占 用的
博 览
南 路
南 约
单纯 的
单位 应当
华盛顿 邮报》
华 国
半 小时
升级 之后,
千 颂伊
十 个
区 将
北京 、上海
北 约
北 方的
化学 物质
勘 查
势 。</w>
劳教所 均已摘
劳动 争议
劲儿 ,
动车组列车上吸烟 或者在其他列车的禁烟区域
动 产统一登记
加 密
副 驾驶
副 教授
副 发言人
副 厅长
前 就
前 任
前 一天
削 减
到 驻港部队营区门外进行滋扰,并擅自闯入中环军营的行为,中央政府严重
利 、
判决 书
判 罚
创 办
刘 德华
刑事 案件
分钟 的
分耕耘 ,一分
分耕耘,一分 收获。在改革开放的伟大实践中,我们已经创造了无数辉煌。我坚信,中国人民必将创造出新的辉煌。</w>
分 级
出 示
出 品
几 千
几 个人
决定 》
冬 吃萝卜
冠军 ,
冒 着
再 过
兹 伯格
其实 我
关系 和
关 税
关 心的
共同 社报道,
六 合
公款 消费
公园 内
公 职
八 佰
八佰 伴
全面 建成小康
全 额
全 资
光 伏
先 天
充分 利用
儿 媳
做法 :
做 人
偏 离
值得注意 的是,
信息 技术
保护 好
保 温
俄罗斯 总统普京
依法 依
使用的是 静态验证码,字符清晰,且不分大小写
佩 斯
作 息
作 出的
作 假
作 《
佛 像
体 会
低收入 家庭
但 是,
传承 一生一世
传承一生一世 的爱和正能量
会议 费
会动 的,左晃右晃
会 出现
休闲 会所
价格 指数
以习近平同志 为总书记的党中央
令 吉
他 已经
他 也
从 轻
从 犯
仍然 是
今 日,
亿美元 的
人送 外号
人民网1月2日 讯据
亮 点,
产能 过剩
产业 链
产业 化
产 田
交 界
交 响
互 信
二次 无机气溶胶
二战 甲级战犯
二 号
事发 时
了解 情况
了一 家
了。 我
了, 所以
了 这个
了 起来
了 ,他
也 表示,
也 影响到了抢票软件,多家抢票软件接近“报废
也 希望
也 均
也 可能
乐 坛
主 城区
主 人家
为什么 要
为 祖国
为 人民
临时 决定
中间 价
中信 银行
中 断
中 富含
中 大
中 俄
中 东
中 ”
严重 。</w>
两 桶汽油
东条英 机
东 新区
世界 第一
不能 和
不能 吃
不动 产
不但 经常出现字符叠压的情况,验证码还在
不仅 要
不 离
不 确定
不 怕
不 应该
不 合理
不 吃
下午 ,“
下 颌骨
下 落
上班 ,
上涨 0.
上 是
三、 四
三 轮
三 个月
万 红
万 多
万 剑
丁 矿长
一个 人的
一 跃
一 贯
一 百
一 是
一 层
一 侧
一 举
一 两
【同期】 复旦大学附属眼耳鼻喉科医院
》 周刊
《我是歌手 》
。这 里
。这 就
。新 京
。据 悉
。所以 ,
。“ 在
。(记者 张
。 长期
。 无论是
。 和
。 双方
、德国 、
、 日
、 古
、 医疗
、 全
、 促进
”一 事
”, 到
” 后,
” 了,
” )
“ 自
“ 绍卡利斯基院士”号
“ 招
“ 以
’ 。”
~ 5
p p
os t
o f
k e
i e
i W
e m
c e
a b
[社会 新闻推荐</w>
[ 香港警务处警察公共关系科
[ 北京时间
[ 中
S t
S p
QQ 群
L O
IPO 重启
I T
E X
CE S
; 如果
:“ 我们
: 其实
94 型
90 %
9 年的
9 .6
7月 份
70多亿人共同生活在我们这个星球上,应该守望相助、同舟共济、共同 发展
7 人
600 万
6 家
6 9
5亿 豪宅
5 .0
40 多岁的
40 人
4 位
25 分
2014年 1月2日
2013年前 9月
2013年12月 29日,
2013年12月 28日
2013年 ,对
2013年,对 我们国家和人民来说是很不平凡的一年。我们共同战胜了各种困难和挑战,取得了新的显著成就
2013 就是爱你一生
2012年 同期
2010年 11月
2 40
2 )
1日 表示,
15 家
14 37
13 亿
12306网站 使用的是静态验证码,字符清晰,且不分大小写
12 8
11 家
100 万元
10 余
10 6
1. 6
1 15
1 )
0 94型
0 8
,那 就是
,这 两个
,还 将
,让 人们对
,被 称为“
,致以 新年的祝福
,用 来
,比如 “
,每 月
,据 悉
,或者 在
,我们将在改革的道路上迈出新的 步伐。</w>
,并 处罚金
,并 向
,希望 能
,就 要
,对 此
,大 量
,到 现在
,分别 是:
,但 现在
,但 我们
,也 能
,中国 的
,不 会
,一 次
,“ 霸机”
,“ 这
, 鼓励
, 采取
, 配备
, 等
, 竟然
, 正在
, 新年
, 整个
, 拉
, 心
, 实施
, 安倍
, 学习
, 可能是
, 另有
, 准备
, 保证
, 临
, 7
, 2009年
, 2
) 记者从
) 以及
鼓 山
黄某 和
黄 帝
鸡 肉、
鱼 肉
高 龄
高 新区
骑着自行车 载着女儿
驻港部队 总部
香港特别行政区同胞 和
香港特别行政区同胞和 澳门特别行政区同胞
香港特别行政区同胞和澳门特别行政区同胞 ,向
香港特别行政区同胞和澳门特别行政区同胞,向 台湾同胞和海外侨胞,向
香港特别行政区同胞和澳门特别行政区同胞,向台湾同胞和海外侨胞,向 世界各国
香港特别行政区同胞和澳门特别行政区同胞,向台湾同胞和海外侨胞,向世界各国 和各
香港特别行政区同胞和澳门特别行政区同胞,向台湾同胞和海外侨胞,向世界各国和各 地区的
香港特别行政区同胞和澳门特别行政区同胞,向台湾同胞和海外侨胞,向世界各国和各地区的 朋友们
香港特别行政区同胞和澳门特别行政区同胞,向台湾同胞和海外侨胞,向世界各国和各地区的朋友们 ,致以新年的祝福
首次组织了以辽宁舰为核心的编队航行训练 ,达到了
首次组织了以辽宁舰为核心的编队航行训练,达到了 预期
首次组织了 作战系统
首次组织了作战系统 综合
首次组织了作战系统综合 研
首次组织了作战系统综合研 试,
首次组织了作战系统综合研试, 首次组织了以辽宁舰为核心的编队航行训练,达到了预期
首度曝光。 透过
首度曝光。透过 央视
首 饰
首 艘
首 条
首 家
食物 ,
飞行器 ”
飞 的
风 力
领导干部带头在公共场所禁烟有关事项的 通知》,
领域 ,
预 言
顺风 车
韩国 总统
革命 队伍
面临 着
需要 的
需求 的
雷 锋
雌 性激素
集中 供暖
限 度
陈兆 才
陈 代谢
陈 一
阶段 性
防 守
防 伪
问题 。”
问 你
长期 进京证
键 盘
铲 除
钱 花
钱 买
针对 性
金 华
重庆 、
重 回
里 ,我们
采访 。</w>
采 洁
配合 ,
都 不会
郭 采洁
郭 毅力
部电话 (二
部电话(二 红一白
部电话(二红一白 ),
部电话(二红一白), 身后
部电话(二红一白),身后 书架上摆放
部分 是
郑 东新区
遭 人
道 上
遍 布
遇 到了
逼 问
速 测量
速测量 ,以及
速测量,以及 近似实战条件下航母作战系统感知
速测量,以及近似实战条件下航母作战系统感知 能力,
速测量,以及近似实战条件下航母作战系统感知能力, 指挥
速测量,以及近似实战条件下航母作战系统感知能力,指挥 能力,
速测量,以及近似实战条件下航母作战系统感知能力,指挥能力, 目标指示
速测量,以及近似实战条件下航母作战系统感知能力,指挥能力,目标指示 能力,
速测量,以及近似实战条件下航母作战系统感知能力,指挥能力,目标指示能力, 综合
速测量,以及近似实战条件下航母作战系统感知能力,指挥能力,目标指示能力,综合 通信、
速测量,以及近似实战条件下航母作战系统感知能力,指挥能力,目标指示能力,综合通信、 导航
速测量,以及近似实战条件下航母作战系统感知能力,指挥能力,目标指示能力,综合通信、导航 、气象
速测量,以及近似实战条件下航母作战系统感知能力,指挥能力,目标指示能力,综合通信、导航、气象 保障
速测量,以及近似实战条件下航母作战系统感知能力,指挥能力,目标指示能力,综合通信、导航、气象保障 能力,
速测量,以及近似实战条件下航母作战系统感知能力,指挥能力,目标指示能力,综合通信、导航、气象保障能力, 空域
速测量,以及近似实战条件下航母作战系统感知能力,指挥能力,目标指示能力,综合通信、导航、气象保障能力,空域 管理
速测量,以及近似实战条件下航母作战系统感知能力,指挥能力,目标指示能力,综合通信、导航、气象保障能力,空域管理 能力等100余项试验和训练课目
逛 逛
通 话
通 缉
通 了
通 ”
适航 性
适航性 试验
适航性试验 ,
适航性试验, 深水
适航性试验,深水 条件下
适航性试验,深水条件下 航
适航性试验,深水条件下航 速测量,以及近似实战条件下航母作战系统感知能力,指挥能力,目标指示能力,综合通信、导航、气象保障能力,空域管理能力等100余项试验和训练课目
退 税
退 伍
迪斯 拉
迪斯拉 发
迪 雅
连 连
违 章
远 洋
进展 顺利
进一步 强化
进 村
这里,我 向全国
这里,我向全国 各族人民,向
这里,我向全国各族人民,向 香港特别行政区同胞和澳门特别行政区同胞,向台湾同胞和海外侨胞,向世界各国和各地区的朋友们,致以新年的祝福
这样 做
这一 点
这一 “
这 只
这 两个
还不 算
还 说,
近 些
近 600
运动 参数
运动参数 、舰
运动参数、舰 体
运动参数、舰体 结构
运动参数、舰体结构 应力、
运动参数、舰体结构应力、 舰载机
运动参数、舰体结构应力、舰载机 系
运动参数、舰体结构应力、舰载机系 留
运动参数、舰体结构应力、舰载机系留 载
运动参数、舰体结构应力、舰载机系留载 荷
运动参数、舰体结构应力、舰载机系留载荷 测量
运动参数、舰体结构应力、舰载机系留载荷测量 等
运动参数、舰体结构应力、舰载机系留载荷测量等 总体
运动参数、舰体结构应力、舰载机系留载荷测量等总体 适航性试验,深水条件下航速测量,以及近似实战条件下航母作战系统感知能力,指挥能力,目标指示能力,综合通信、导航、气象保障能力,空域管理能力等100余项试验和训练课目
运 河
迎接 2014年
过去 一年
过 一次
过 一个
辽宁舰自 2013年11月
辽宁舰自2013年11月 26日
辽宁舰自2013年11月26日 从
辽宁 大学
边防 总队
边 唱
边唱 边
较 多
轻 度污染
转发 吴京微博
轨道 飞行器”
车 水
车 位
身亡 。</w>
身 处
跟 男友
超 长
超 载
起航 首次赴南海海域试验训练以来,
赵公 山
赵 国军
赵 云
赴 美
走 近
赛 后
资源 ,
资 助
贾 努
贾努 扎伊
贺国强 同志
贵州 省
质疑 。</w>
财政 厅
豪华 包间
谢楠 转发吴京微博
谈 起
调查 、
诺 娃
说, 从
说 ,这个
该 怎么办
评 为
证 和
证 。</w>
设施 的
讲话 中
讲 究
认证官 程
认证官程 东
计生 证
计划 在
警 服
触犯《公安条例》 (
触犯《公安条例》( 第24
触犯《公安条例》(第24 5
触犯《公安条例》(第245 章)
触犯《公安条例》(第245章) 第
触犯《公安条例》(第245章)第 38条
触犯《公安条例》(第245章)第38条 ,在无许可证情况下进入香港驻军禁区
解放 和
规范 (
规定 :
西 侧
装 水
被开除学生 ”
被 调查
被 撬
被 发现
表达 了
表示衷心的感谢 !</w>
表示, 自己
表示 自己
表 ,
补充 剂
衡阳 市委
行政 许可
行动 计划
行 至
血 脂
血 病
血 ,
融 化
蜡 烛
蜂 窝
蛋白质 、
蛋白 酶
虚 作假
蔡 女士
蓝 天
落到 实
落 的
落 水
菜 篮
菜 刀
菌 群
获 益
莱 斯
草 坪
范围 的
花车 游行
芜湖 长江
节目 组
舰艇 运动参数、舰体结构应力、舰载机系留载荷测量等总体适航性试验,深水条件下航速测量,以及近似实战条件下航母作战系统感知能力,指挥能力,目标指示能力,综合通信、导航、气象保障能力,空域管理能力等100余项试验和训练课目
舌 尖
舆情 满意度
至 2013年
至 19
自治区 主席
自动 识别
自 相
自相 矛盾
脸 谱
脑 袋
脊 椎
能力 、
胡 先生
股, 筹集
股,筹集 资金约
肚 子
联系到 一起
联 储
职 守
耗 资
而 下,
者 。
考 点
老虎 ”
老年 知心热线
老人们 健康
老人们健康 !祝福
老人们健康!祝福 孩子们快乐
老人们健康!祝福孩子们快乐 !祝福
老人们健康!祝福孩子们快乐!祝福 每个家庭
老人们健康!祝福孩子们快乐!祝福每个家庭 幸福安康!</w>
老 字
羽 毛
美国 国安局
美 联社
美 妙
羊城 晚报记者
罪 行
网络 购物
网友 表示
网 帖
编 造
维吾尔 族
统计 ,2013年
给 人
结合 ,
经济 运行
经济 效益
经济 区
经国 号”
组织 开展
线城市 和
纽约时报 公司
纽 曼
纵 观
级 干部
红白歌 会”
红帽 ”
红 糖
红 的
红 旗
紧 随
素 福
粤 语
粉 红色
篇 论文
箱 子
管 委会
等 各
等 一批
第一 件事
第 八
第 10
站 起来
站 立
窒 息
突 击
突 出,
空气质量 监测
空气 污染
稳健 的
称 赞
称 呼
秦 刚
租 车
租 客
科 普
种 ,
秋 季
私家 车
离 去
福 特
祝 词
祈 求
社会 力量
社会 上
礼 仪
磅 礴
碳水 化合物
碳 酸
破 纪录
研究 机构
研究 成果
研发 人员
知道 ,
知 。</w>
睾 丸
着 重
着 这
眼 光
真实 身份
真人秀 节目《
看到, 习近平办公室
省( 区、
省 部级
相 适应
相 近
相 声
直 机关
目标 。</w>
盛 大
盘点 :
皖 北
的真实 性
的手 法
的性 爱
的心 血和汗水
的前提 下,
的人 在
的人 ;</w>
的主 体
的中国 海
的中国海 警
的“ 红白歌会”
的 道路
的 药物
的 美女
的 王
的 父亲
的 气温
的 意思
的 对手
的 国际
的 光
的 假
白 血病
白 思
白思 豪
登陆 艇
癌 细胞
瘦 肉
番茄 红素
畜禽 养殖
男神 ”
男 士
电视 问政
用 了
生活 方式
生 机
理念 ,
现代 服务业
现代 化的
环比 下跌
玮 琪
王菲 和李亚鹏
王 老汉
王 秀
王 海
王 明
玉兔 ”号
献 上
状态 。</w>
犯罪 事实
特 产
牵 母亲的手散步
牵母亲的手散步 、他
牵母亲的手散步、他 与
牵母亲的手散步、他与 夫人
牵母亲的手散步、他与夫人 合影
牵母亲的手散步、他与夫人合影 、他
牵母亲的手散步、他与夫人合影、他 骑着自行车载着女儿
父亲 的
父亲 、他
父亲、他 牵母亲的手散步、他与夫人合影、他骑着自行车载着女儿
爱美 网
爱 尔兰
燃 气
熊 猫
照片 中
照片 ,分别是:
照片,分别是: 他
照片,分别是:他 与家人推着轮椅上的
照片,分别是:他与家人推着轮椅上的 父亲、他牵母亲的手散步、他与夫人合影、他骑着自行车载着女儿
照 明
然 大
烧 鸡
点 和
炫 耀
炙 手
炙手 可
演示 文稿
滋 事
游 览
渣土 车
深圳 市
液晶 电视
消防 局
消费 品
消息 称
海况 条件下的
海况条件下的 舰艇运动参数、舰体结构应力、舰载机系留载荷测量等总体适航性试验,深水条件下航速测量,以及近似实战条件下航母作战系统感知能力,指挥能力,目标指示能力,综合通信、导航、气象保障能力,空域管理能力等100余项试验和训练课目
浦东 新区
活动, 刷新
津 津
洗澡 的时候
泼 向
注意 饮食
法》 和《
法 西斯
法 》、《
法 ,
治 边
油 烟
河 劳教所
没有 发现
汽车 之家
江 豚
江 汉
求 职
求 救
水平 和
水 肿
气 质
民 阵
毫 无疑
毛主席是 老乡
母舰 在高
母舰在高 海况条件下的舰艇运动参数、舰体结构应力、舰载机系留载荷测量等总体适航性试验,深水条件下航速测量,以及近似实战条件下航母作战系统感知能力,指挥能力,目标指示能力,综合通信、导航、气象保障能力,空域管理能力等100余项试验和训练课目
殿 堂
武警官兵、公安 干警
止 咳
款 项
次 年
次 。</w>
楠 ”
检验 检疫
检查 和
核武 库
核 桃
标准 和
标准 为
极 度
板 栗
松 下
杨 先生
来自 星
来自星 星的
来自 于
来 。
条 ETC
李 芬
李 东
机制 。</w>
本身 就是
本 赛季
本 科
本 案
本 周
未成年 人
未 达到
木 耳
朗 水霖学校
服务 体系
服 。
朋友 介绍
有关 方面
有 爱心人士
有 气象
有 时间
有 多少
月球 勘测
月球勘测 轨道飞行器”
月 坛
月坛 店
最高 罚
曼 谷
更 高的
更 方便
暴 雪
暖 身
晶 球
普通 人
是一 次
是一 幅长城画
是一幅长城画 作,
是一幅长城画作, 办公桌上有
是一幅长城画作,办公桌上有 三
是一幅长城画作,办公桌上有三 部电话(二红一白),身后书架上摆放
是 你
春晚 主持
明确 规定,
旺 盛
旦 姆
日本 媒体
日报》 报道,
日 数
日 出
无可 厚非
方便 面
新版 验证码
新年伊 始,
新 形势
新 婚
斯洛伐克 内务部
斑 马
文集 》
文化 旅游
文 中
整 洁
整 整
敲诈 勒索
数据显示, 2013年
教育实践 活动,
政法 委书记
政 风
放 下
放 ,
改革 举措
改变 ,
收 银
收 紧
收 养
擅自闯入位于中环军营的解放军驻港部队总部 。</w>
摸 底
摩 擦
摇 动的
摆 在
揭 晓
推进 国家治理体系和治理能力
推 测
控制 吸烟
接受 这样的
接 警
排 出
换 成
按照 《
指纹 识别
指标 配
持续 健康
持续 了
拥 挤
拟 在
拜 鬼
招 牌
拐卖 儿童
拎 着
抵押 贷款
抛 售
抗 争
投 掷
投 产
批 次
扭 矩
扩 容
打 违
打 拐
所谓 的“
所谓 的
所有 劳教所均已摘
所在 的
房 山区
房 子,
房 主
截至 2013年12月31日
截 图</w>
战斗 才
战斗 力
我们 即将迎来
我们即将迎来 充满希望
我们即将迎来充满希望 的2014年
我不是 男神
我 很
成品 油
成 长的
成 真
成 婚
意见 》,
想 着
情绪 ,
恰 好
恐怖 活动
恋情 曝光后,
恋 人
总部 认证官程东
总 计
总 基调
总 共
急 忙
忘 了
心 有
心 一
心 。
德 ·
御 寒
得 的
得 多
得 “
很 受
往 上
当地 警方
强 势
强 。</w>
张 凤荣
引 述
弄 虚作假
开 水
开 房
建设 用地
庭 审
底 前
序 幕
广 电
年 长
平安 夜
平 板
幅 照片,分别是:他与家人推着轮椅上的父亲、他牵母亲的手散步、他与夫人合影、他骑着自行车载着女儿
帽 子
带有 自动填写
布拉 迪斯拉发
市委 会
市场 。</w>
巴 旦姆
巴 克莱
已 故
已 与
差 评
巨 浪
工程 、
工 行
工 人们
山东 、
山 口
居民 阶梯水价
局 地
尸 骨
就是 这样
就是 在
就 这样
就 走
就 可
尔· 白
少林 寺
少女时代成员 允儿
小姨 子
将面 世,
将 通过
将 逐步
将 如何
对外 公布
对 这个
对 媒体
对 全市
对 不起
对 2014年
寒风 中
家 常
实实在 在
实在 是
实 惠
定 论
定 居
安全 隐患
安 慰
安 宁
守则 》
它是 会动的,左晃右晃
孟 买
孙国 豪
存在 着
婴 幼儿
婚 戒
姑 息
妇 产
如果 说
好 运
好 ,但
女 客人
奋 力
失 事
天气气候 事件
天 皇
天 后
天 内
天 使
大家 的
大多 为
大型 游乐设施
大兴 线
大 面积
大 致
大 城市
大 为
多 大
夏 志清
壮 大
增强 社会
墙 上
堵 塞
基础设施 建设
埇 桥
型 、
坚持 以
坚定 信心
地点 :
在一起 ,
在1%以上的 有
在 英国
在 地铁
在 各
在 一些
圈 内
图 像
国际 机场
国家主席习近平发表新年贺词 ,其
国家主席习近平发表新年贺词,其 办公室
国家主席习近平发表新年贺词,其办公室 也
国家主席习近平发表新年贺词,其办公室也 首度曝光。透过央视
国内 的
国债 逆回购
国 道
国 新办
团 购
回 避
回 来,
喜 庆
啦 !
哈哈哈哈 哈
哈 尔
咱 们
和 民族
和 武警官兵、公安干警
和 技术
和 大家一起
周期 性
周岁 之前
周岁之前 出现
周 四
听 见
听 ,
含有 激素
含有 丰富
否认 。</w>
吓 住
向 外
后, 民警
后 才能
后 仍
名符其实 的“
同志 们
同 龄
吉尼斯 总部认证官程东
合作 协议
各界 共识
各 家
吃饭 ,
司法机关 依法
号 汽油
号 。</w>
右侧 书架
可以 看到
可 行
召开 了
召 集
古井 贡
古 典
口 的
口 气
叛 国
变速 箱
变成了 不断
变成了不断 摇动的
变 为
受 困
发布 公告
发 稿
发 球
发 烧
发 泄
发 了
双 腿
又 要
又 开始
县 里
县 人民政府
县 ”
原 有的
历 来
博爱 医院
南京 国际金融中心大厦
南 国
南 华
南华 早
卖 出
单 元
半 壁
午 后
千 年
千 伏
区 环保局
区 分
区 内
北京市 所有劳教所均已摘
北京 博爱医院
化 石
化 痰
化 为
劳动 合同
努 尔·白
动车 上吸烟
动力 系统
加快 建设
加工 、
功能 。</w>
办理 。</w>
劝 告
力 气
副主任 、
副 院长
前进 的道路上
前 者
前 夕
前 国足
前 十
别 有
利率 市场化
初 雪
刘 柏林
划 拨
分析 称,
分 流
出台 《
出了 “
出 色
出 入境
凭 证
减 缓
减 免
凌晨 3
准备 金
准 则
冰 面
军事 强国
军 团
写 的
再 添
内部 的
内分泌 失调
养 护
典型 案例
其他的 软件和网站已经影响到旅客正常的
其 间
其 所
其 在
关 门
公然 挑衅
公园 、
公 认
公 关
全面 禁烟
全部 完成
全球 最
全 长
全 覆盖
入 园
党的群众路线 教育实践活动
党的十八大 和
党 外
免 职
光荣 使命
光 》
充 裕
元复始,万象更新 。在
元复始,万象更新。在 这里,我向全国各族人民,向香港特别行政区同胞和澳门特别行政区同胞,向台湾同胞和海外侨胞,向世界各国和各地区的朋友们,致以新年的祝福
储诒 权
健康 。</w>
做 起,
做 到了
假 ,
倾向 于
值班 人员
值得 期待
值 机
值 为
倡 议
保障房 空置
保险 、
保护 。</w>
俄罗斯 人
依然 是
供应 量
供 需
使 领馆
你 要
佛 海
体系 建设
伪造 居民身份证
伤 情
会 场,
会 产生
优势 ,
优 素福
休 刊
任 志强
以下 罚款。</w>
以 外的
他 踢足球的照片
从 而
仍 将
介入 调查
仅仅 是
亿韩 元
亿美元 。</w>
亿元 人民币
亿人 次,
人道 主义
人的 家庭
人民解放军 和武警官兵、公安干警
人民 日报
人死亡 ,
人有效 参与
人头 攒
人 身
人 情
产品 质量
交易 的
交 纳
互相 诽谤和
于 泓源
于 1月
事务 所
事件 中
争 论
了一 场
了 多少
习惯 。</w>
也被 一些
也 无法
也 出现了
乘客 在
乘 势而
乐 园
之一 ,就是
之 时,
之 上,
举办 的
举办 了
主 营
为 重点,
为 性早熟
为 你
为 一
为 5
为 4
中西部 高校
中 组
中 发现
中 使用
严 防
严 打
严 寒
两人 结婚
两 天,
专家 、
专 注
与 社会
不是 什么
不断 地
不同 的是,
不动产 登记
不仅 仅是
不 靠谱
不 说
不 懈
不 安
不 大
不 允许
下午 擅自闯入位于中环军营的解放军驻港部队总部。</w>
下 一个
上月 30日
上月 28日
上 次
上 任
上 也
三 类
三 分之一
三 分
丈夫 的
万 人,
一起 来
一年 半
一名 男子
一些 地区
一个 小时
一 遍
一 通
一 来,
一 审判决
》 中,
《 通知》
《 超级
。这 对于
。记者昨天 获悉,
。而 对于
。经 查,
。当 前
。后 来,
。但 在
。为 此
。”这位 医生
。” 网友“
。“ 他
。(记者 孙
。(海峡 导报记者
。( 刘
。 期间,
。 昨天
。 德国
。 包括
。 像
。 事实上,
。 上海
。 一名
、工商 、
、 龙
、 陕西
、 防
、 近
、 浙江
、 易
、 教育
、 开
、 合肥
、 分
、 农村
、 丁
…… 这些
…… ”</w>
”称号 。</w>
”的 大
”之 称的
”, 即
” 而
” 之后,
” 与“
“雪龙”号 船
“招 财
“小 红帽”
“四 风”
“三 审三公示
“ 这是
“ 超
“ 红
“ 放
“ 抽
“ 当时
“ 从
“ 五
“ 中
· 阿
u g
r is
it y
iss y
ir ley
il l
e e
an a
am mi
ac e
Sh irley
P K
M issy
M D
L TE
L MD
IF C
I N
I D
G PS
EX O
C T
; 二
: 4
8月 20日,
80 万
8 大
70 %,
7 日,
7 .7
6 时
50 万元
50 %,
5 次
5 元
45 岁的
40 分钟
40 分,
40 %
4 家
3名中国 维族囚犯
35 年
35 00
35 %
31 名
30 余
3. 8
3 %
25 00元
2013年12月31日, 国家主席习近平发表新年贺词,其办公室也首度曝光。透过央视
2013年12月26日 下午擅自闯入位于中环军营的解放军驻港部队总部。</w>
2013年 是
2013年 底
20 米
20 世纪
2. 6
2 小时
2 13
1月2日电 据
1月 份
1月 0
1月 ,
1日 )
1个 ,其中
1800 多人
15 00
1437 人有效参与
14 5
12 日,
11 个月
100 多名
10 秒
10 条
10 大
10 人
10 个工作日内
10 .8
0 .6
.1 %,
,这些 都是
,这 就
,这 么
,较 上月
,看 看
,每 个人
,无 数
,我 会
,并 通过
,并 迅速
,她 说
,大 概
,多 吃
,同时 也是
,各界 期待。</w>
,只 好
,其 行为
,全 长
,他 说
,他 将
,为 什么
,不断 提高
,不 让
,不 太
,一 场
,“ 现在
,“ 你
, 金
, 通常
, 获得
, 维护
, 系统
, 第一
, 直至
, 民警
, 此外,
, 来自
, 昨日
, 日本
, 控制
, 成功
, 建设
, 容易
, 完善
, 孩子
, 女儿
, 增加了
, 合肥
, 右
, 到了
, 初步
, 19
) 与
( 以下简称
( 一)
( R
黑 寡妇
黎 吉
黎吉 龙
黄 麟
黄 海
麦 霸
鹿 邑
高血压 患者
高峰 时段
高大 上
高 高
高 尔夫
高 喊
骚 扰
验证码的 初衷
驻 美
香港 特别行政区
香港 市民
香港市民 未经
香港市民未经 解放军驻港部队
香港市民未经解放军驻港部队 批准
香港市民未经解放军驻港部队批准 ,并
香港市民未经解放军驻港部队批准,并 不顾
香港市民未经解放军驻港部队批准,并不顾 军营
香港市民未经解放军驻港部队批准,并不顾军营 营
香港市民未经解放军驻港部队批准,并不顾军营营 门
香港市民未经解放军驻港部队批准,并不顾军营营门 哨
香港市民未经解放军驻港部队批准,并不顾军营营门哨 兵的
香港市民未经解放军驻港部队批准,并不顾军营营门哨兵的 警告,
香港市民未经解放军驻港部队批准,并不顾军营营门哨兵的警告, 强行闯入
香港市民未经解放军驻港部队批准,并不顾军营营门哨兵的警告,强行闯入 中环军营
香港市民未经解放军驻港部队批准,并不顾军营营门哨兵的警告,强行闯入中环军营 进行滋扰
香港市民未经解放军驻港部队批准,并不顾军营营门哨兵的警告,强行闯入中环军营进行滋扰 。</w>
首次组织了作战系统综合研试,首次组织了以辽宁舰为核心的编队航行训练,达到了预期 目的。
首次组织了作战系统综合研试,首次组织了以辽宁舰为核心的编队航行训练,达到了预期目的。 海军相关部队出动
饮 品
食品药品 安全
食 的
食 疗
风 速
风 尚
风 、
频繁 的一个
频繁的一个 词
频繁的一个词 ,你
频繁的一个词,你 一定
频繁的一个词,你一定 没
频繁的一个词,你一定没 少用
频繁的一个词,你一定没少用 过
领导干部 要带头
领导 职务
领导 层
预 审
预 告
顾 虑
顺利 !</w>
音乐 人
韩国 艺人
韩国 某
面 ”
非常 重要
非 凡
青 霞
青 山
霸 亚洲
需要 注意
雌 雄
雌雄 大
雌雄大 盗
集体自卫 权
集体林权 制度改革
雄 踞
难得 的
陵 水
降雨 量
陈奕 君
陈 毅
阿拉 伯
阿尔 山
阿 帕
阿 娇
阵 阵
闻 讯
闹 ’
问题, 没有及时
问题,没有及时 采取有效措施
问题 是
问题 上的
问候 ,祝
问候,祝 他们
问候,祝他们 平安
问候,祝他们平安 顺利!</w>
问 及
门 ”
长 官
销售 。
银行 、
铃 薯
铁路运输 和邮政业
铁路 12306网站
铁 丝
钱 荒
钱 在
钩 摹
金 量
重要 讲话
重要 指示
里 兰
释放 。</w>
醒 来
酒 后
都不 知道
都 快
郭 敬
郝 劭
郝劭 文
那个 女孩子
那 边
那 次
那 样的
那 就是
那 天,
道 门,
遇到 各种风险和挑战
遇到各种风险和挑战 。让
遇到各种风险和挑战。让 老百姓过上更加幸福的生活,还有大量工作要做
选举的 违纪违法案件
选举 湖南省
选举湖南省 人大代表
适航 性能
适航性能 等各项
送 出
退 还
退 耕
追寻实现中华民族伟大复兴的中国梦,也祝愿各国人民能够实现自己的梦想 。我
追寻实现中华民族伟大复兴的中国梦,也祝愿各国人民能够实现自己的梦想。我 真诚希望,世界各国人民在实现各自梦想的过程中相互理解、相互帮助,努力把我们赖以生存的地球建设成为共同的美好
连锁 KTV
连 夜
连 城
远离 祖国、
远离祖国、 远离
远离祖国、远离 亲人
远离祖国、远离亲人 ,有的
远离祖国、远离亲人,有的 不能同
远离祖国、远离亲人,有的不能同 家人团聚
进行 屏蔽
进行屏蔽 后,
进一步 深化
这些 事情
这些事情 联系到一起
这个词 ,作为
这个词,作为 网络和
这个词,作为网络和 短信
这个词,作为网络和短信 聊天
这个词,作为网络和短信聊天 中使用
这个词,作为网络和短信聊天中使用 相当
这个词,作为网络和短信聊天中使用相当 频繁的一个词,你一定没少用过
这 笔钱
这 才
这 几天
还 记得
还 算
还 将在
还 发现
还 傻
近 代
近 两年
运营 商
运20 首飞
运 转
迎接 新的一年
迈 出了
迈 入
过去 了,
过 年,
边 境
辨 识
辞旧迎新之际 ,无数
辞旧迎新之际,无数 工人、农民、知识分子、干部
辞旧迎新之际,无数工人、农民、知识分子、干部 仍然
辞旧迎新之际,无数工人、农民、知识分子、干部仍然 坚守在工作岗位
辞旧迎新之际,无数工人、农民、知识分子、干部仍然坚守在工作岗位 ,不少
辞旧迎新之际,无数工人、农民、知识分子、干部仍然坚守在工作岗位,不少 同胞
辞旧迎新之际,无数工人、农民、知识分子、干部仍然坚守在工作岗位,不少同胞 依然
辞旧迎新之际,无数工人、农民、知识分子、干部仍然坚守在工作岗位,不少同胞依然 奔波
辞旧迎新之际,无数工人、农民、知识分子、干部仍然坚守在工作岗位,不少同胞依然奔波 在
辞旧迎新之际,无数工人、农民、知识分子、干部仍然坚守在工作岗位,不少同胞依然奔波在 世界各地
辞旧迎新之际,无数工人、农民、知识分子、干部仍然坚守在工作岗位,不少同胞依然奔波在世界各地 为祖国
辞旧迎新之际,无数工人、农民、知识分子、干部仍然坚守在工作岗位,不少同胞依然奔波在世界各地为祖国 辛勤
辞旧迎新之际,无数工人、农民、知识分子、干部仍然坚守在工作岗位,不少同胞依然奔波在世界各地为祖国辛勤 工作,
辞旧迎新之际,无数工人、农民、知识分子、干部仍然坚守在工作岗位,不少同胞依然奔波在世界各地为祖国辛勤工作, 许多
辞旧迎新之际,无数工人、农民、知识分子、干部仍然坚守在工作岗位,不少同胞依然奔波在世界各地为祖国辛勤工作,许多 人民解放军和武警官兵、公安干警
辞旧迎新之际,无数工人、农民、知识分子、干部仍然坚守在工作岗位,不少同胞依然奔波在世界各地为祖国辛勤工作,许多人民解放军和武警官兵、公安干警 正在
辞旧迎新之际,无数工人、农民、知识分子、干部仍然坚守在工作岗位,不少同胞依然奔波在世界各地为祖国辛勤工作,许多人民解放军和武警官兵、公安干警正在 履行
辞旧迎新之际,无数工人、农民、知识分子、干部仍然坚守在工作岗位,不少同胞依然奔波在世界各地为祖国辛勤工作,许多人民解放军和武警官兵、公安干警正在履行 光荣使命
转 悠
车 流量
车 和
车 停在
身体 不适
蹴 而
蹴而 就
踏 上
跟 鞋
跑 道
足 浴
趋 平稳
起点 上
起 。</w>
赵 某
赵 本
走 走
走 下
赠 与
赛 德斯
赌 神
资料 和
贿选 问题,没有及时采取有效措施
贿赂 手段
贿赂手段 破坏
贿赂手段破坏 选举的违纪违法案件
贺 辞
费 绪
贸 协议
货币政策 委员会
货币信贷 及社会
货币信贷及社会 融资规模
责令 改正
负面 影响
负责人 。</w>
贝 克
谨慎 、
谨慎、 艰苦奋斗,共同谱写伟大祖国发展的时代新篇章。</w>
谦虚 谨慎、艰苦奋斗,共同谱写伟大祖国发展的时代新篇章。</w>
谢谢 大家
谈 论
调 查</w>
说, 现在
说 ,这是
该 局
诞 辰
评出 年度最伤人
评出年度最伤人 聊天词汇
设备 、
讽 刺
记者昨日 从
训练 、
让 皮肤
让 大家
讨要 说法
认 不
警方 抓获
解放和 增强社会
解决 好
觉得 自己
觉得 ,
规模 以上
规模 、
规划 建设
规划 和
要求 班主任
要 经过
要 加强
西 哥
西 伯
西伯 利亚
襄 阳市
裸 照
装 载
裁 定
表示,对香港 个别人
表示,对香港个别人 到驻港部队营区门外进行滋扰,并擅自闯入中环军营的行为,中央政府严重
表示,对香港个别人到驻港部队营区门外进行滋扰,并擅自闯入中环军营的行为,中央政府严重 关注。
表示, 从
衡阳市 人大常委会主任
衡阳市 人大
衡阳市人大 选举湖南省人大代表
行 贿
行 、
血液 中
蛋白质 的
落实 到
落 脚
落 后
菲 斯科
菜篮 子”
菜 场
菜 价
莎 车
药品生产质量管理 规范(
苹果 下一代
苹果下一代 iPhone
英 格兰
花 厅
芜湖长江 公
芜湖长江公 铁大桥
节约 反对
节 礼
节 日,
色 情
艘 052D
艘052D 型驱逐舰
舰艇 适航性能等各项
航天 局
舍 和
致以诚挚的 问候,祝他们平安顺利!</w>
至今 已
至 8月
至 2011年
至 12月
自信 、
自 驾
自 付
自 2012年6月
膨 胀
腹 产
腐败 ,
脱 光
能 看到
胡 润
胡 志强
肃政 厅
聪 明的
联邦调查 局
联系 。</w>
联合 会
耳 显
耳显 微
老 先生
翔安 校区
群体 的
美 誉
美 英
美 联储
美 化
罗 杰
罗 布
网友 评出年度最伤人聊天词汇
网上 流传
网 上,
缺铁性 贫血
缺 席
编 号
编 剧
缓 过
绿城广场 站
绿 园
综合 体
维生素 A
继续 坚持
继承 了
统 治
绝 孙
绝 大部分
绕 行
结婚 时
经济 技术
经济 学家
经济 和
细 腻
细 数
细 微
组合 少女时代成员允儿
组 长、
组 图:
线 上
纲 领
纯 粹
级 法院
级 以上
约翰 内
约翰内 斯
约翰内斯 堡
约翰 ·
约 占
约 1亿
红 豆
紧张 ,
索 尼
素 、
精神 的
精 细
精 简
精 准
粮 油
类 、
篇 报道
管理 和
管理 员
管理 办法》
管 好
筹 资
等 老
等 情况,
等 形式
等 其他
等 。“
等 ,这些
第三方 抢票插件
第三方抢票插件 进行屏蔽后,
第三 季度
第一大 村
第 37
笔记 本
端 倪
竣工 验收
站 长
立法 机构
立 马
突破 口
穿 的
空军 基地
空 腹
空 前
程 的
程 凡
积 雪
秦 汉
秘密 交往
秘密交往 了
秘密交往了 四个月
科 教
科 医生
私 自
离 异
福清 市
福建省 福清市
票 。</w>
祖国和人民 ,向
祖国和人民,向 他们
祖国和人民,向他们 致以诚挚的问候,祝他们平安顺利!</w>
祈 祷
社会管理 综合治理
示范 区
眼 神
眉 山
省委 书记
省 内
盾构 机
相当 一部分
相关 人士
相 连
盯 着
皮 革
的部分 地区
的心血和汗水 。我
的心血和汗水。我 向大家
的心血和汗水。我向大家 表示衷心的感谢!</w>
的大 气
的地方 ,
的人 生
的人 工
的主 角
的不 满
的一 间
的一 天,
的一 大
的一 半
的“ 三
的10 大
的 预期
的 音乐
的 韩
的 限制
的 身份
的 计划
的 视频
的 行动
的 节奏
的 脸
的 气氛
的 收入
的 报告
的 成功
的 市
的 土地
的 动作
的 制度
的 信号
的 使用
的 五
的 乘客
的 iPhone
的 ;</w>
的 ;
百 岁
白 宫
痘 痘
病 。
疙 瘩
男女 生
电视 节目
申请 指标
申报 材料
申 领
甲午 年,
甲 地区
甲 亢
由 衷
生 姜
生 一世
瓦 尔
瓜 果
瑞 典
班 车
珍 贵
珍 宝
现 阶段
现 有的
环节 ,
环保 部
玩 忽
王秀 青
猴 岛
牛 肉
牌 子
版 )</w>
片 段
片 中
爸爸去哪儿 》的
爱 奇
爱奇 艺
爆料 ,
燕 )</w>
照射 下
照 相
焦 点。
热 身
点 :
灾 难
火 把
激情 戏
澄 迈
潜 入
漱 口
漯 河
演 出,
滑雪 者
湛 江
游 人
港独 ”
渡 船
涉嫌挪用公款 1000
涉嫌 严重违纪
涉 事
消费者 的
消费者 协会
涂 装
海 泉
海 拔
浅田 真央
活动 中,
洗 车
洗 脚
洋 )</w>
法院审理 认为,
法律 规定,
法律 、法规
法国 、
法 则
泌 尿
治疗费 愁
治疗费愁 坏
沉 船
江 北
江 ·
求 是
永 兴
水下 考古
水 扁
氨 基
氨基 酸
气象 部门
气 味
民 航
毛里求 斯
毛群安 说,
毛 病
毕业 后,
毕业 于
比 你
每个月 要
每 吨
每 位
每 一位
每 一
残 障
残 忍
死 角,
死 死
武平 县
正确 履行职责
正确履行职责 ,对
正确履行职责,对 衡阳市人大选举湖南省人大代表
正式 发布
正常 购票
欺 骗
欧 阳
欢乐 节
橡 胶
榜首 。
楼 道
棋牌 室
梦想 星
梅 赛德斯
梅 妈
桌 ,
案件 的
案 情
格局 。</w>
格 林
株 洲
标 本
柿 子
柳 岩
柜 台
某 在
某 个
某 、
架 ,
杨 钰莹
来自星星的 你》
来源 于
来 讲,
来 “
条件 。</w>
李崇禧 涉嫌严重违纪
李 银桥
李 准基
李 光芬
机制 的
机 身
本 色
未来 一年
期间, 作为
期间,作为 市
期间,作为市 换届
期间,作为市换届 工作领导小组
期 为
朝鲜 中央电视台
服装 店
服务 管理
服 贸协议
朋友 圈
朋友 ,
有的 远离祖国、远离亲人,有的不能同家人团聚
有害 物质
有 影响
月 饼
月 份
月 亮
最高 温
最 重要
最 讨厌
最 小
曾 黄麟
更 重要
更 像
曲 线
暴恐 犯罪
暖 暖
智能 手表
智 利
晓 旭
晒 太阳
显著 位置
是需要我们共同为之奋斗的伟大事业,需要付出艰辛的努力 。一
是需要我们共同为之奋斗的伟大事业,需要付出艰辛的努力。一 分耕耘,一分收获。在改革开放的伟大实践中,我们已经创造了无数辉煌。我坚信,中国人民必将创造出新的辉煌。</w>
是什么 ?</w>
是“ 小
是 真
是 日本
是 ‘
星 爸
明显 ,
明 一张
明一张 他踢足球的照片
明 ,
昌 、
时 也
早晨 ,
早 点
旧 照
无 形
旅游 业
方 ,
新藤 义
新生 代
新政 将全面启动
新年前夕,国家主席习近平通过中国国际广播电台、中央人民广播电台、中央电视台,发表了 二〇一四年新年贺词。
新年前夕,国家主席习近平通过中国国际广播电台、中央人民广播电台、中央电视台,发表了二〇一四年新年贺词。 全文如下:</w>
新年 茶话
新 风
新 秀
新 田
新 农村
斯 曼
斯 基
斯 ·
断 子
断子 绝孙
文 广
数名 香港市民未经解放军驻港部队批准,并不顾军营营门哨兵的警告,强行闯入中环军营进行滋扰。</w>
散装 油
敞篷 版
教 友
教 你
救 人
故事 。</w>
政 要
放 大
改革 措施
改变 了
改 观
收 网
收 官
收 到了
支撑 。</w>
摄氏 度的
搞笑 的
揭 穿
提高 ,
提到 “
提出 ,要
提 拔
推 举
接 听
据了解 ,目前
据 韩联社
换 新
指标 得到进一步
指标得到进一步 验证
拿着 手机
拨 付
拉 ·
报 酬
报 社
报 、
技术 指标得到进一步验证
批 量
扰 乱
扫 毒
扩 展
打破 了
打来 电话
打 响
手续 。</w>
手 上
所 幸
房间 里
战斗才 刚开始
或者 服务
或 生产
我会 一辈子小心
我会一辈子小心 地
我会一辈子小心地 小心
我会一辈子小心地小心 待
我们推进改革的根本目的,是要让国家变得更加富强、让社会变得更加公平正义、让人民生活得更加美好 。改革
我们推进改革的根本目的,是要让国家变得更加富强、让社会变得更加公平正义、让人民生活得更加美好。改革 是需要我们共同为之奋斗的伟大事业,需要付出艰辛的努力。一分耕耘,一分收获。在改革开放的伟大实践中,我们已经创造了无数辉煌。我坚信,中国人民必将创造出新的辉煌。</w>
我们 一起
成绩来之不易 ,凝聚
成绩来之不易,凝聚 了
成绩来之不易,凝聚了 大家
成绩来之不易,凝聚了大家 的心血和汗水。我向大家表示衷心的感谢!</w>
成员 国
成交 量
戏 剧
慈善 基金会
感 动,
愉 快
愈 合
情 歌
悲 痛
您 的
恰 逢
恩 爱
总数 的
怪 病
性 价
急救 人员
思 议
态势 。</w>
态 度,
怀 抱
快 艇
忙 ,
必须 要
心 中
彻 夜
影视 剧
影星 吴京
当地 医院
强烈 反对
强化 对
强 力
弱 势
张艺谋 本人
张 咪
引发 的
开门 红
建设和 反腐败
廓 填
座 驾
应 通过
年均 浓度
年 12月
平均 水平
平台 。
常德 市
帮助 。</w>
帮 主
带 队
帝国 旧
师范 大学
布鲁 克
布拉 格
市民 政局
市场在资源配置 中起
巴 啦啦
已经 基本
已 难以
左右 。
工作人员 说,
工作, 确保
工作 、
工 笔
巡航 的中国海警
崭 新
岁 女子
山 药
屡 次
居民 生活
局部 地区
就是 一个
就 近
就 超过
就 给他们
就 此事
就 去
就 任
尤 权
尚 无
小客车 合乘
小 钱
小 男孩
小 玲
小 沈阳
小 时候
小 峰
小 将
小 产权房
小 S
将于 2014年1月
将 超过
将 推进
对方 ,
对全面深化改革作出总体部署,共同描绘了未来发展的宏伟蓝图 。2014年
对全面深化改革作出总体部署,共同描绘了未来发展的宏伟蓝图。2014年 ,我们将在改革的道路上迈出新的步伐。</w>
对《 环球时报》记者
对 第三方抢票插件进行屏蔽后,
容 量
家人 也
家 。
宫 廷
客 串
审批手续 吓
实际 行动
实施 稳健的
实 话
实 弹
宜居环境建设 行动
官 僚
完全 可以
安排 的
安 静
守 岁
宇宙浩瀚,星汉灿烂 。
宇宙浩瀚,星汉灿烂。 70多亿人共同生活在我们这个星球上,应该守望相助、同舟共济、共同发展
宇宙浩瀚,星汉灿烂。70多亿人共同生活在我们这个星球上,应该守望相助、同舟共济、共同发展 。中国人民
宇宙浩瀚,星汉灿烂。70多亿人共同生活在我们这个星球上,应该守望相助、同舟共济、共同发展。中国人民 追寻实现中华民族伟大复兴的中国梦,也祝愿各国人民能够实现自己的梦想。我真诚希望,世界各国人民在实现各自梦想的过程中相互理解、相互帮助,努力把我们赖以生存的地球建设成为共同的美好
学位 论文
学 员
存在 于
存 准
字 母
媒体 上
婚 车
娶 到了
娶到了 你;
娶到了你; 我会一辈子小心地小心待
如何 看待
女性 的
女 的
奥特 曼
奥巴马 政府
奇 迹
夺 目。</w>
太阳 系
天气 晴
大气 物理
大多 是
大 部地区
大 象
大 电影
大 满贯
大 戏
大 屏幕
大 局
大 块
大 叔
大 关
夜 饭
多 款
多 年,
外 籍
外 人
复 活
复 习
备受 关注
墨 西哥
增长 的
增 产
墙 体
墓 地
境 界
堪 比
堂 哥
城市 化
型号的飞机、水面舰艇和潜艇,有效配合了试验,同时带动了部队实战化 训练。</w>
型 经济
块 钱,
坊 间
均价 为
均 匀
在这 辞旧迎新之际,无数工人、农民、知识分子、干部仍然坚守在工作岗位,不少同胞依然奔波在世界各地为祖国辛勤工作,许多人民解放军和武警官兵、公安干警正在履行光荣使命
在新的一年 里
在地 上,
在互联网 公布
在 过去
在 最后
在 国外
在 哪里
在 去年
在 亚洲
在 世界
在 上
在 4
在 2012年
圣诞 老爸
图 ,
国际 马拉松赛
国 旗
固 然
围 的
园 长
回到 家
回 击
喜 讯
善 良
啊 。”
啊 !”
商品 房
商品 住宅
售价 为
售 出
哗 然
哈尔 滨
和社会 影响
和 解决
和 政府
周 年</w>
告诉记者 ,他们
吸烟 行为
吸取 教训
含 金量
吞吐 量
向 市
后, 就
后 期
后 “
同比 增加
同 情
合同诈骗 罪
合 金
合 资
各级 各部门
吃 ,
叹 息
司法 部门
台 当局
台 山
只有 在
受贿 罪
受伤 。</w>
受 众
取 保
取保 候
发生 严重的
发生严重的 以
发生严重的以 贿赂手段破坏选举的违纪违法案件
发现 ,在
发 出的
反 目
反 弹
反 之
双休 日
友 人
及 舰艇适航性能等各项
又 出新
又出新 动作
又出新动作 ,将
又 会
参 试
去年12月 26日
原 谅
历 届
即可 。</w>
印度 尼西亚
卫生局医政 科
占 年度
博 基尼
南 面
南 掸邦军
南 下
单独二孩” 新政将全面启动
单独两孩 政策
半壁 江
半 山
半 个月
升级 版
升 空
十大 新闻
十二 届全国人大常委会
医 学院
医 务
区 党委
北京市 司法行政系统
北京市 公安局
北 风
北 南
化 身
化 武
化 和
勒 克
勉 强
势 必
劳教 制度
劳动 力
劳 务
努尔·白 克力
动脉 硬
动力系统 及舰艇适航性能等各项
动 荡
功夫 影星吴京
功 率
办公厅 、国务院
办公厅、国务院 办公厅
劝 他
剩 余
剖 腹产
剖 析
前进的道路上 ,还会
前进的道路上,还会 遇到各种风险和挑战。让老百姓过上更加幸福的生活,还有大量工作要做
前 置
前 段时间,
前 将
前 。</w>
券 商
制度 改革的
到 期
判 明一张他踢足球的照片
初 级
初 次
刘 嘉玲
刑拘 。</w>
刑 侦
击 败
出现 。</w>
出一 大步
出 自
出 水
出 卖
出 入
凡 是
几 率
减少 了
决定 的
冰 车”
农业 大学
农 作物
军 官
内容 的
内 陆
内 贸
内 生
兼 并
其 次,
兴 叹
关系的 环境
关系 到
关 在
共 赢
兰 州
兰 博基尼
公共场所禁止吸烟 立法
公共场所 禁烟
公共 财政
公 章
全面建成小康 社会
全民 健身
全会 决定
全 裸
党风廉政 建设和反腐败
党组 成员
党外 人士
元旦 当天,
元 旦</w>
傲 人
偶遇 市委书记
偶像 组合少女时代成员允儿
停止 互相诽谤和
停 留在
做 出的
做 准备
做 事
偏 轻
偏 低
保障 旅客
保持 在
保 值
侧 面
侦 查,
供 货
使用 权
使 馆
你 这
作战系统 、
作战系统、 动力系统及舰艇适航性能等各项
佛 山、
住房 、
低 迷
低 端
伤 。
伤 、
传 感
传 单
伟 )</w>
伙 子
优 越
伊 核
伊 兰特
企 划
任务 ,
价值 的
仪式 。</w>
以 涉嫌
代表 祖国和人民,向他们致以诚挚的问候,祝他们平安顺利!</w>
代 驾
代 售
他 就
从 根本上
从 2013年
仍然 处于
仍 以
亿元 和
人民网海南视窗 海口
人工 昏迷
人工 刷卡
人员 和
人力资源 社会保障
人体 的
人 选
亲 爱的
亩 产
产业 的
交通 工具
亟 待
五保 供养
五 次
于 今年
于 2014年
于 2012年
事故 发生
事件 。
事 态
事 。</w>
了一 番
了一 批
了一 张
了 出来
了 ?”
了 12
乳 头
习近平总书记 系列
习近平同志 在
也就是 说,
也 只有
之一 的
之 美
之 情
之 便
之 于
之 中。
主题 曲
主持人 谢楠的
为了 让
丹 、
临 潼
中签 率
中心 专家
中年 男子
中小 型
中央 党校
中国 居民
中国 人的
中国 。</w>
中华 民国
中共中央 办公厅、国务院办公厅
中共 四川省委
中, 待
中 非
中 超
中 消协
中 ,“
东北 亚
东 森
业 态
专业 的
专 卖
与韩国 偶像组合少女时代成员允儿
与女 主持人谢楠的
与 稳定
与 男友
不错 。
不动 产统一登记
不会 再
不 露
不 通
不 注意
不 希望
不 完善
不 受
不 减
不 一致
上海 的
上头条 ”事件
上 行
三 省
三 名
万 绿园
万 张
万 ,
七 大
一年 多
一些 ,
一 面
一 类
一 流
一 女
一 到
一 则
《明镜 》周刊
《 新
。记者 了解到,
。据 说
。我们 在
。他 在
。为 此,
。《 条例》
。2013年 ,
。200 9年
。(海峡 都市报记者
。 鱼
。 过去
。 苹果
。 第三
。 研究
。 正是
。 很快
。 大家
、 食品
、 领土
、 阿
、 铁
、 重
、 腰
、 深圳
、 消防
、 惠
、 妻子
、 北
、 以
、 为
、 18
”的 说法
”, 然后
” 系列
” 政策
” 却
“黑 寡妇
“呵呵” 这个词,作为网络和短信聊天中使用相当频繁的一个词,你一定没少用过
“ 超生
“ 犯事
“ 爱
“ 一个
― ―
www .
ur ac
urac an
om e
og er
o h
k imi
iW atch
i er
es s
ec t
e B
[京华时报 讯(记者
[ 秀英炮台
[ 广东省公安厅
[ 国家主席习近平
X 7
X 5
W TA
T h
T L
S ammi
S BS
PO S
P ro
O K
N o
Lumia 6
K I
I n
H uracan
C 级
C B
B 6
AT M
A ir
: 如果
: 《
9 点,
8 25
7 时
500元以上2000元 以下的罚款。</w>
5 年的
5 17
5 .2
4 岁
4 .0
3天 小长假
3 分钟
26 岁的
25 年
2020 年,
2013年的 最后一天,
2013年 6月
201 8年
200 元
20 条
20 %的
2. 7
2. 4
2 号
2 万元
1980 年
19 日,
19 个月
17 名
16 名
16 个
15 %
13 日,
12306 升级
12 个月
10 枚
10 7
1 人
0 9
0 1月0
0 .9
- 4
,这 是一个
,这 时
,积极 营造有利于
,现 年
,然后 将
,有 力
,最 低
,我们 要
,我 和
,很多 网友
,并 非
,并 希望
,并 不是
,并 不
,将 其
,将 会
,导致 发生严重的以贿赂手段破坏选举的违纪违法案件
,在 这个
,在 2014年
,在 2013年
,分别 是
,全 区
,但 目前
,但 就是
,但 她
,以 前
,以 下
,他们 在
,他 也
,中国 军队
,两 位
,不 论
,不 正确履行职责,对衡阳市人大选举湖南省人大代表
,不 想
,一直 在
,一 手
,“ 虽然
, 近
, 距
, 至少
, 消防
, 气温
, 引发
, 如此
, 大学
, 告诉你
, 各地
, 出现
, 几
, 保障
, 依法
, 作战系统、动力系统及舰艇适航性能等各项
, 亦
) “
( 右
( 农历
( J
( F
( D
! !
龙 湾
黯然 神
黑 猩猩
黏 膜
黄金 周
黄 胜
黄胜 威
黄 牛
鲜 艳
高 跟鞋
高 企
骑 车
马 鞍
马 建
马建 堂
马 尔
马 塔
马 占
马占 武
首 期
首 场
首 例
馆 舍和
馆舍和 人员安全
餐饮 企业
食用 。</w>
飞机 。</w>
飞 到
颇 多
领导干部带头 禁烟
顽 固
顺利推进 ,先后
顺 便
韩国艺人 李胜基
韩国艺人李胜基 与韩国偶像组合少女时代成员允儿
韩国 的
面前 吸烟,
面 孔
面 子
面 前,
面 。</w>
非常 夺目。</w>
静态 的验证码
静态的验证码 变成了不断摇动的
静态的验证码变成了不断摇动的 彩色动态验证码
静 静
青年 报记者
青年 人
青岛某军港 起航首次赴南海海域试验训练以来,
震 荡
雨 欣
集中 度
集 合
雅 虎
隔 空
隐 藏
隐 匿
院 长、
限 额
限 定
降 水量
降 水
降 临
陈柏和 的
陈 水扁
陈 佩斯
阿尔 巴
阿尔巴 尼亚
阿 塔
阿塔 坎
阻 拦
阴 谋
问题 、
闪光 灯
门 ,在
长安 区
长 长的
长 相
长 命
长 。
镜头 可以
镜头可以 看到,习近平办公室
镜头可以看到,习近平办公室 背景
镜头可以看到,习近平办公室背景 是一幅长城画作,办公桌上有三部电话(二红一白),身后书架上摆放
镜头可以看到,习近平办公室背景是一幅长城画作,办公桌上有三部电话(二红一白),身后书架上摆放 了四
镜头可以看到,习近平办公室背景是一幅长城画作,办公桌上有三部电话(二红一白),身后书架上摆放了四 幅照片,分别是:他与家人推着轮椅上的父亲、他牵母亲的手散步、他与夫人合影、他骑着自行车载着女儿
镇 上
锴 冰
锦 标
锐 意
销售 和
银行 和
钟 生
金 秀
金秀 贤
金 片
金片 缝
重要 赛事
重要赛事 :</w>
重庆 市
重庆 人
重大 损失
重 磅
里兰 卡
里 。
都是 用
都是 在
都 认为
都 应该
都 已经
都 可
郫 县
郑州电视台 记者
郑州市委书记吴天君 在
郑利 、
郑利、 罗伯特
郁 闷
邻 国的
那 一刻
邓 紫
邓紫 棋
道路 交通安全
道路 交通
道 是
遇见 了
遇见了 你;一不小心,
遇见了你;一不小心, 爱上了
造 像
通过 了
通知 ,
通 气
途 经
逐渐 演
逐渐演 化
逐渐演化 得“
逐渐演化得“ 意味深长
逐渐演化得“意味深长 ”。
选 购
选 定
逃 避
逃 犯
追 溯
迫 切
迪 纳
违 背
远离 他
进行 调查
进行 拍摄
进行 全面
进 攻
这种 说法
这种 现象
这种 情况
这样 ,
这名 中国男子
这些 年
这个 问题
还 存在
近 60
运输 机
运-8 CB
运 9
迎新 年</w>
迈 出一大步
过程 中的
过 快
迄 今
辽宁舰自2013年11月26日从 青岛某军港起航首次赴南海海域试验训练以来,
较 好的
载 体
轮 廓
转 回
车 流
车 开
车 库
车 市
车 中
身 家
身 作
身作 则
跳 下
跳 ,
路 (
跨越式 发展和
跨越式发展和 长治久安
跨 年的
足 金
足 了
起 跑
赶 到了
赴 台
赚 钱
资金 面
资料 )</w>
资 质
贺国强 党建工作
货币 政策,
货 运
责任 单位
财经 男
财经男 记者
财经男记者 圈”
财政 收入
谷 物
谢谢大家 。</w>
谢楠 与
谢 绝
调查 后,
调 价
读 大
说 声
语 气
语 ,
详细 了解
该 负责人
诚 意
试验训练 内容
试验训练内容 均
试验训练内容均 按计划
试验训练内容均按计划 顺利推进,先后
试验 队
词 逐渐演化得“意味深长”。
诋 毁
诋毁 ,积极营造有利于
证据 及
证 照
访 谈
许 志
记者 发现,
讨 个
认真 学习
计划 。</w>
计 重
警惕 。</w>
言 之
解 说
解 密
角 的
视 角
视 神经
视神经 受损
规范 化、
规模 和
规定 。</w>
见 ,
要 到
西 花厅
装 扮
被问 及
被问 到
被指 像
被 认为
被 誉为
被 称为
被 扣
被 判处有期徒刑
衰老 。</w>
表示, 今年
补 铁
衡 量
行动 的
行为 。
血 迹
蠕 动,
蛋白 的
虹 膜
藩 篱
藏 ”的
薄 弱
蕴 含
蔡 康
蓄 意
董事 长、
董 泗
董泗 臣
落 网
落 入
营养 物质
营养 成分
营业 税
菠菜 等
莫 过于
范 宝
英镑 (约合人民币
英 拉
苦 难
芝 武
芒 果
节约反对 浪费
节目 单
色 ,
航 道
舞 会
至今 ,
至 2月
自贸 试验区
自2012年6月 以来
自2012年6月以来 连续
膝 跪
能 让你
能 把
能 尽快
能 实现
胡 锴冰
肛 门
聚 在一起
联 通
联 欢
职业 年金
职业 :
耳 其
耗费 7
耗费7 .8万
耗费7.8万 块
耗费7.8万块 金片缝
耕地 保护
而 来的
老字 号
老 龄化
老 化
翼 翼
翻 过
翻 身
罪名 成立
罗 田
罗 志
网球 公开赛
网友评出年度最伤人聊天词汇 ,没有
网友评出年度最伤人聊天词汇,没有 之一,就是
网友评出年度最伤人聊天词汇,没有之一,就是 “呵呵
网友评出年度最伤人聊天词汇,没有之一,就是“呵呵 ”。</w>
网友 对
网友 。</w>
网 址
维族 恐怖嫌犯
维族 人
绳之以法 。</w>
绮 珊
统计 :
给予 了
给 记者
给 爸妈
给 其
绘 就
结束 后
结婚 证件照
结 肠
绑 定
经纪人 晓棠
经济技术 开发区
经济 ,
经常 用
组织机构 代码
纵火 焚烧
纲 要
纪委、监察局给予其开除党籍、行政 开除
纪委、监察局给予其开除党籍、行政开除 处分。</w>
纪委 原
纪委 书记
级,[ 22
级,[22 -25度</w>
级 、
约 2
红烧 狮子
红 蛋白
红 灯
红 了
累计 摇号
累 积
紧密 团结在
紧 迫
素 材
系统 。</w>
糊 涂
类型 的
米 和
米 克
管理 条例》
管理 制度
答案 是
答 记者问
等 等。
等 人的
第四 季度
第三方 抢票软件
第一次 会议
第一件事 就是
第一 位
第 3
笞 刑
笑 话
竭 力
立 波
空 缺
空 港
税 款
移 交给
称 ,其
积极 的
科考 船
科主任 刘松怀
科 大学
社会主义 市场
社会 福利
社会 监督
社 科院
磨 合
碳 酸盐
碎 了
确立 了
确权 登记
硬 汉
破案 ,将
破案,将 凶
破案,将凶 犯
破 发
研究所 研究员
研究中心 北京博爱医院
研究中心北京博爱医院 心理
研究中心北京博爱医院心理 康复
研究中心北京博爱医院心理康复 科主任刘松怀
石景 山区
短裙 耗费7.8万块金片缝
睡 着
眼 看
看到 一个
看 清
看 完
省级 政府
省(区、 市)
省 物价局
相克 ”
相 较
直呼“ 看不清”。
直 系
直 白
盘 活
监 法
益 于
的热 议
的影响 ,
的城市 个
的城市个 数
的地方 。
的同时, 也
的作用 ,
的事 。</w>
的主要 原因
的一个 重要
的 阶段
的 长
的 道德
的 速度
的 这个
的 象征
的 言论
的 要
的 航班
的 结合
的 经纪公司
的 经历
的 用户
的 活
的 比赛
的 核心
的 来源
的 最后
的 方向
的 数
的 必要
的 必然
的 形状
的 局面
的 危险
的 6
的 23
的 18
的 ,我
百城 房价
百分 点
白 米饭
白 山
白 天,
痛 风
症状 。</w>
病 痛
病 因
疫 畜禽
番 外
略 显
畜牧 业
留 了
画 、
男 童
电视剧 中
电视剧 《
电视 电话
电子 标签
电子 收费
电 磁
甲 醛
甲 子
甲 型
甲型 H
由 原来的
用 工
用 。</w>
生产 建设
生产建设 兵团
生产 企业
生 来
生 。</w>
生 。
甜 甜
瓜 多尔
班上 最应该
班 的
珀 金斯
玲 玲
现 正
玩忽 职守
玩 游戏
玛 丽
王志 明
王 普生
王 心
王心 凌
王 国
玉 雕
玉 山
特 劳斯
牛奶 、
牛 车水
版 车型
爸爸 妈妈
爬 到
燃 料
熏 陶
照射下 非常夺目。</w>
热点 二线城市
热 捧
热 合
热合 曼
热 刺
烟 灰
烟 民
点火 焚烧
炸弹 攻击
灯光 照射下非常夺目。</w>
火 的
演员 。</w>
滨 海
滋 润
源 性
温 和
渡 江
渡 口
清远 市
清城区 政府
清城区 区委
清城区区委 委员、
清城区区委委员、 区环保局
清城区区委委员、区环保局 党组书记、局长
清 一
混合所有 制
深化 改革的
深化 改革
深化 收入分配
深 切
淮 南
涨 价
润 肺
涉毒 严重
涉案 金额
涉嫌犯罪 问题
海 韵
海 面
海 运
海 ,
浮 冰
浓 厚
流 水
活动 提供
洛 里斯
洛 桑
洗手 间
洒 水
泼向 总领馆正门
泼向总领馆正门 并
泼向总领馆正门并 点火焚烧
泰 斗
注射 剂
注册 登记
波 利
泡 菜
法国 《
法 》,
沿 途
沿 江
治 贪
油 价
沸 沸
沸沸 扬
沸沸扬 扬
沪 语
没有 ?”</w>
没 想到,
没 事
沙特 阿拉伯
沙发 里
沈阳 、大连
沈 义
沃尔 玛
沃 克
汪峰 新专辑
江西 人
江 湖
江 、
汉中市红十字会办公室 副主任
汇 金
永兴 岛
水 稻
水 桥
水 位
水 产
气候 变化
气 愤
民调 显示,
民警 的
毫无疑 问
毛 岸
比 分
母舰在高海况条件下的舰艇运动参数、舰体结构应力、舰载机系留载荷测量等总体适航性试验,深水条件下航速测量,以及近似实战条件下航母作战系统感知能力,指挥能力,目标指示能力,综合通信、导航、气象保障能力,空域管理能力等100余项试验和训练课目 ,作战系统、动力系统及舰艇适航性能等各项
殖 民
死 因
死 于
武器 装备
武 直
正门 严重损毁
歌 声
橱 柜
横 沥镇
楼梯 拐
楼梯拐 角
检查 时,
检查 。</w>
梅 拉
梅拉 妮
梁 朝
梁朝 伟
桂 林
格勒诺布尔 大学
根本 无法
根 治
核 大国
栋 楼
标 牌
标 杆
查明 ,
查 清
查 出
染 疫畜禽
林志颖 、
林 木
林 意
极 致
杨幂 和
来 了,
来 ,在
条件 。
条 微博
权 重
杂 物
机动车 的
机 理
本报 讯(记者
本届 政府的
本 营
末 ,
未来 发展
朝鲜最高领导人金正恩 1日
朝 韩
服务 平台
服刑 人员
服 、
有限公司 董事长
有没有 男朋友
有效 身份证件
有些 人
有一 天
有4 .3
有 病
有 外
有 两
月球 车
曾 红
更多 地
曝光 。</w>
晶 晶
普通 指标
晚上 10点
晚 饭
晓 兰
晋 级
显 山
是 非常
是 来
是 他们
春 莹
明星 们
明 清
明 了
昌 江
昌 平
时间 的
时间 、
时期 ,
时, 会
时 左右,
时 分,
时 下
早 些
旧 房
日 夜
无人 机
旅游 、
施 特劳斯
方 方面
新藤义 孝
新疆维吾尔 自治区
新疆 生产建设兵团
新版 《天龙八部》
新版 《
新年 问候
新年 礼物
新 皮鞋
新 时期
新 媒体
新 品
新 iPhone
斯 里兰卡
斯 卡
斑马 线
文物 保护
文化 、
数 月
数 度
敬 意
敬 业
敦促美方 切实
敦促美方切实 履行职责
敦促美方切实履行职责 ,保护
敦促美方切实履行职责,保护 中方
敦促美方切实履行职责,保护中方 馆舍和人员安全
教 科
政法 队伍
政法 微博
政府 与
政府 、
政协 委员
放松 调控
改革 “
改造 为
收费 车道
支付 年终奖
攒 私房钱
攀 升
擅 长
播 音
撞 倒
搭 乘
搬 到
提升 了
提 振
掩 盖
推进国家治理体系和治理能力 现代化
接收 这些人
接待 游客
接受 治疗
接 到了
排水 管
排 便
据香港 媒体报道,
据台湾 “中央社”报道,
据 韩国《
据 英国《每日邮报》
据 英国
据 国外
据 俄罗斯
换 了
按 程序
指数: ★★
指数:★★ ★★
指出 ,在
指 引
挂 着
持卡 人
拥 有一
拥 护
拥 堵
拟 声
拟声 词逐渐演化得“意味深长”。
拖 延
拎着 两桶汽油
拍摄 的
报道 】
报》 记者
报 料
报 到
抢 占
折 腾
折 合
抗 生素
技术 ,
扭 转
打 消
打 我
扎实 推进
手 握
手 提
所有 权
所得 税
所 门
所 占
房价 上涨
户籍 证明
战 技术指标得到进一步验证
战 俘
我们即将迎来充满希望的2014年 。一
我们即将迎来充满希望的2014年。一 元复始,万象更新。在这里,我向全国各族人民,向香港特别行政区同胞和澳门特别行政区同胞,向台湾同胞和海外侨胞,向世界各国和各地区的朋友们,致以新年的祝福
我们即将迎来充满希望的2014年。一元复始,万象更新。在这里,我向全国各族人民,向香港特别行政区同胞和澳门特别行政区同胞,向台湾同胞和海外侨胞,向世界各国和各地区的朋友们,致以新年的祝福 !祝福
我们即将迎来充满希望的2014年。一元复始,万象更新。在这里,我向全国各族人民,向香港特别行政区同胞和澳门特别行政区同胞,向台湾同胞和海外侨胞,向世界各国和各地区的朋友们,致以新年的祝福!祝福 老人们健康!祝福孩子们快乐!祝福每个家庭幸福安康!</w>
我们 要
成立 专
成 绵
憋 出
憋出 内
慈 祥
感染 H7N9
意识 到,
意外 。
意义 的
意义 上的
意义 上
意 想不到
愉 悦
想 说
想 拥有
想 到了
悬 崖
患者 在
悍 然
悉 数
恶性 破坏
总书记 、
怪 癖
怪 牛
思 思
快 捷
心 目
得 满满
徐谨 :
很有 可能
很 长时间
很 费劲
很 小
往往 会
往 年的
往 回
彷 徨
彩 ,
当 面
当 他
强 身
张馨 予
张 的
张 照片
引 爆
开始 入住
开发 的
开 着
开 年
开 出的
开 会,
延安 市
延 迟
康复 研究中心北京博爱医院心理康复科主任刘松怀
庭 长
座谈 会
底 部
应该 朝着
应 有
库尔 勒
广 阔
幸福 。</w>
并不 在
年轻 干部
年的 时间
年 薪
年 年
年 夜饭
年 后
年 化
年 。</w>
平方米, 环比
平 房
平 和
平 、
常务 会议
帮 他
带给 我们
帕 劳
市委会 主委
市场 开办者
市 场</w>
市 人社局
市 一中院
市 ,
巴勒斯坦 驻捷克大使
已久 的
已 得到
差 价
工商 行政
工作会议上 表示,2014年
工作人员 介绍,
工作 中
工业 投资
工业 大学
巡逻 车
巡 回
峡 谷
岁 出
山 镇
山 水
山 地
屡 禁
屡 屡
居民 楼
居住 环境
层 层
层 ,
局 面,
尿 液
就是要 保障旅客
就是要保障旅客 正常购票
就会 出现
就 好
就 出
尚 志
尔 西
尔 特
小时 代
小心 翼翼
小区 ,
小 李
小 小
小 事,
小 事
小 、
将于 1月
将 此
将 把
封 建
封 信
导 读
对象 。</w>
对于 “
对 皮肤
对 PM2.5的
密切 联系
寄 予
宽 度
宽 容
容易 导致
宫 街办
宣传 部长
宣传 教育
实行 “
实施稳健的 货币政策,
实施 办法》
实 验证
实 用
定 位,
完 后,
安装 了
安全 。
安 心
宁 夏
孩子 ,
学习 )</w>
学 雷锋
学 的
学 期
孤 单
存准 率
字 的
子 和
嫌疑 犯
婚 恋
威 力
妨 害
如果 我
好友 赵薇
好 几个
好 些
她 还
她 ,
奶 爸
女性 朋友
女 单
女 仆
女 人,
奠 定
奋斗 目标
奇石 版”
头 戴
失 效
失 所
失 主
央视 的
太阳 光
太 高
太 过
太 乙
太乙 宫街办
太 久
天弘 基金
天 池
大豆 制品
大肠 菌群
大 葱
大 腿
大 王
大 屠杀
大 地
大 丛
多 达
多 架
外 祖父
处理 工作
处 长
处 方
声 特
声 势
壮 观
墨 迹
增长 。</w>
增加 值
增 选
填写 了
基础 。
基本 持平
培训 班
城市 房价
城 中村
坠 落
坐 地铁
均 在
地 进行
地 级
地 打
在这个 时候
在工作 中
在 钓鱼岛附近
在 新加坡
在 我国
在 我们
在 天津
在 台上
在 全
在 主席
在 东
在 与
土地 市场
土 耳其
圆 鼓鼓
圆 形
图 文
国防和 军队
国家和 地区
国家 统计局
园 ,
团体 “
团 圆
因素 。</w>
因 病
回忆 起
回应 :“
回应 ,
回 合
四川省 纪委
四川省 政协主席
四个 子女
四 平市
四 分之一
喷 发
善行 河北
商事 主体
唱 完
响 灵
哈夫 表示,“
哈 拉
哈 利
品 格
和 邓颖超
和 监督
和 教育
和 小
和 台湾
和 上海
和 一名
周边 居民
周 立波
呢 ,我
员工 的
员 的
员 。</w>
告诉记者 ,他
吸收 的
吸引 眼球
吸引 了不少
吸 入
启动“ 单独二孩”政策
听 闻
听 证
听 觉
含有 的
吨 、
吧 。
吧 !”</w>
否 定
吗? 从
向 上的
后, 警方
后 返
后 台
名 网友
同样 是
同时 也
同学 或
同学 们
吉林 省
合 影</w>
各级 党委
各种 小
各 样的
各 有
吃 粗粮
号 、
叶 菜
史 努
史努 比
台 阶
只有一天 假期
只 白虎
只 是一个
只 在
古井贡 酒
古 怪
口 语
口 中
变 为“
取 款
发布 会上
发展 规划
反映 了
反 响
双钩 廓填
及 早
县( 市、区)
县 域
厚 度
厉行 节约反对浪费
厉 害
厄 瓜多尔
危机 。</w>
危 及
印度 警方
印 刷
卫冕 冠军
博 特
南京 新街口
单纯的 拟声词逐渐演化得“意味深长”。
单独二孩” 政策的
单 打
华国 锋
华 春莹
华 丽
升级 改造
千 足金
千 语
千 公顷
千 元
十八大 后
十一 届
医疗 中心
医 科大学
匹 马
北京市 监狱
北京 PM2.5
北 陆
化 。
化 ”
包 烟
勤 俭
勇 气
劳教局 ”的
劲儿, 拿出
动车组列车上吸烟或者在其他列车的禁烟区域 吸烟
动态验证码 就是要保障旅客正常购票
动 辄
动 机
动 。</w>
加 深
力量 。</w>
力 挺
力 声特
副 总理
副 县长
副 产品
剩 下的
剧中 饰演
前列 腺
前三 季度
前 去
制度 安排
制 衡
别 人的
创始 人
刚 过,
划 设
分辨 率
分 成
分 割
击 毙
出了 一个
出一 份
出 租房
几 句
减 重
准 时
冲 着
冲 洗
农贸 市场
农牧 区
农村 工作会议
农 家
内容 包括
内 涝
其他 重要赛事:</w>
兴致 勃勃
兴 通讯
兴 建
关注 和
关 岛
公益 诉讼
公安部副部长 李东
公共场所 控烟
公 婆
公 元
八 九
全面 落实
全国 第一
全国 硕士研究生
党 、国家
光 明
光 ”号
先 锋
充 当
元旦 节
儋 州市
傅 某
健康 ,
健 说,
停止互相诽谤和 诋毁,积极营造有利于
停 课
做 成
假想 图
值 守
倪 某
借 用
借 此
倒 计时
信息 消费
保险 柜
保健品 的
保 费
供 述
供 不应
供不应 求
例行 发布会
作 “
体 贴
体 位
低 、
位 上升
位 一体
伸 手
伴 有
估 价
传 输
传 ,
会 商
伏 在
份 的
任务 的
件 。
件 、
以 各种
他 将
他 “
从来 不
从最初 单纯的拟声词逐渐演化得“意味深长”。
从 美国
从 福建省福清市
从 停放在
从 不
仍有 待观察。</w>
介绍 ,这
介绍 ,在
介绍 ,“
今日 新闻网
今 晨
亿美元 。
亿元, 排名
人送外号 :
人物 、
人民网北京 1月2日电(
人民网 资料)</w>
人民网 深圳
人民网 成都
人民网 1月4日
人民 政协
人 流
人 最喜欢
人 ;
亲 朋
亲 情
亮相 。</w>
亮 的
交给 在钓鱼岛附近
交 互
井 下
五家 渠
五 分钟后,
于 9月
二 类
二 :
事情 发生在
了一 半
了 进来,
了 没有?”</w>
了 好几
买入 ,现
买入,现 估价
书 店
书 中
也是 一个
也 随之
也 表示
也 可
也 与
也 不断
九 年
乘坐热气球 从福建省福清市
之 急
之 忧
之 年,
