的@@ 14166
,@@ 13512
。 10890
、@@ 10726
。@@ 7769
和@@ 6812
在@@ 5721
“@@ 5564
”@@ 3644
了@@ 3463
是@@ 3414
有@@ 2835
等@@ 2789
与@@ 2681
为@@ 2588
不@@ 2539
上@@ 2322
中@@ 2317
对@@ 2284
将@@ 2278
到@@ 2156
一@@ 2054
大@@ 2053
:@@ 2048
人@@ 2040
[@@ 2009
被@@ 1879
”,@@ 1773
也@@ 1760
;@@ 1741
(@@ 1717
,在@@ 1703
地@@ 1595
就@@ 1591
)@@ 1563
从@@ 1556
,但@@ 1541
要@@ 1492
会@@ 1488
后@@ 1442
中国@@ 1438
后,@@ 1383
《@@ 1371
以@@ 1317
都@@ 1294
时@@ 1285
”的@@ 1265
来@@ 1262
新@@ 1258
多@@ 1256
还@@ 1246
着@@ 1227
进行@@ 1223
的“@@ 1223
。”@@ 1184
用@@ 1153
下@@ 1150
) 1146
向@@ 1143
小@@ 1127
出@@ 1122
及@@ 1110
他@@ 1106
过@@ 1096
前@@ 1091
一个@@ 1079
,“@@ 1077
。” 1065
家@@ 1032
工作@@ 1027
性@@ 1023
高@@ 1018
没有@@ 1018
好@@ 1017
,并@@ 1015
或@@ 1007
于@@ 1005
可@@ 1005
已@@ 998
她@@ 982
说,@@ 976
时,@@ 976
我@@ 973
车@@ 973
之@@ 960
能@@ 951
已经@@ 944
”。 943
》@@ 911
里@@ 909
其@@ 905
说@@ 894
至@@ 892
把@@ 890
得@@ 881
市@@ 878
子@@ 878
去@@ 875
”。@@ 866
吃@@ 862
自己@@ 859
分@@ 858
天@@ 845
发@@ 842
而@@ 842
年@@ 832
起@@ 829
水@@ 827
内@@ 826
最@@ 826
开@@ 824
4@@ 818
,他@@ 809
打@@ 807
我们@@ 806
该@@ 802
3@@ 802
国家@@ 801
三@@ 799
中,@@ 794
,而@@ 794
公司@@ 793
区@@ 790
企业@@ 789
这@@ 788
张@@ 780
所@@ 775
心@@ 774
,对@@ 771
可以@@ 771
的,@@ 770
通过@@ 769
由@@ 769
头@@ 769
2@@ 766
点@@ 764
更@@ 764
者@@ 763
名@@ 763
两@@ 762
5@@ 760
给@@ 753
8@@ 752
。在@@ 750
10@@ 750
又@@ 748
成@@ 748
6@@ 747
2013年@@ 746
无@@ 734
发展@@ 728
市场@@ 724
你@@ 723
,这@@ 711
1@@ 707
了,@@ 691
。“@@ 689
海@@ 687
让@@ 686
做@@ 685
自@@ 684
7@@ 684
外@@ 681
长@@ 679
因@@ 676
路@@ 676
,一@@ 673
,是@@ 668
美国@@ 666
想@@ 665
生@@ 664
表示,@@ 658
看@@ 658
再@@ 657
个@@ 657
很@@ 656
?@@ 656
处@@ 655
记者@@ 649
建设@@ 639
比@@ 624
金@@ 624
老@@ 621
就是@@ 620
的人@@ 616
并@@ 615
马@@ 615
则@@ 612
国@@ 610
部@@ 610
当@@ 607
日@@ 605
县@@ 600
2014年@@ 599
据@@ 596
万@@ 596
应@@ 592
没@@ 590
正@@ 588
林@@ 588
政府@@ 586
,也@@ 585
开始@@ 584
王@@ 583
都是@@ 582
日本@@ 578
华@@ 576
成为@@ 576
文@@ 570
经济@@ 568
手@@ 565
这个@@ 565
全国@@ 564
重@@ 563
他们@@ 562
行@@ 561
美@@ 561
20@@ 559
要求@@ 559
时间@@ 559
需要@@ 557
服务@@ 555
却@@ 553
北京@@ 553
某@@ 553
问题@@ 550
原标题:@@ 548
人,@@ 545
项目@@ 545
,以@@ 543
9@@ 542
发生@@ 541
,有@@ 541
作为@@ 540
发现@@ 540
进@@ 539
走@@ 539
人员@@ 538
管理@@ 538
山@@ 538
-@@ 538
花@@ 535
,不@@ 534
全@@ 528
,我@@ 527
中的@@ 526
爱@@ 524
风@@ 522
15@@ 522
道@@ 520
线@@ 518
西@@ 517
城@@ 517
人的@@ 517
四@@ 517
一些@@ 517
,为@@ 516
约@@ 516
本@@ 515
社会@@ 515
称@@ 515
明@@ 514
东@@ 513
面@@ 513
力@@ 512
市民@@ 512
出现@@ 511
机@@ 510
太@@ 508
生活@@ 508
安全@@ 503
同@@ 502
李@@ 502
总@@ 502
国际@@ 501
未@@ 501
加@@ 500
活动@@ 497
城市@@ 496
达@@ 493
拉@@ 493
入@@ 492
村@@ 490
因为@@ 489
才@@ 489
近@@ 488
回@@ 486
这些@@ 486
南@@ 483
场@@ 482
中心@@ 480
口@@ 479
12@@ 478
称,@@ 478
化@@ 477
相关@@ 477
台@@ 477
学生@@ 477
:“@@ 477
建@@ 476
根据@@ 475
省@@ 474
位@@ 473
可能@@ 472
种@@ 472
,将@@ 471
改革@@ 471
曾@@ 471
使用@@ 471
上,@@ 470
的是@@ 467
次@@ 467
红@@ 466
还是@@ 466
今年@@ 465
经@@ 465
门@@ 465
以及@@ 464
提供@@ 464
钱@@ 463
,从@@ 463
站@@ 459
军@@ 458
气@@ 458
很多@@ 457
原@@ 457
女@@ 455
方@@ 455
元@@ 455
地区@@ 455
只@@ 453
目前@@ 453
——@@ 452
带@@ 452
型@@ 450
卡@@ 449
火@@ 448
实施@@ 448
,还@@ 446
各@@ 445
上的@@ 444
第一@@ 443
群众@@ 441
30@@ 441
量@@ 440
条@@ 440
制@@ 440
定@@ 439
世界@@ 439
学@@ 439
们@@ 437
。(@@ 436
少@@ 435
强@@ 434
了一@@ 434
不能@@ 434
自己的@@ 434
动@@ 434
单位@@ 433
组织@@ 432
政策@@ 431
进入@@ 431
办@@ 431
现场@@ 430
部门@@ 429
看到@@ 429
受@@ 429
孩子@@ 429
旅游@@ 427
。而@@ 427
德@@ 426
买@@ 426
的一@@ 425
正在@@ 424
50@@ 424
11@@ 424
事@@ 423
研究@@ 423
完成@@ 420
媒体@@ 419
连@@ 417
,我们@@ 417
认为@@ 416
战@@ 415
到了@@ 415
如@@ 414
情@@ 413
非常@@ 411
继续@@ 410
光@@ 410
五@@ 410
共@@ 409
信息@@ 409
法@@ 407
二@@ 406
系统@@ 405
超@@ 404
转@@ 404
网友@@ 404
局@@ 403
期@@ 402
陈@@ 402
清@@ 401
楼@@ 401
特@@ 400
。但@@ 399
,她@@ 399
投资@@ 398
方面@@ 398
,他们@@ 397
表示@@ 397
岁@@ 396
下,@@ 396
调查@@ 396
体@@ 396
平@@ 395
影响@@ 395
主要@@ 394
数@@ 393
网@@ 393
部分@@ 393
文化@@ 391
放@@ 391
资金@@ 391
,其中@@ 391
实现@@ 390
元旦@@ 389
黄@@ 389
,让@@ 388
镇@@ 388
米@@ 386
白@@ 386
医院@@ 385
那@@ 385
新年@@ 384
安@@ 383
情况@@ 383
,就@@ 382
这一@@ 382
款@@ 380
领导@@ 379
级@@ 379
关系@@ 378
相@@ 378
个人@@ 378
机构@@ 378
。这@@ 377
现在@@ 377
发布@@ 377
警方@@ 377
学校@@ 377
对于@@ 376
州@@ 375
类@@ 375
送@@ 374
声@@ 374
,但是@@ 374
参加@@ 373
14@@ 371
低@@ 371
号@@ 370
公@@ 369
‘@@ 369
健康@@ 369
龙@@ 368
周@@ 368
还有@@ 368
变@@ 368
身@@ 368
上海@@ 368
教育@@ 367
流@@ 366
病@@ 366
江@@ 366
热@@ 365
房@@ 364
开展@@ 363
技术@@ 362
16@@ 362
一直@@ 362
刘@@ 361
空@@ 361
见@@ 361
一起@@ 361
图@@ 361
克@@ 360
达到@@ 360
大家@@ 360
利@@ 359
保护@@ 359
单@@ 359
银行@@ 358
!@@ 358
网络@@ 358
中央@@ 357
不是@@ 356
说:“@@ 356
工@@ 356
先@@ 356
工程@@ 355
干@@ 355
斯@@ 354
希望@@ 354
片@@ 354
跟@@ 354
血@@ 354
了。@@ 354
接@@ 353
A@@ 353
他的@@ 353
主@@ 352
不断@@ 352
重要@@ 351
底@@ 351
难@@ 349
其他@@ 349
住@@ 349
13@@ 349
计划@@ 349
装@@ 346
严重@@ 346
管@@ 346
推进@@ 345
深@@ 344
交@@ 344
制度@@ 344
死@@ 344
增加@@ 343
报@@ 343
或者@@ 342
组@@ 342
收@@ 341
便@@ 341
加强@@ 339
接受@@ 339
比较@@ 339
超过@@ 338
传@@ 338
销售@@ 337
间@@ 337
专家@@ 337
眼@@ 337
不会@@ 336
行为@@ 336
参与@@ 336
非@@ 336
虽然@@ 335
改@@ 335
此@@ 334
权@@ 334
任@@ 333
基本@@ 333
,中国@@ 333
电@@ 333
男子@@ 333
年的@@ 332
18@@ 332
也是@@ 332
实@@ 331
费@@ 331
生产@@ 330
决定@@ 330
真@@ 330
正式@@ 330
员@@ 329
特别@@ 329
合@@ 329
商@@ 329
17@@ 329
手机@@ 329
合作@@ 328
认为,@@ 328
的大@@ 327
月@@ 327
选择@@ 326
喝@@ 326
身体@@ 326
案@@ 326
去年@@ 325
代@@ 325
店@@ 325
环境@@ 324
%,@@ 324
岁的@@ 324
像@@ 323
历史@@ 323
游客@@ 323
产业@@ 323
首@@ 323
率@@ 322
晚@@ 322
产品@@ 321
人们@@ 321
增长@@ 321
民警@@ 321
标准@@ 320
是“@@ 320
C@@ 320
? 320
边@@ 319
家庭@@ 318
半@@ 318
黑@@ 318
能够@@ 317
按照@@ 316
作@@ 316
’@@ 316
大学@@ 315
十@@ 315
北@@ 315
一次@@ 315
价格@@ 315
调@@ 314
解决@@ 314
如何@@ 314
车辆@@ 313
存在@@ 312
” 312
12月@@ 311
公开@@ 311
提出@@ 311
均@@ 311
了。 311
女性@@ 310
度@@ 309
快@@ 309
不同@@ 309
汽车@@ 309
药@@ 308
远@@ 308
是否@@ 308
我国@@ 307
什么@@ 307
结婚@@ 307
由于@@ 306
。他@@ 306
香港@@ 306
消费@@ 306
队@@ 306
乐@@ 306
代表@@ 305
第@@ 305
再次@@ 305
,其@@ 305
指@@ 304
意@@ 304
重点@@ 304
包括@@ 304
包@@ 304
尔@@ 302
支持@@ 302
为了@@ 302
有关@@ 301
这种@@ 301
每@@ 301
成功@@ 301
,而且@@ 301
关注@@ 300
: 299
S@@ 299
儿@@ 299
关@@ 298
直接@@ 298
直@@ 298
食物@@ 298
人民@@ 297
初@@ 297
事件@@ 296
设计@@ 296
提@@ 296
2012年@@ 296
获得@@ 296
拍@@ 296
进一步@@ 295
方式@@ 295
全部@@ 295
万元@@ 295
利用@@ 294
套@@ 294
经营@@ 292
民@@ 291
购买@@ 291
受到@@ 291
工作人员@@ 291
飞@@ 291
1月1日@@ 290
积极@@ 290
地方@@ 290
保@@ 290
经过@@ 290
保持@@ 289
请@@ 289
拿@@ 288
,可@@ 288
几@@ 288
使@@ 288
越@@ 288
书@@ 288
式@@ 287
节@@ 287
取@@ 287
女儿@@ 287
写@@ 287
准备@@ 286
的新@@ 286
早@@ 286
双@@ 286
必须@@ 285
,要@@ 285
百@@ 285
数据@@ 285
听@@ 285
报道@@ 284
新的@@ 284
200@@ 284
河@@ 284
价@@ 284
不少@@ 283
两人@@ 283
当时@@ 283
会议@@ 282
执行@@ 282
六@@ 282
较@@ 282
喜欢@@ 282
男@@ 282
老人@@ 282
新闻@@ 281
全面@@ 281
石@@ 281
副@@ 281
40@@ 280
满@@ 280
反@@ 279
所有@@ 279
一名@@ 279
雪@@ 279
控制@@ 279
农村@@ 279
得到@@ 278
规定@@ 278
岛@@ 278
星@@ 278
全球@@ 277
提高@@ 277
伤@@ 277
综合@@ 277
神@@ 277
%@@ 276
25@@ 276
国内@@ 276
落@@ 276
户@@ 276
检查@@ 275
一家@@ 275
选@@ 275
杨@@ 274
通@@ 274
假@@ 274
查@@ 274
M@@ 274
亚@@ 274
常@@ 274
里,@@ 273
物@@ 273
目标@@ 273
100@@ 273
造成@@ 273
它@@ 273
突然@@ 273
活@@ 272
”、“@@ 272
占@@ 272
完@@ 272
能力@@ 272
游@@ 272
器@@ 272
行业@@ 271
如果@@ 270
院@@ 270
·@@ 269
余@@ 269
应该@@ 269
导致@@ 269
色@@ 268
往@@ 268
业@@ 268
按@@ 268
是在@@ 268
排@@ 267
19@@ 267
仍@@ 267
收入@@ 267
观众@@ 267
保障@@ 266
针对@@ 266
工作,@@ 266
首次@@ 266
别@@ 266
,被@@ 266
儿子@@ 266
B@@ 265
居民@@ 265
福@@ 265
科@@ 265
台湾@@ 265
铁@@ 264
交通@@ 264
的。@@ 264
甚至@@ 264
肉@@ 264
问@@ 263
信@@ 263
,大@@ 263
两个@@ 263
当地@@ 263
进行了@@ 262
件@@ 262
叫@@ 262
重大@@ 262
仅@@ 262
油@@ 262
,更@@ 261
更加@@ 261
这样@@ 261
案件@@ 261
源@@ 261
,如果@@ 261
牌@@ 261
,这些@@ 261
无法@@ 260
出了@@ 260
党@@ 259
点,@@ 259
运@@ 259
剧@@ 259
除了@@ 258
连续@@ 258
今天@@ 258
节目@@ 258
水平@@ 257
吴@@ 257
规划@@ 257
支付@@ 257
,所以@@ 257
除@@ 256
班@@ 255
证@@ 255
减少@@ 255
先生@@ 255
电话@@ 255
笑@@ 255
平台@@ 255
网站@@ 255
形成@@ 254
e@@ 254
新疆@@ 254
来自@@ 253
建议@@ 253
食@@ 253
建立@@ 252
具有@@ 252
0@@ 252
质量@@ 252
。据@@ 252
菜@@ 252
安排@@ 251
法院@@ 251
巴@@ 251
千@@ 251
项@@ 251
跑@@ 250
乡@@ 250
落实@@ 250
责任@@ 250
离@@ 249
60@@ 249
女子@@ 249
共同@@ 248
……@@ 248
任何@@ 248
条件@@ 248
室@@ 248
份@@ 247
处理@@ 247
政@@ 247
干部@@ 247
许多@@ 246
关于@@ 246
换@@ 246
教@@ 246
介绍,@@ 245
公布@@ 245
G@@ 245
,该@@ 245
申请@@ 245
产@@ 244
资源@@ 244
港@@ 244
,与@@ 244
附近@@ 244
并不@@ 244
用户@@ 244
集团@@ 243
区域@@ 243
罪@@ 243
创新@@ 243
位于@@ 243
卖@@ 243
报告@@ 242
补@@ 242
知道@@ 242
期间@@ 241
天,@@ 241
前,@@ 241
核@@ 241
只有@@ 241
照@@ 241
乱@@ 240
推@@ 240
版@@ 240
北京市@@ 240
青@@ 240
明显@@ 239
精神@@ 239
科学@@ 239
韩国@@ 239
! 238
提升@@ 238
同时@@ 238
德国@@ 238
湖@@ 238
的《@@ 237
致@@ 237
,目前@@ 237
都有@@ 237
品@@ 237
云@@ 236
1日@@ 236
这么@@ 236
日前@@ 236
集@@ 236
.@@ 236
笔@@ 236
规模@@ 235
觉得@@ 235
专业@@ 234
格@@ 234
安倍@@ 234
感@@ 234
随着@@ 234
之后,@@ 233
拥有@@ 233
长期@@ 233
根@@ 233
脚@@ 233
也有@@ 233
的时候@@ 232
年,@@ 231
过去@@ 231
T@@ 230
,因为@@ 230
铁路@@ 230
结@@ 230
及时@@ 230
英@@ 229
有人@@ 229
治疗@@ 228
师@@ 228
留@@ 228
皮@@ 228
尽@@ 228
农@@ 228
冷@@ 228
立即@@ 227
然@@ 227
何@@ 227
第二@@ 227
监管@@ 227
帮助@@ 227
之前@@ 227
鱼@@ 227
坐@@ 226
不仅@@ 226
经常@@ 226
压@@ 226
警@@ 226
回家@@ 226
失@@ 226
段@@ 226
武汉@@ 226
人民币@@ 226
负责@@ 225
此次@@ 225
以上@@ 225
团@@ 225
世@@ 225
80@@ 225
微博@@ 225
来,@@ 225
她的@@ 225
。从@@ 225
措施@@ 224
更多@@ 224
行动@@ 224
每天@@ 224
调整@@ 224
英国@@ 224
不要@@ 224
解@@ 224
波@@ 223
有效@@ 223
座@@ 223
昨天@@ 223
。(记者@@ 223
球@@ 223
报道,@@ 222
基金@@ 222
运动@@ 222
刚@@ 222
来到@@ 222
升@@ 222
出台@@ 222
金融@@ 222
正常@@ 222
夜@@ 222
话@@ 222
统一@@ 221
有些@@ 221
后的@@ 221
女士@@ 221
园@@ 221
明星@@ 221
立@@ 220
医生@@ 220
,你@@ 220
任务@@ 220
持续@@ 220
倒@@ 220
架@@ 220
乘客@@ 220
停@@ 219
宝@@ 219
问题,@@ 219
事故@@ 219
政治@@ 219
理@@ 219
官员@@ 219
兴@@ 219
此前@@ 219
各种@@ 218
微@@ 218
联@@ 218
票@@ 218
十分@@ 218
富@@ 218
阳@@ 218
爸爸@@ 218
双方@@ 218
最高@@ 217
俄罗斯@@ 217
指出,@@ 217
,因此@@ 217
是一个@@ 217
起来@@ 217
男人@@ 217
工作的@@ 216
增@@ 216
朋友@@ 216
举行@@ 216
女人@@ 216
客@@ 216
即@@ 215
以来,@@ 215
升级@@ 215
突破@@ 215
电影@@ 215
戏@@ 215
标@@ 214
集中@@ 214
改善@@ 214
未来@@ 214
治@@ 214
抓@@ 214
防@@ 214
徐@@ 214
怎么@@ 214
坚持@@ 213
阿@@ 213
需@@ 213
主动@@ 213
学习@@ 213
当天@@ 213
!”@@ 213
破@@ 213
,这是@@ 213
罗@@ 213
功能@@ 213
烟@@ 212
明确@@ 212
木@@ 212
》,@@ 212
居@@ 212
1月@@ 212
引起@@ 212
遭@@ 212
退@@ 212
我的@@ 211
支@@ 211
也不@@ 211
。她@@ 211
酒@@ 211
社区@@ 211
),@@ 211
实行@@ 211
一般@@ 211
表@@ 211
求@@ 210
一年@@ 210
自然@@ 210
原因@@ 210
民众@@ 210
昨日@@ 210
桥@@ 210
盘@@ 210
语@@ 210
舒马赫@@ 210
压力@@ 209
汉@@ 209
曝光@@ 209
完全@@ 209
古@@ 209
块@@ 209
苹果@@ 209
这样的@@ 208
易@@ 208
22@@ 208
层@@ 208
一位@@ 208
找@@ 208
消费者@@ 207
了“@@ 207
脸@@ 207
最大@@ 206
亿@@ 206
35@@ 206
负责人@@ 206
宣传@@ 206
布@@ 206
基@@ 205
带来@@ 205
战略@@ 205
街@@ 205
取得@@ 204
做好@@ 204
获@@ 204
讲@@ 204
环@@ 204
掉@@ 204
的。 203
质@@ 203
传统@@ 203
亮@@ 203
派@@ 203
极@@ 203
言@@ 203
就会@@ 203
平均@@ 202
26@@ 202
对方@@ 202
—@@ 202
春@@ 202
官@@ 202
消息@@ 202
赛@@ 202
饮食@@ 202
味@@ 202
程@@ 201
2013年12月@@ 201
引发@@ 201
苏@@ 201
步@@ 201
西安@@ 201
委员会@@ 201
确定@@ 201
司机@@ 201
结果@@ 201
指标@@ 200
税@@ 200
上午@@ 200
1.@@ 200
采取@@ 199
完善@@ 199
列@@ 199
近日@@ 199
音@@ 199
观@@ 198
2013@@ 198
永@@ 198
旅客@@ 198
样@@ 198
孙@@ 198
形@@ 198
九@@ 197
制定@@ 197
试@@ 197
抢@@ 197
配@@ 197
谈@@ 197
唱@@ 197
村民@@ 197
来的@@ 196
系@@ 196
将在@@ 196
轮@@ 196
分别@@ 196
亿元@@ 196
,甚至@@ 196
派出所@@ 196
成立@@ 196
交易@@ 195
i@@ 195
整@@ 195
,可以@@ 195
产生@@ 195
八@@ 195
,新@@ 195
玩@@ 195
歌@@ 195
专@@ 195
为“@@ 195
。2013年@@ 195
追@@ 194
令@@ 194
胜@@ 194
注意@@ 194
峰@@ 193
公众@@ 193
人口@@ 193
推动@@ 193
食品@@ 193
科技@@ 193
宣布@@ 193
男性@@ 193
界@@ 193
公园@@ 193
2日@@ 193
衣@@ 193
%。 192
联系@@ 192
那些@@ 192
吸烟@@ 192
风险@@ 192
摄 192
关键@@ 192
.5@@ 192
板@@ 192
多,@@ 192
多次@@ 192
全市@@ 192
秀@@ 192
海南@@ 192
工业@@ 191
精@@ 191
切@@ 191
知@@ 191
届@@ 191
盛@@ 191
合肥@@ 191
算@@ 191
全省@@ 191
里的@@ 191
雨@@ 191
降@@ 191
办理@@ 191
12月31日@@ 190
密@@ 190
不到@@ 190
职@@ 190
大量@@ 190
批@@ 190
启动@@ 190
说。 189
费用@@ 189
实际@@ 189
地铁@@ 189
圈@@ 189
飞机@@ 189
不过@@ 189
,使@@ 188
,还有@@ 188
举@@ 188
田@@ 188
第三@@ 188
介绍@@ 188
辆@@ 188
有一@@ 188
2014@@ 187
养@@ 187
主席@@ 187
,把@@ 187
穿@@ 187
投@@ 187
电子@@ 187
妈妈@@ 187
土地@@ 187
船@@ 187
果@@ 187
谁@@ 186
子,@@ 186
减@@ 186
23@@ 186
运行@@ 186
办公室@@ 186
晓@@ 186
24@@ 186
,包括@@ 186
o@@ 185
冲@@ 185
,同时@@ 185
温@@ 185
变化@@ 185
%的@@ 185
考@@ 185
只能@@ 185
的小@@ 185
,小@@ 185
农民@@ 185
作用@@ 184
电视@@ 184
望@@ 184
恢复@@ 184
采用@@ 184
一种@@ 184
脑@@ 184
其实@@ 184
久@@ 184
解放军@@ 184
成了@@ 183
香@@ 183
紧@@ 183
画@@ 183
上述@@ 183
脱@@ 183
枪@@ 183
纳@@ 182
那么@@ 182
污染@@ 182
容易@@ 181
七@@ 181
雷@@ 181
景@@ 181
意见@@ 181
透露@@ 181
冰@@ 181
推出@@ 181
好的@@ 181
酸@@ 181
联合@@ 181
70@@ 180
是一@@ 180
设备@@ 180
藏@@ 180
树@@ 180
方面,@@ 180
网上@@ 180
终于@@ 180
赵@@ 180
收购@@ 180
央视@@ 180
惊@@ 180
营养@@ 180
a@@ 179
的中国@@ 179
现代@@ 179
利益@@ 179
起,@@ 179
借@@ 179
稳定@@ 179
迅速@@ 179
了解@@ 179
,以及@@ 179
南京@@ 179
天气@@ 179
让人@@ 179
靠@@ 178
才能@@ 178
,对于@@ 178
左右@@ 178
法律@@ 178
犯罪@@ 178
规范@@ 178
材料@@ 178
赶@@ 178
厅@@ 178
素@@ 178
日,@@ 178
。我@@ 178
离开@@ 178
,当@@ 178
股@@ 178
t@@ 178
朝鲜@@ 177
轻@@ 177
只是@@ 177
国务院@@ 177
道路@@ 177
依法@@ 177
有所@@ 177
外,@@ 177
额@@ 177
阶段@@ 177
短@@ 177
,还是@@ 177
以来@@ 176
夫@@ 176
朝@@ 176
具体@@ 176
分析@@ 176
错@@ 176
H@@ 176
来说,@@ 175
监督@@ 175
钟@@ 175
视@@ 175
但@@ 175
奇@@ 175
业务@@ 175
D@@ 175
史@@ 174
小区@@ 174
结构@@ 174
救@@ 174
偏@@ 174
围@@ 174
群@@ 174
36@@ 174
归@@ 174
执法@@ 174
亲@@ 173
,又@@ 173
,这个@@ 173
预计@@ 173
思@@ 173
内容@@ 173
记者从@@ 173
保险@@ 173
叶@@ 173
抽@@ 173
朱@@ 173
奖@@ 173
主持@@ 172
值@@ 172
荣@@ 172
复@@ 172
现@@ 172
年度@@ 172
属@@ 172
患者@@ 172
韩@@ 172
活动,@@ 172
登记@@ 171
宁@@ 171
冬@@ 171
避免@@ 171
招@@ 171
许@@ 171
还在@@ 171
。不过@@ 171
发现,@@ 171
大的@@ 171
武@@ 171
晚上@@ 171
27@@ 171
找到@@ 170
加大@@ 170
差@@ 170
吗?@@ 170
曲@@ 170
。该@@ 170
老师@@ 170
现象@@ 169
》的@@ 169
尼@@ 169
顶@@ 169
深入@@ 169
至少@@ 169
财政@@ 169
感觉@@ 168
。同时,@@ 168
属于@@ 168
亚洲@@ 168
显示@@ 168
年前@@ 168
困难@@ 168
品牌@@ 168
效果@@ 167
领域@@ 167
散@@ 167
丽@@ 167
制造@@ 167
培训@@ 167
土@@ 167
开放@@ 167
开发@@ 167
发挥@@ 167
通知@@ 167
高速@@ 167
都会@@ 167
容@@ 167
不可@@ 167
背@@ 167
方法@@ 166
规定,@@ 166
力,@@ 166
机场@@ 166
,不少@@ 166
几乎@@ 166
拍摄@@ 166
友@@ 166
体系@@ 166
回应@@ 166
料@@ 166
严@@ 165
之间@@ 165
相比@@ 165
父母@@ 165
投入@@ 165
人士@@ 165
疾病@@ 165
东西@@ 165
洗@@ 165
词@@ 165
环保@@ 165
商品@@ 165
力量@@ 164
如此@@ 164
痛@@ 164
部、@@ 164
创@@ 164
的高@@ 164
急@@ 164
设@@ 164
证明@@ 164
L@@ 164
夏@@ 164
协调@@ 164
翻@@ 164
茶@@ 164
异@@ 163
越来越@@ 163
办法@@ 163
断@@ 163
厦门@@ 163
据悉,@@ 163
不得@@ 163
的时间@@ 163
学院@@ 163
,不过@@ 163
死亡@@ 163
方向@@ 162
俄@@ 162
下来@@ 162
此外,@@ 162
机关@@ 162
必@@ 162
塔@@ 162
整个@@ 162
刀@@ 162
出来@@ 162
怀@@ 162
面对@@ 162
最大的@@ 162
妻子@@ 162
控@@ 162
结束@@ 161
普通@@ 161
齐@@ 161
读@@ 161
梦@@ 161
存@@ 161
的重要@@ 161
喜@@ 161
下降@@ 161
丈夫@@ 161
演@@ 161
统计@@ 161
领导干部@@ 161
建筑@@ 160
犯@@ 160
更是@@ 160
亿元,@@ 160
每年@@ 160
分,@@ 160
第一次@@ 160
努力@@ 159
状态@@ 159
发展的@@ 159
违法@@ 159
足@@ 159
近日,@@ 159
之一@@ 159
成员@@ 159
2.@@ 159
牛@@ 159
驻@@ 158
运营@@ 158
%。@@ 158
引@@ 158
影@@ 158
行政@@ 158
跨年@@ 158
下午@@ 158
广场@@ 158
有望@@ 158
字@@ 158
监测@@ 158
贵@@ 157
强调@@ 157
,用@@ 157
毛@@ 157
安徽@@ 157
,然后@@ 157
45@@ 157
年龄@@ 157
反映@@ 157
P@@ 157
春节@@ 157
若@@ 157
改变@@ 157
展@@ 156
禁止@@ 156
面积@@ 156
父亲@@ 156
旧@@ 156
2013年,@@ 156
委@@ 156
告诉@@ 156
男友@@ 156
1、@@ 156
呢?@@ 156
和平@@ 155
s@@ 155
专门@@ 155
。有@@ 155
公共@@ 155
零@@ 155
体育@@ 155
习惯@@ 155
,由@@ 155
3月@@ 155
7月@@ 155
降低@@ 155
【@@ 155
基地@@ 154
做出@@ 154
带着@@ 154
真正@@ 154
付@@ 154
驾驶@@ 154
动物@@ 154
机制@@ 154
数量@@ 154
。如果@@ 154
。当@@ 154
目@@ 154
速@@ 154
命@@ 154
思想@@ 153
备@@ 153
享受@@ 153
预@@ 153
继@@ 153
寒@@ 153
兵@@ 153
绝@@ 152
待@@ 152
库@@ 152
的情况@@ 152
季@@ 152
拒绝@@ 152
还要@@ 152
2011年@@ 152
纸@@ 152
跳@@ 152
公里@@ 152
雅@@ 152
通报@@ 152
,不仅@@ 152
曾经@@ 152
维@@ 151
说,“@@ 151
承担@@ 151
倍@@ 151
幸福@@ 151
严格@@ 151
众@@ 151
玉@@ 151
间,@@ 151
贴@@ 151
举报@@ 151
势@@ 151
价值@@ 151
了。”@@ 151
发表@@ 150
指导@@ 150
难以@@ 150
性的@@ 150
事业@@ 150
屋@@ 150
军事@@ 150
,我国@@ 150
,即@@ 150
张某@@ 150
一样@@ 149
前往@@ 149
广@@ 149
草@@ 149
领@@ 149
各地@@ 149
28@@ 149
准@@ 149
认识@@ 149
上了@@ 149
免费@@ 149
感到@@ 149
了一个@@ 149
刚刚@@ 149
弹@@ 149
展开@@ 148
并没有@@ 148
,也是@@ 148
列车@@ 148
涉及@@ 148
担任@@ 148
获悉,@@ 148
福州@@ 148
制作@@ 148
收费@@ 148
真的@@ 148
兰@@ 148
王某@@ 148
K@@ 148
11月@@ 147
成绩@@ 147
作出@@ 147
处于@@ 147
迷@@ 147
的生活@@ 147
载@@ 147
会有@@ 147
普遍@@ 147
部署@@ 147
扎@@ 147
。我们@@ 147
考虑@@ 147
用于@@ 147
货@@ 147
成都@@ 147
一下@@ 147
90@@ 147
女孩@@ 147
,今年@@ 146
顺@@ 146
这是@@ 146
志@@ 146
优@@ 146
松@@ 146
显示,@@ 146
下的@@ 146
舞@@ 146
出的@@ 146
300@@ 146
最终@@ 146
人体@@ 146
相信@@ 145
持@@ 145
,称@@ 145
。记者@@ 145
强化@@ 145
形象@@ 145
消息,@@ 145
宫@@ 145
族@@ 145
y@@ 145
患@@ 145
资料@@ 145
评@@ 145
服@@ 145
提醒@@ 145
表现@@ 144
农业@@ 144
保证@@ 144
你们@@ 144
都在@@ 144
爆@@ 144
符合@@ 144
应当@@ 144
改造@@ 144
,2014年@@ 144
之后@@ 144
比赛@@ 144
汪峰@@ 144
餐@@ 144
佳@@ 144
海口@@ 144
广东@@ 144
促进@@ 144
心理@@ 144
扩大@@ 143
2010年@@ 143
隔@@ 143
家人@@ 143
含@@ 143
三个@@ 142
角@@ 142
险@@ 142
治理@@ 142
给予@@ 142
成本@@ 142
洋@@ 142
露@@ 142
身份@@ 142
欲@@ 142
遭遇@@ 142
校@@ 142
交流@@ 142
F@@ 142
腿@@ 142
宗@@ 142
杀@@ 142
抗@@ 142
吐槽@@ 142
人民网@@ 141
社@@ 141
计@@ 141
放在@@ 141
。此外,@@ 141
四川@@ 141
车的@@ 141
宜@@ 141
内部@@ 141
家长@@ 141
,现在@@ 141
,并且@@ 141
5月@@ 141
主任@@ 141
供@@ 141
采访@@ 141
“三@@ 141
具@@ 141
h@@ 141
,而是@@ 140
“一@@ 140
增强@@ 140
,到@@ 140
汤@@ 140
门口@@ 140
普查@@ 140
,再@@ 140
都不@@ 140
警察@@ 140
摆@@ 139
设施@@ 139
不再@@ 139
优势@@ 139
书记@@ 139
元,@@ 139
评价@@ 139
过程@@ 139
随后@@ 139
生命@@ 139
缺@@ 139
艺术@@ 139
限@@ 139
纷纷@@ 139
似乎@@ 139
馆@@ 139
”“@@ 139
,能@@ 139
饭@@ 139
家里@@ 139
导@@ 139
.6@@ 138
共有@@ 138
肯定@@ 138
端@@ 138
全年@@ 138
,最@@ 138
床@@ 138
最新@@ 138
灯@@ 138
最近@@ 138
厂@@ 138
鸡@@ 138
粉@@ 137
依@@ 137
设置@@ 137
士@@ 137
基层@@ 137
大,@@ 137
蔡@@ 137
,已@@ 137
随@@ 137
的一个@@ 137
逃@@ 137
举办@@ 137
空气@@ 137
威@@ 137
,都@@ 136
民族@@ 136
部队@@ 136
修@@ 136
周边@@ 136
期待@@ 136
纳入@@ 136
21@@ 136
6月@@ 136
)、@@ 136
骨@@ 136
小时@@ 136
生物@@ 136
,中@@ 136
报警@@ 136
岁,@@ 136
年轻@@ 136
时代@@ 136
对此@@ 136
E@@ 136
独@@ 136
沙@@ 136
功@@ 136
助@@ 136
普@@ 135
29@@ 135
搞@@ 135
维护@@ 135
鲜@@ 135
的方式@@ 135
结合@@ 135
”等@@ 135
同时,@@ 135
修改@@ 135
即将@@ 135
召开@@ 135
私@@ 135
,多@@ 135
公安@@ 135
据了解,@@ 135
不足@@ 135
10月@@ 135
负@@ 135
了解到,@@ 135
资@@ 135
程序@@ 135
马上@@ 135
闹@@ 135
的好@@ 135
N@@ 135
2013年12月31日@@ 135
几个@@ 135
例@@ 135
睡@@ 135
遇到@@ 135
确实@@ 135
登@@ 135
万人@@ 134
,就是@@ 134
卫生@@ 134
稳@@ 134
、高@@ 134
总体@@ 134
打开@@ 134
子的@@ 134
善@@ 134
记录@@ 134
,却@@ 134
征@@ 134
毒@@ 134
其中@@ 134
以前@@ 134
事情@@ 134
依然@@ 133
申报@@ 133
商业@@ 133
系列@@ 133
操作@@ 133
梅@@ 133
也会@@ 133
目前,@@ 133
照片@@ 133
空气质量@@ 133
新型@@ 133
林志颖@@ 133
!” 132
训练@@ 132
范围@@ 132
良@@ 132
,只@@ 132
告诉记者,@@ 132
)的@@ 132
礼@@ 132
就在@@ 132
印@@ 132
198@@ 132
临时@@ 132
吸引@@ 132
8月@@ 132
苦@@ 132
检@@ 131
要求,@@ 131
予以@@ 131
麻@@ 131
这次@@ 131
3.@@ 131
一天@@ 131
c@@ 131
公路@@ 131
,记者@@ 131
一定@@ 131
偷@@ 131
满足@@ 131
宋@@ 131
酒店@@ 131
模式@@ 131
水果@@ 131
物质@@ 131
脂肪@@ 131
令人@@ 130
,且@@ 130
认真@@ 130
官方@@ 130
竞争@@ 130
力的@@ 130
损失@@ 130
2月@@ 130
作品@@ 130
泰@@ 130
武器@@ 130
同样@@ 130
哥@@ 130
上升@@ 129
战争@@ 129
探@@ 129
区、@@ 129
另一@@ 129
状况@@ 129
行,@@ 129
试点@@ 129
聚@@ 129
9月@@ 129
近期@@ 129
吧@@ 129
救助@@ 129
欢@@ 129
终@@ 129
更多的@@ 129
相对@@ 129
离婚@@ 129
将其@@ 129
众多@@ 129
滑@@ 129
唐@@ 129
美元@@ 129
内,@@ 129
怀孕@@ 129
500@@ 128
阴@@ 128
顺利@@ 128
免@@ 128
~@@ 128
只要@@ 128
折@@ 128
.7@@ 128
担心@@ 128
合理@@ 128
广大@@ 128
整治@@ 128
症@@ 128
需求@@ 128
来看,@@ 128
记@@ 128
监控@@ 128
冬季@@ 128
积@@ 128
因素@@ 127
。要@@ 127
R@@ 127
接到@@ 127
好,@@ 127
等地@@ 127
的是,@@ 127
张亮@@ 127
郑@@ 127
档@@ 127
胡@@ 127
你的@@ 127
音乐@@ 127
印度@@ 127
胃@@ 127
章@@ 126
的事情@@ 126
也将@@ 126
简@@ 126
场所@@ 126
恶@@ 126
一点@@ 126
既@@ 126
空间@@ 126
堂@@ 126
两岸@@ 126
会在@@ 126
昨日,@@ 126
反应@@ 126
说明@@ 126
,通过@@ 126
静@@ 126
黄金@@ 126
时候@@ 126
反腐@@ 126
化、@@ 125
潮@@ 125
儿童@@ 125
以下@@ 125
的工作@@ 125
细@@ 125
研发@@ 125
,每@@ 125
劳@@ 125
夺@@ 125
意外@@ 125
。此@@ 125
事,@@ 125
蓝@@ 125
挺@@ 125
表示:“@@ 125
手术@@ 125
万科@@ 125
先后@@ 125
购@@ 125
食用@@ 125
明年@@ 124
特殊@@ 124
、大@@ 124
出,@@ 124
。目前,@@ 124
挂@@ 124
戴@@ 124
根本@@ 124
开始,@@ 124
多个@@ 124
帮@@ 124
,2013年@@ 124
粉丝@@ 124
博@@ 124
里面@@ 124
补贴@@ 124
直升机@@ 124
队伍@@ 123
位置@@ 123
身边@@ 123
挑战@@ 123
出席@@ 123
力度@@ 123
母亲@@ 123
牙@@ 123
体验@@ 123
,向@@ 122
紧张@@ 122
营@@ 122
设立@@ 122
效@@ 122
现实@@ 122
民生@@ 122
总理@@ 122
争@@ 122
会上@@ 122
公交@@ 122
外交@@ 122
各类@@ 122
考核@@ 122
限制@@ 122
如今@@ 122
机动车@@ 122
逐渐@@ 122
丁@@ 122
歌曲@@ 122
的事@@ 122
封@@ 122
夫妻@@ 122
视频@@ 122
,希望@@ 122
℃@@ 122
b@@ 122
威胁@@ 121
以往@@ 121
起了@@ 121
改革的@@ 121
》、《@@ 121
配套@@ 121
了《@@ 121
救援@@ 121
感情@@ 121
形式@@ 121
方案@@ 121
。由于@@ 121
提前@@ 121
有“@@ 121
,成为@@ 121
巨@@ 121
规@@ 121
预防@@ 121
的问题@@ 121
。因为@@ 121
念@@ 121
电脑@@ 121
协会@@ 121
法国@@ 121
啊@@ 121
暖@@ 121
哭@@ 121
坏@@ 121
文件@@ 121
盐@@ 121
,看@@ 121
站在@@ 120
爆炸@@ 120
多名@@ 120
施工@@ 120
仍然@@ 120
危险@@ 120
击@@ 120
的发展@@ 120
.9@@ 120
家的@@ 120
分钟@@ 120
探索@@ 120
禁烟@@ 120
亦@@ 120
航@@ 120
。其中,@@ 120
您@@ 120
4月@@ 120
审@@ 120
导演@@ 120
硬@@ 120
上市@@ 120
手段@@ 120
些@@ 120
豆@@ 120
皮肤@@ 120
住房@@ 119
编@@ 119
有了@@ 119
响@@ 119
审批@@ 119
引导@@ 119
气温@@ 119
1月2日@@ 119
福建@@ 119
开通@@ 119
打造@@ 119
,有的@@ 119
合同@@ 119
导弹@@ 119
也在@@ 119
熟@@ 119
姜@@ 119
广告@@ 119
客户@@ 119
r@@ 119
,和@@ 118
自治区@@ 118
.4@@ 118
值得@@ 118
有限公司@@ 118
高速公路@@ 118
团队@@ 118
车,@@ 118
参@@ 118
,如@@ 118
亮相@@ 118
,它@@ 118
很难@@ 118
3日@@ 118
造@@ 118
》中@@ 118
癌@@ 118
化的@@ 117
扬@@ 117
。根据@@ 117
置@@ 117
害@@ 117
汇@@ 117
西藏@@ 117
突出@@ 117
非法@@ 117
37@@ 117
31@@ 117
发出@@ 117
且@@ 117
另外@@ 117
,两@@ 117
停车@@ 117
海军@@ 117
协议@@ 117
涉嫌@@ 117
承认@@ 117
银@@ 117
伟@@ 117
糖@@ 117
的话@@ 117
来说@@ 116
莫@@ 116
形势@@ 116
承诺@@ 116
卷@@ 116
烧@@ 116
加快@@ 116
青年@@ 116
迎@@ 116
可能是@@ 116
相当@@ 116
简单@@ 116
自由@@ 116
野@@ 116
含量@@ 116
康@@ 116
3年@@ 116
哈@@ 116
赔偿@@ 116
尾@@ 116
31日@@ 115
两次@@ 115
生态@@ 115
托@@ 115
作风@@ 115
199@@ 115
中共@@ 115
多年@@ 115
次,@@ 115
范@@ 115
,全@@ 115
人在@@ 115
加入@@ 115
报》@@ 115
细节@@ 115
租@@ 115
3个@@ 115
讨论@@ 115
因此@@ 115
V@@ 115
正定@@ 115
自主@@ 114
就能@@ 114
应对@@ 114
顿@@ 114
忙@@ 114
,确保@@ 114
休@@ 114
1000@@ 114
衣服@@ 114
自身@@ 114
句@@ 114
,那@@ 114
对象@@ 114
义@@ 114
公司的@@ 114
历@@ 114
首先@@ 114
萨@@ 114
认定@@ 114
尽量@@ 114
沉@@ 114
控烟@@ 114
纽约@@ 114
PM2.5@@ 114
同学@@ 114
.3@@ 113
ar@@ 113
瓦@@ 113
甲@@ 113
资产@@ 113
意义@@ 113
违规@@ 113
.8@@ 113
尽管@@ 113
法官@@ 113
始终@@ 113
预测@@ 113
,一名@@ 113
个月@@ 113
供应@@ 113
累计@@ 113
,这样@@ 113
指挥@@ 113
采@@ 113
,没有@@ 113
W@@ 113
情绪@@ 113
l@@ 113
京@@ 113
的行为@@ 112
绿@@ 112
动力@@ 112
特色@@ 112
宽@@ 112
春晚@@ 112
会,@@ 112
女友@@ 112
家,@@ 112
质疑@@ 112
呼@@ 112
可能会@@ 112
平时@@ 112
邀请@@ 112
输@@ 112
滑雪@@ 112
健@@ 112
卫@@ 112
丹@@ 111
几天@@ 111
企@@ 111
距离@@ 111
特点@@ 111
手续@@ 111
大型@@ 111
早上@@ 111
孩子的@@ 111
湖南@@ 111
通讯员@@ 111
淡@@ 111
怕@@ 111
吸@@ 111
者的@@ 111
意味着@@ 111
售@@ 111
吃饭@@ 111
2014年1月1日@@ 110
,虽然@@ 110
中午@@ 110
庄@@ 110
习近平@@ 110
海外@@ 110
处罚@@ 110
充分@@ 110
贡献@@ 110
杰@@ 110
透@@ 110
中国的@@ 110
以后@@ 110
,会@@ 110
下午,@@ 110
愿@@ 110
,最终@@ 110
敬@@ 110
愿意@@ 110
司@@ 110
程度@@ 110
奶@@ 110
湖南卫视@@ 110
当年@@ 110
销@@ 110
5年@@ 110
u@@ 110
考试@@ 110
,其实@@ 109
乌@@ 109
面临@@ 109
娱乐@@ 109
确保@@ 109
及其@@ 109
领导人@@ 109
重新@@ 109
赴@@ 109
文明@@ 109
高,@@ 109
禁@@ 109
爱情@@ 109
承@@ 109
”(@@ 109
秒@@ 109
演员@@ 109
箱@@ 109
弱@@ 109
故@@ 109
陆续@@ 109
天天@@ 109
看,@@ 109
索@@ 109
蔬菜@@ 109
an@@ 109
父@@ 109
建设,@@ 108
纯@@ 108
遗@@ 108
…… 108
鼓励@@ 108
、李@@ 108
互@@ 108
浓@@ 108
诈骗@@ 108
从事@@ 108
建成@@ 108
表演@@ 108
女星@@ 108
歌手@@ 108
头,@@ 108
变成@@ 108
逐步@@ 108
舞台@@ 108
排名@@ 108
地区的@@ 108
职业@@ 108
是个@@ 108
文章@@ 108
配合@@ 108
英语@@ 108
兼@@ 107
应急@@ 107
危害@@ 107
核心@@ 107
秦@@ 107
乘@@ 107
舆论@@ 107
同志@@ 107
120@@ 107
著名@@ 107
施@@ 107
每个@@ 107
往往@@ 107
为主@@ 107
整体@@ 107
访@@ 107
广州@@ 107
湾@@ 107
等待@@ 107
收到@@ 107
消@@ 107
丰富@@ 107
,比如@@ 107
森@@ 107
课@@ 107
创意@@ 107
调研@@ 107
减肥@@ 107
报销@@ 107
今后@@ 106
机制,@@ 106
。《@@ 106
第一个@@ 106
量的@@ 106
敏@@ 106
墙@@ 106
街道@@ 106
到,@@ 106
哪@@ 106
体制@@ 106
听到@@ 106
不知@@ 106
吨@@ 106
锁@@ 106
霍@@ 106
辽宁舰@@ 106
。其@@ 106
哪些@@ 106
发言人@@ 106
境@@ 106
最后@@ 106
防止@@ 106
职工@@ 106
增加了@@ 106
杯@@ 106
遇@@ 106
我们的@@ 105
[中国@@ 105
小时,@@ 105
,除了@@ 105
籍@@ 105
大陆@@ 105
房地产@@ 105
指出@@ 105
的老@@ 105
车型@@ 105
肠@@ 105
交警@@ 105
的主@@ 105
复杂@@ 104
对外@@ 104
总统@@ 104
守@@ 104
吉@@ 104
人。 104
创造@@ 104
到底@@ 104
澳大利亚@@ 104
则是@@ 104
圆@@ 104
图片@@ 104
自动@@ 104
陪@@ 104
等。 104
通行@@ 104
以“@@ 104
讯@@ 104
医@@ 104
,美国@@ 104
舰@@ 104
浪@@ 104
欢迎@@ 104
见到@@ 104
?”@@ 104
一个人@@ 104
摸@@ 104
题@@ 104
羊@@ 104
测试@@ 104
发行@@ 104
刘某@@ 104
,李@@ 104
祝福@@ 103
阵@@ 103
基础@@ 103
司法@@ 103
勇@@ 103
勒@@ 103
意识@@ 103
贸易@@ 103
休息@@ 103
缓解@@ 103
账@@ 103
剂@@ 103
秩序@@ 103
房屋@@ 103
泉@@ 103
贝@@ 103
,导致@@ 103
,说@@ 103
■@@ 103
刷@@ 103
软@@ 103
给他@@ 103
很快@@ 103
移动@@ 103
庆@@ 102
告诉记者@@ 102
过程中@@ 102
,从而@@ 102
初步@@ 102
地,@@ 102
知名@@ 102
快速@@ 102
议@@ 102
塞@@ 102
恋@@ 102
身上@@ 102
是一种@@ 102
试验@@ 102
以后,@@ 102
经历@@ 102
跨@@ 102
纪委@@ 102
造型@@ 102
刺激@@ 102
员工@@ 102
。这些@@ 102
公益@@ 102
出口@@ 102
1个@@ 102
覆盖@@ 102
陆@@ 102
攻击@@ 102
高校@@ 102
陈光标@@ 102
补充@@ 102
顾@@ 102
m@@ 102
接近@@ 101
梁@@ 101
、新@@ 101
情况,@@ 101
还将@@ 101
经验@@ 101
解释@@ 101
出行@@ 101
百姓@@ 101
一大@@ 101
广泛@@ 101
截至@@ 101
咨询@@ 101
人。@@ 101
欧洲@@ 101
小姐@@ 101
做了@@ 101
(图) 101
资本@@ 101
照顾@@ 101
有的@@ 101
心的@@ 101
杭州@@ 101
去年12月@@ 101
角色@@ 101
王正敏@@ 101
旁@@ 100
凌晨@@ 100
购票@@ 100
真实@@ 100
成果@@ 100
益@@ 100
渠道@@ 100
医疗@@ 100
时的@@ 100
财产@@ 100
,要求@@ 100
为什么@@ 100
。虽然@@ 100
已被@@ 100
反对@@ 100
打击@@ 100
城区@@ 100
33@@ 100
嫌疑人@@ 100
认@@ 100
话题@@ 100
报道称,@@ 100
表示,“@@ 100
X@@ 100
回忆@@ 100
左@@ 100
子、@@ 100
肥@@ 100
应用@@ 100
豆腐@@ 100
维生素C@@ 100
38@@ 99
快乐@@ 99
,《@@ 99
伤害@@ 99
清楚@@ 99
呈现@@ 99
、“@@ 99
深化@@ 99
深圳@@ 99
运输@@ 99
秋@@ 99
具备@@ 99
公安机关@@ 99
时许,@@ 99
装备@@ 99
迪@@ 99
度,@@ 99
出一@@ 99
丝@@ 99
幼儿园@@ 99
炒@@ 99
总是@@ 99
I@@ 99
恩@@ 99
鲁@@ 99
温暖@@ 99
公租房@@ 99
杨某@@ 99
最好@@ 98
的第一@@ 98
辉@@ 98
。对@@ 98
今@@ 98
拼@@ 98
灵@@ 98
本人@@ 98
奥@@ 98
。目前@@ 98
p@@ 98
了。” 98
家属@@ 98
超级@@ 98
检测@@ 98
诗@@ 98
射@@ 98
人数@@ 98
诉@@ 98
】 98
就业@@ 97
er@@ 97
内的@@ 97
受伤@@ 97
各个@@ 97
横@@ 97
迎来@@ 97
物品@@ 97
日常@@ 97
各项@@ 97
惠@@ 97
发展,@@ 97
转变@@ 97
选手@@ 97
右@@ 97
末@@ 97
厚@@ 97
情报@@ 97
能否@@ 97
居住@@ 97
,只要@@ 97
,一些@@ 97
消化@@ 97
,两人@@ 97
出生@@ 97
示范@@ 97
汪@@ 97
伊@@ 97
斤@@ 97
江苏@@ 97
揭@@ 96
刻@@ 96
询问@@ 96
似@@ 96
袭击@@ 96
尽快@@ 96
,一个@@ 96
条例@@ 96
带领@@ 96
。这是@@ 96
昌@@ 96
是,@@ 96
猛@@ 96
暴力@@ 96
已有@@ 96
丰@@ 96
雄@@ 96
股份@@ 96
。但是@@ 96
多少@@ 96
呼吁@@ 96
象@@ 96
吸收@@ 96
确认@@ 96
泽@@ 96
菲@@ 96
俊@@ 96
整改@@ 96
尚@@ 96
的作用@@ 96
出去@@ 96
年终奖@@ 96
耳@@ 96
王菲@@ 96
J@@ 96
冲突@@ 95
鉴定@@ 95
主体@@ 95
期间,@@ 95
环节@@ 95
的同时,@@ 95
过程中,@@ 95
称“@@ 95
针@@ 95
寻找@@ 95
暗@@ 95
主演@@ 95
红色@@ 95
表达@@ 95
比例@@ 95
盗@@ 95
狗@@ 95
融资@@ 95
00@@ 95
来源@@ 95
日前,@@ 95
g@@ 95
机、@@ 95
劝@@ 95
合乘@@ 95
,共@@ 94
东北@@ 94
。对于@@ 94
主义@@ 94
朗@@ 94
优化@@ 94
论@@ 94
,实现@@ 94
消防@@ 94
洪@@ 94
发布的@@ 94
方便@@ 94
还会@@ 94
止@@ 94
线路@@ 94
钢@@ 94
错误@@ 94
展示@@ 94
男女@@ 94
位,@@ 94
也要@@ 94
梦想@@ 94
2年@@ 94
演出@@ 94
矛盾@@ 94
上一@@ 94
适合@@ 94
海南省@@ 94
那个@@ 94
彩@@ 94
正是@@ 94
胸@@ 94
娱乐圈@@ 94
KTV@@ 94
吴京@@ 94
今日@@ 93
献@@ 93
充@@ 93
都要@@ 93
切实@@ 93
2000@@ 93
植物@@ 93
,这一@@ 93
专项@@ 93
人、@@ 93
第四@@ 93
遭到@@ 93
虎@@ 93
沟通@@ 93
敢@@ 93
有个@@ 93
姆@@ 93
市委书记@@ 93
k@@ 93
左右,@@ 93
,想@@ 93
有一个@@ 93
市委@@ 93
打电话@@ 93
纪念@@ 93
每月@@ 93
的地方@@ 93
异常@@ 93
缺乏@@ 93
签@@ 93
竟@@ 93
毛泽东@@ 93
,主要@@ 93
冠军@@ 93
购物@@ 93
流行@@ 93
镜@@ 93
+@@ 93
卫视@@ 93
仪@@ 93
称:“@@ 93
依依@@ 93
正确@@ 92
攻@@ 92
纪@@ 92
眼睛@@ 92
拜@@ 92
”是@@ 92
答@@ 92
等,@@ 92
刑@@ 92
之间的@@ 92
速度@@ 92
构建@@ 92
,提高@@ 92
务@@ 92
”和“@@ 92
很大@@ 92
祥@@ 92
、不@@ 92
我省@@ 92
虚@@ 92
尖@@ 92
物业@@ 92
时期@@ 92
艘@@ 92
是中国@@ 92
登陆@@ 92
杜@@ 92
工资@@ 92
万元,@@ 92
摊@@ 92
临@@ 92
着一@@ 92
炎@@ 92
教授@@ 92
桌@@ 92
鸡蛋@@ 92
并未@@ 92
指数@@ 91
投资者@@ 91
彻底@@ 91
34@@ 91
修订@@ 91
区,@@ 91
。为@@ 91
岗@@ 91
停止@@ 91
幸@@ 91
充满@@ 91
退休@@ 91
公平@@ 91
精神,@@ 91
机会@@ 91
、有@@ 91
往年@@ 91
显@@ 91
取消@@ 91
洞@@ 91
类似@@ 91
巧@@ 91
上班@@ 91
年来@@ 91
抱@@ 91
事发@@ 91
”、@@ 91
瘦@@ 91
宏@@ 91
时尚@@ 91
涉@@ 91
声音@@ 91
爬@@ 91
放弃@@ 91
超市@@ 91
凯@@ 91
母@@ 91
侧@@ 91
紧急@@ 90
故事@@ 90
车票@@ 90
国外@@ 90
心里@@ 90
慢@@ 90
高度@@ 90
。一@@ 90
优惠@@ 90
“不@@ 90
,或@@ 90
效率@@ 90
2个@@ 90
万美元@@ 90
群体@@ 90
各级@@ 90
随即@@ 90
败@@ 90
谢楠@@ 90
这里@@ 90
名单@@ 90
“我@@ 90
集体@@ 90
十大@@ 90
市场的@@ 90
奔@@ 90
麦@@ 90
有点@@ 90
喊@@ 90
帅@@ 90
场,@@ 89
爆发@@ 89
激@@ 89
将于@@ 89
婚姻@@ 89
决@@ 89
总结@@ 89
尚未@@ 89
内地@@ 89
上午,@@ 89
家中@@ 89
假期@@ 89
在接受@@ 89
就要@@ 89
此事@@ 89
底,@@ 89
府@@ 89
姓@@ 89
当然@@ 89
缘@@ 89
腾@@ 89
南海@@ 89
197@@ 89
道德@@ 89
,最后@@ 89
%;@@ 89
竟然@@ 89
2、@@ 89
同事@@ 89
他们的@@ 89
经理@@ 89
较大@@ 89
有关部门@@ 89
很多人@@ 89
某某@@ 89
误@@ 89
两名@@ 89
在中国@@ 88
构成@@ 88
高的@@ 88
动,@@ 88
贺@@ 88
,给@@ 88
示@@ 88
走进@@ 88
垃圾@@ 88
先进@@ 88
欧@@ 88
回到@@ 88
国家的@@ 88
问题的@@ 88
马英九@@ 88
张艺谋@@ 88
并非@@ 88
缴@@ 88
律师@@ 88
杨幂@@ 88
幅@@ 88
骗@@ 88
划@@ 88
是不@@ 88
110@@ 88
在一起@@ 88
轿车@@ 88
雾霾@@ 88
起床@@ 88
神经@@ 88
蛋@@ 88
梨@@ 88
地震@@ 88
智@@ 87
谢@@ 87
电视台@@ 87
郭@@ 87
当前@@ 87
区的@@ 87
秘密@@ 87
参拜靖国神社@@ 87
泡@@ 87
以为@@ 87
冯@@ 87
民主@@ 87
详细@@ 87
路上@@ 87
几年@@ 87
金额@@ 87
医学@@ 87
追求@@ 87
U@@ 87
绝对@@ 87
篇@@ 87
操@@ 87
O@@ 87
石头@@ 87
办公@@ 87
的心@@ 87
屏幕@@ 87
游戏@@ 87
亩@@ 87
隆@@ 87
储@@ 87
播@@ 87
粮@@ 87
空军@@ 87
,这种@@ 87
陕西@@ 87
含有@@ 87
尊重@@ 86
观察@@ 86
实践@@ 86
累@@ 86
发生的@@ 86
前的@@ 86
鼓@@ 86
贯彻落实@@ 86
舍@@ 86
磊@@ 86
201@@ 86
开启@@ 86
在北京@@ 86
12月30日@@ 86
燕@@ 86
延@@ 86
市政府@@ 86
前来@@ 86
生育@@ 86
,于是@@ 86
还没@@ 86
老板@@ 86
一度@@ 86
表明@@ 86
本身@@ 86
债@@ 86
访问@@ 86
发,@@ 86
醒@@ 86
立案@@ 86
调查,@@ 86
,后@@ 86
觉@@ 86
出现在@@ 86
甘@@ 86
黑色@@ 86
袁@@ 86
嘴@@ 86
摇号@@ 86
,便@@ 86
安徽省@@ 86
王导@@ 86
性,@@ 85
损害@@ 85
,不能@@ 85
见面@@ 85
盖@@ 85
“大@@ 85
说是@@ 85
阳光@@ 85
绿色@@ 85
下一@@ 85
理解@@ 85
河北@@ 85
劳动@@ 85
人物@@ 85
审核@@ 85
对中国@@ 85
在2013年@@ 85
至今@@ 85
紫@@ 85
严肃@@ 85
判@@ 85
回来@@ 85
。因此@@ 85
财@@ 85
赶到@@ 85
煤@@ 85
岸信介@@ 85
,造成@@ 85
证实@@ 85
海口市@@ 85
血液@@ 85
同意@@ 85
子女@@ 85
住在@@ 85
闻@@ 85
肝@@ 85
毛主席@@ 85
。这一@@ 84
隐@@ 84
到达@@ 84
记者在@@ 84
的不@@ 84
瑞@@ 84
围绕@@ 84
体现@@ 84
肖@@ 84
2014年的@@ 84
曼@@ 84
勤@@ 84
。另外,@@ 84
大部分@@ 84
搭@@ 84
宣@@ 84
不好@@ 84
欠@@ 84
,由于@@ 84
加工@@ 84
批评@@ 84
互联网@@ 84
适当@@ 84
局局长@@ 84
炮@@ 84
动作@@ 84
n@@ 84
妙@@ 84
主持人@@ 84
d@@ 83
将继续@@ 83
,进一步@@ 83
碎@@ 83
人类@@ 83
。中国@@ 83
关心@@ 83
润@@ 83
破坏@@ 83
拖@@ 83
理论@@ 83
,不断@@ 83
8个@@ 83
下发@@ 83
情节@@ 83
,上@@ 83
白领@@ 83
天的@@ 83
。与@@ 83
穿着@@ 83
拟@@ 83
下了@@ 83
这位@@ 83
的两@@ 83
混@@ 83
开心@@ 83
走访@@ 83
君@@ 83
,这次@@ 83
人才@@ 83
8年@@ 83
妈@@ 83
剑@@ 83
唱歌@@ 83
两国@@ 83
公告@@ 83
立法@@ 83
跌@@ 83
婚@@ 83
车主@@ 83
发放@@ 83
记忆@@ 83
一辆@@ 83
航空@@ 83
须@@ 83
仁@@ 83
。所以@@ 83
猪@@ 83
播出@@ 83
,请@@ 83
嫁@@ 83
霾@@ 83
宴@@ 83
灾害@@ 83
验证码@@ 83
小米@@ 83
告@@ 83
萌@@ 83
一切@@ 82
废@@ 82
2014年1月@@ 82
扔@@ 82
,无@@ 82
4年@@ 82
,促进@@ 82
工作。 82
改进@@ 82
李娜@@ 82
公里,@@ 82
凤@@ 82
面的@@ 82
挤@@ 82
铺@@ 82
人工@@ 82
国民@@ 82
得知@@ 82
老公@@ 82
户籍@@ 82
值班@@ 82
释放@@ 82
优秀@@ 82
。现在@@ 82
无奈@@ 82
邮票@@ 82
腐败@@ 82
协@@ 81
生活的@@ 81
唯一@@ 81
重视@@ 81
固@@ 81
,坚持@@ 81
通道@@ 81
全区@@ 81
能源@@ 81
多元@@ 81
自行@@ 81
锅@@ 81
春运@@ 81
美女@@ 81
巡逻@@ 81
虽@@ 81
依据@@ 81
组成@@ 81
移@@ 81
息@@ 81
现金@@ 81
们的@@ 81
东方@@ 81
码@@ 81
永远@@ 81
瞬间@@ 81
都没有@@ 81
凉@@ 81
自我@@ 81
外地@@ 81
戒烟@@ 81
家族@@ 81
扣@@ 81
推广@@ 81
面,@@ 81
平衡@@ 81
引来@@ 81
目的@@ 81
粮食@@ 81
艺@@ 81
显然@@ 81
吓@@ 81
in@@ 81
房间@@ 81
信心@@ 80
进展@@ 80
节日@@ 80
时刻@@ 80
强烈@@ 80
排放@@ 80
重要的@@ 80
一条@@ 80
86@@ 80
雾@@ 80
,为了@@ 80
车站@@ 80
上下@@ 80
中。 80
懂@@ 80
挥@@ 80
而言@@ 80
中美@@ 80
迹@@ 80
分类@@ 80
凭借@@ 80
等方面@@ 80
允儿@@ 80
完成了@@ 80
惨@@ 80
休闲@@ 80
他人@@ 80
转移@@ 80
还没有@@ 80
湖北@@ 80
也没有@@ 80
畅@@ 80
在这@@ 80
呢@@ 80
药品@@ 80
巡@@ 80
替@@ 80
赞@@ 80
成分@@ 80
氏@@ 80
在“@@ 80
做法@@ 79
的食物@@ 79
,只有@@ 79
最后一@@ 79
举措@@ 79
400@@ 79
企业的@@ 79
障碍@@ 79
网友“@@ 79
暂时@@ 79
5个@@ 79
吐@@ 79
《爸爸去哪儿》@@ 79
教师@@ 79
数据显示,@@ 79
再度@@ 79
中间@@ 79
起诉@@ 79
两年@@ 79
迁@@ 79
省委@@ 79
护@@ 79
推荐@@ 79
,大家@@ 79
摄入@@ 79
森林@@ 79
戒@@ 78
工人@@ 78
调解@@ 78
狂@@ 78
进步@@ 78
65@@ 78
责@@ 78
不够@@ 78
打算@@ 78
然后@@ 78
壮@@ 78
了几@@ 78
腰@@ 78
将会@@ 78
,全国@@ 78
维持@@ 78
感谢@@ 78
习@@ 78
开车@@ 78
至于@@ 78
辣@@ 78
走到@@ 78
健身@@ 78
印象@@ 78
杂@@ 78
微信@@ 78
万元。 78
志愿者@@ 78
嘉@@ 78
启@@ 78
赚@@ 78
博士@@ 78
尘@@ 78
体内@@ 78
川@@ 78
西安市@@ 78
分配@@ 78
三大@@ 77
履行@@ 77
恐怖@@ 77
温度@@ 77
注@@ 77
城镇@@ 77
进口@@ 77
深刻@@ 77
危机@@ 77
预算@@ 77
重庆@@ 77
所以@@ 77
返@@ 77
,陈@@ 77
当日@@ 77
中共中央@@ 77
进程@@ 77
谋@@ 77
年底@@ 77
录@@ 77
,发现@@ 77
锦@@ 77
核实@@ 77
96@@ 77
拍照@@ 77
评选@@ 77
整合@@ 77
洲@@ 77
本次@@ 77
就有@@ 77
,因@@ 77
人气@@ 77
来看@@ 77
情,@@ 77
晚,@@ 77
背景@@ 77
宇@@ 77
甜@@ 77
权力@@ 77
不了@@ 77
起来,@@ 77
5000@@ 77
等。@@ 77
查询@@ 77
文物@@ 77
元素@@ 77
姐@@ 77
婚礼@@ 77
投票@@ 77
的时候,@@ 77
肾@@ 77
蛋白质@@ 77
上涨@@ 76
涨幅@@ 76
琼@@ 76
媒@@ 76
伦@@ 76
感动@@ 76
美丽@@ 76
理由@@ 76
罚@@ 76
,建立@@ 76
审判@@ 76
社会主义@@ 76
一定要@@ 76
在于@@ 76
9个@@ 76
多种@@ 76
在内的@@ 76
袋@@ 76
浮@@ 76
停车场@@ 76
提供了@@ 76
逼@@ 76
泰国@@ 76
堵@@ 76
44@@ 76
有着@@ 76
状@@ 76
态度@@ 76
弄@@ 76
不同的@@ 76
平稳@@ 76
看来,@@ 76
在网上@@ 76
,不要@@ 76
呈@@ 76
刊@@ 76
4个@@ 76
情感@@ 76
力。 76
育@@ 76
聊天@@ 76
盘点@@ 76
航班@@ 76
女生@@ 76
考生@@ 76
; 76
震@@ 76
12306@@ 76
持有@@ 75
频道@@ 75
了一些@@ 75
中国人@@ 75
部的@@ 75
厕所@@ 75
看到,@@ 75
检验@@ 75
井@@ 75
3000@@ 75
强调,@@ 75
,推动@@ 75
气,@@ 75
净@@ 75
披露@@ 75
增速@@ 75
两位@@ 75
享@@ 75
适@@ 75
加上@@ 75
引进@@ 75
作案@@ 75
55@@ 75
7个@@ 75
迫@@ 75
在2014年@@ 75
证件@@ 75
岸@@ 75
新建@@ 75
沈阳@@ 75
航母@@ 75
接触@@ 75
跃@@ 75
博物馆@@ 75
理财@@ 75
民间@@ 75
浩@@ 75
全新@@ 75
?” 75
接待@@ 75
《中国@@ 75
成交@@ 75
症状@@ 75
土豪@@ 75
工商@@ 74
.1@@ 74
车上@@ 74
鸣@@ 74
中华@@ 74
国有@@ 74
岗位@@ 74
习近平同志@@ 74
,高@@ 74
、中@@ 74
作战@@ 74
老虎@@ 74
涛@@ 74
贷款@@ 74
数字@@ 74
职务@@ 74
高铁@@ 74
1.5@@ 74
岩@@ 74
,并在@@ 74
,总@@ 74
。经@@ 74
下车@@ 74
挑@@ 74
繁@@ 74
委员@@ 74
买了@@ 74
会的@@ 74
灭@@ 74
皇@@ 74
抵达@@ 74
返回@@ 74
轻松@@ 74
球队@@ 74
变得@@ 74
才是@@ 74
大约@@ 74
问题。 74
.2@@ 74
拆@@ 74
豪@@ 74
庭@@ 74
配置@@ 74
他在@@ 74
坛@@ 74
6年@@ 74
生意@@ 74
潘@@ 74
生活中@@ 74
车内@@ 74
故宫@@ 74
查处@@ 74
节能@@ 74
携带@@ 74
,一般@@ 74
参观@@ 74
的前@@ 74
怪@@ 74
,有人@@ 74
卢@@ 74
讨@@ 74
,周@@ 74
软件@@ 74
三沙@@ 74
超标@@ 74
国防@@ 73
团结@@ 73
职能@@ 73
罚款@@ 73
水,@@ 73
扫@@ 73
随意@@ 73
试图@@ 73
讲话@@ 73
判断@@ 73
方面的@@ 73
规则@@ 73
灾@@ 73
新华社@@ 73
近年来@@ 73
小学@@ 73
掌握@@ 73
。“我@@ 73
柳@@ 73
。新@@ 73
液@@ 73
。随后,@@ 73
大概@@ 73
各自@@ 73
窗口@@ 73
技@@ 73
每次@@ 73
立刻@@ 73
趋势@@ 73
,那么@@ 73
地位@@ 73
后来@@ 73
流动@@ 73
下去@@ 73
不知道@@ 73
童@@ 73
乘坐@@ 73
热线@@ 73
黄某@@ 73
带头@@ 73
就可以@@ 73
,于@@ 73
老年人@@ 73
党的@@ 73
天津@@ 73
。为了@@ 73
景区@@ 73
行驶@@ 73
炸弹@@ 73
贾@@ 73
香蕉@@ 73
48@@ 73
维生素@@ 73
毁@@ 73
陶@@ 73
流程@@ 73
战斗机@@ 73
李某@@ 73
《纽约时报》@@ 72
另@@ 72
决策@@ 72
智能@@ 72
相互@@ 72
30日@@ 72
分子@@ 72
冲击@@ 72
迎接@@ 72
。然而@@ 72
养殖@@ 72
消除@@ 72
的主要@@ 72
信任@@ 72
氛围@@ 72
一致@@ 72
灰@@ 72
经济发展@@ 72
准确@@ 72
预期@@ 72
注册@@ 72
出发@@ 72
原则@@ 72
2013年的@@ 72
排队@@ 72
的地@@ 72
相关部门@@ 72
自行车@@ 72
城乡@@ 72
过来@@ 72
2013年12月30日@@ 72
就开始@@ 72
三亚@@ 72
该公司@@ 72
调控@@ 72
力、@@ 72
谷@@ 72
,据@@ 72
姐姐@@ 72
公斤@@ 72
凡@@ 72
强制@@ 72
始@@ 72
,即使@@ 72
撞@@ 72
冻@@ 72
允许@@ 72
很有@@ 72
,其他@@ 72
顾客@@ 72
电视剧@@ 72
交往@@ 72
招生@@ 72
夫妇@@ 72
市值@@ 72
董秘@@ 72
张某某@@ 72
覃健@@ 72
期,@@ 71
,尤其是@@ 71
敌@@ 71
过了@@ 71
激动@@ 71
乘车@@ 71
监@@ 71
三年@@ 71
参拜@@ 71
崇@@ 71
健全@@ 71
局、@@ 71
总量@@ 71
工作。@@ 71
行的@@ 71
,但在@@ 71
分为@@ 71
炸@@ 71
模@@ 71
就不@@ 71
人群@@ 71
典型@@ 71
公共场所@@ 71
抽烟@@ 71
疑@@ 71
,连@@ 71
摄影@@ 71
,积极@@ 71
确@@ 71
网民@@ 71
美军@@ 71
别人@@ 71
房企@@ 71
出售@@ 71
亲属@@ 71
凌@@ 71
竹@@ 71
对其@@ 71
当晚@@ 71
郑州@@ 71
。200@@ 71
多的@@ 71
一场@@ 71
货车@@ 71
知识@@ 71
病情@@ 71
外界@@ 71
开了@@ 71
原来@@ 71
车道@@ 71
蜜@@ 71
莱@@ 71
钟汉良@@ 71
on@@ 70
。今年@@ 70
洁@@ 70
,既@@ 70
蒙@@ 70
的安全@@ 70
以上的@@ 70
稀@@ 70
纠纷@@ 70
性、@@ 70
瓶@@ 70
迈@@ 70
山东@@ 70
1月3日@@ 70
;而@@ 70
路段@@ 70
平方米@@ 70
弃@@ 70
乔@@ 70
堆@@ 70
上月@@ 70
,王@@ 70
拨打@@ 70
池@@ 70
驶@@ 70
一边@@ 70
经济普查@@ 70
,此@@ 70
)。 70
涨@@ 70
上市公司@@ 70
陈柏和@@ 70
偶遇@@ 70
贫@@ 70
统计,@@ 70
清理@@ 70
桃@@ 70
达成@@ 70
好友@@ 70
莲@@ 70
,每天@@ 70
蛋白@@ 70
的热@@ 70
毕业@@ 70
榜@@ 70
惊喜@@ 70
她们@@ 70
睡眠@@ 70
的一种@@ 70
衰@@ 70
污染物@@ 70
学籍@@ 70
伯@@ 70
方的@@ 70
,经@@ 70
f@@ 69
金正恩@@ 69
坚决@@ 69
火车站@@ 69
最佳@@ 69
期的@@ 69
条例》@@ 69
联合国@@ 69
机遇@@ 69
十八届三中全会@@ 69
盗窃@@ 69
收益@@ 69
材@@ 69
,预计@@ 69
路线@@ 69
、张@@ 69
。其中@@ 69
昨天,@@ 69
分局@@ 69
抵@@ 69
暂@@ 69
,结果@@ 69
利率@@ 69
上。 69
点。@@ 69
计算@@ 69
措施,@@ 69
赶紧@@ 69
说话@@ 69
必要@@ 69
老年@@ 69
完美@@ 69
传播@@ 69
让他@@ 69
妇女@@ 69
艾@@ 69
摇@@ 69
测@@ 69
振@@ 69
本市@@ 69
牵@@ 69
。不过,@@ 69
也可以@@ 69
创作@@ 69
局长@@ 69
草莓@@ 69
装修@@ 69
搭配@@ 69
,张@@ 69
(组图) 69
功效@@ 69
梅西@@ 69
蜂蜜@@ 69
en@@ 68
大力@@ 68
放松@@ 68
寻@@ 68
公民@@ 68
处置@@ 68
安倍晋三@@ 68
全面深化改革@@ 68
之所以@@ 68
外出@@ 68
2008年@@ 68
放假@@ 68
原本@@ 68
定位@@ 68
佛@@ 68
窗@@ 68
收视@@ 68
残@@ 68
创建@@ 68
以上,@@ 68
租赁@@ 68
冒@@ 68
歌词@@ 68
长的@@ 68
补偿@@ 68
43@@ 68
忠@@ 68
侦查@@ 68
副主任@@ 68
195@@ 68
评论@@ 68
防范@@ 68
考察@@ 68
多人@@ 68
的历史@@ 68
也被@@ 68
保安@@ 68
锻炼@@ 68
热闹@@ 68
学术@@ 68
粗@@ 68
习俗@@ 68
v@@ 68
飞行@@ 68
咖啡@@ 68
】@@ 68
军队@@ 67
祝@@ 67
斌@@ 67
感受@@ 67
欣@@ 67
转型@@ 67
合格@@ 67
动车@@ 67
袭@@ 67
,或者@@ 67
一步@@ 67
统@@ 67
十年@@ 67
争取@@ 67
省级@@ 67
常见@@ 67
多数@@ 67
多家@@ 67
钻@@ 67
客运@@ 67
范围内@@ 67
诺@@ 67
给了@@ 67
协商@@ 67
不良@@ 67
河南@@ 67
湖南省@@ 67
独立@@ 67
,必须@@ 67
市区@@ 67
范冰冰@@ 67
的消息@@ 67
推行@@ 67
贤@@ 67
偶像@@ 67
宝马@@ 67
陷入@@ 67
项目,@@ 67
85@@ 67
住宅@@ 67
看见@@ 67
老婆@@ 67
销量@@ 67
浙江@@ 67
锋@@ 67
孕@@ 67
。2012年@@ 67
室内@@ 67
乡镇@@ 67
海洋@@ 67
在一@@ 67
成熟@@ 67
晒@@ 67
马拉松@@ 67
认证@@ 67
一张@@ 67
饱@@ 67
妇@@ 67
献血@@ 67
虫@@ 67
联网@@ 67
求婚@@ 67
饮@@ 67
。它@@ 67
乳房@@ 67
究竟@@ 67
理念@@ 66
曾在@@ 66
工具@@ 66
平安@@ 66
违@@ 66
违反@@ 66
总局@@ 66
政策,@@ 66
95@@ 66
”,“@@ 66
娜@@ 66
。通过@@ 66
,仅@@ 66
市长@@ 66
带动@@ 66
送到@@ 66
患有@@ 66
证据@@ 66
的外@@ 66
。他们@@ 66
否认@@ 66
路,@@ 66
芳@@ 66
三星@@ 66
生日@@ 66
24小时@@ 66
债务@@ 66
大幅@@ 66
海上@@ 66
陈某@@ 66
拨@@ 66
一个月@@ 66
报纸@@ 66
吊@@ 66
乳@@ 66
沈@@ 66
审计@@ 66
透露,@@ 66
同比@@ 66
幼@@ 66
怒@@ 66
米,@@ 66
意思@@ 66
解读@@ 66
该男子@@ 66
便利@@ 66
睡觉@@ 66
挡@@ 66
潜@@ 66
长、@@ 66
年代@@ 66
”在@@ 66
在微博上@@ 66
影视@@ 66
咸@@ 66
枚@@ 66
火箭@@ 66
煮@@ 66
呆@@ 66
腹@@ 66
触@@ 66
更为@@ 65
革命@@ 65
,也有@@ 65
么@@ 65
埋@@ 65
,不得@@ 65
申@@ 65
改革开放@@ 65
制度,@@ 65
颈@@ 65
良好的@@ 65
人大@@ 65
十二@@ 65
的学生@@ 65
公务@@ 65
后再@@ 65
南宁@@ 65
3名@@ 65
途@@ 65
天然气@@ 65
将是@@ 65
做到@@ 65
6个@@ 65
遍@@ 65
性感@@ 65
,“我@@ 65
旗@@ 65
诸多@@ 65
验@@ 65
沿@@ 65
鸟@@ 65
依旧@@ 65
钓鱼岛@@ 65
的家@@ 65
淮@@ 65
元。 65
想到@@ 65
通常@@ 65
圣@@ 65
央行@@ 65
曝@@ 65
同期@@ 65
颜@@ 65
发的@@ 65
旅@@ 65
县委@@ 65
签订@@ 65
法》@@ 65
英雄@@ 65
薄@@ 65
艳@@ 65
乎@@ 65
纪律@@ 65
概念@@ 65
上线@@ 65
膜@@ 65
早在@@ 65
宝宝@@ 65
舌@@ 65
赛季@@ 65
的照片@@ 65
胖@@ 65
栋@@ 65
莉@@ 64
无人@@ 64
制度的@@ 64
津@@ 64
所在@@ 64
《条例》@@ 64
凭@@ 64
资格@@ 64
统筹@@ 64
法规@@ 64
义务@@ 64
安装@@ 64
走向@@ 64
决心@@ 64
政协@@ 64
点的@@ 64
人民群众@@ 64
事实@@ 64
不得不@@ 64
地下@@ 64
完整@@ 64
估计@@ 64
骂@@ 64
据介绍,@@ 64
最低@@ 64
疫苗@@ 64
不久@@ 64
打工@@ 64
恋爱@@ 64
避@@ 64
路边@@ 64
执政@@ 64
仍在@@ 64
祖@@ 64
1年@@ 64
中日@@ 64
斑@@ 64
)。@@ 64
合法@@ 64
商务@@ 64
撒@@ 64
演唱@@ 64
忍@@ 64
四个@@ 64
般@@ 64
延续@@ 64
首个@@ 64
汇报@@ 64
席@@ 64
商场@@ 64
的影响@@ 64
支撑@@ 64
32@@ 64
冰雪@@ 64
损@@ 64
小组@@ 64
肺@@ 64
的、@@ 64
薪@@ 64
诱@@ 64
中学@@ 64
另一个@@ 64
52@@ 64
牛奶@@ 64
不太@@ 64
一样,@@ 64
起到@@ 64
SUV@@ 64
保障性住房@@ 64
赵忠祥@@ 64
过的@@ 64
细胞@@ 64
想要@@ 64
本报@@ 64
娘@@ 64
作业@@ 64
。这个@@ 63
各大@@ 63
随后,@@ 63
局势@@ 63
天。 63
湿@@ 63
优先@@ 63
尸体@@ 63
身份证@@ 63
东京@@ 63
党委书记@@ 63
胜利@@ 63
性和@@ 63
敏感@@ 63
这项@@ 63
提出了@@ 63
,认为@@ 63
密切@@ 63
万吨@@ 63
冠@@ 63
,特别是@@ 63
担@@ 63
垫@@ 63
实验@@ 63
负担@@ 63
不敢@@ 63
章子怡@@ 63
人 63
账户@@ 63
培养@@ 63
颜色@@ 63
移民@@ 63
是为了@@ 63
携@@ 63
搬@@ 63
郎@@ 63
名,@@ 63
奖励@@ 63
调侃@@ 63
奶粉@@ 63
说“@@ 63
,随后@@ 63
年初@@ 63
,应该@@ 63
。而且@@ 63
突@@ 63
青春@@ 63
轨@@ 63
融@@ 63
邀@@ 63
瓜@@ 63
未能@@ 63
角度@@ 63
陕西省@@ 63
的水@@ 63
也没@@ 63
商家@@ 63
部位@@ 63
砸@@ 63
奔驰@@ 63
劲@@ 63
星期@@ 63
李胜基@@ 63
吗? 63
舒@@ 63
让她@@ 63
的性@@ 63
业主@@ 63
官方微博@@ 63
世纪@@ 63
全体@@ 62
贯彻@@ 62
显得@@ 62
真是@@ 62
酷@@ 62
诸@@ 62
建设的@@ 62
、无@@ 62
法定@@ 62
和社会@@ 62
看来@@ 62
所谓@@ 62
”;@@ 62
的国家@@ 62
周围@@ 62
被告人@@ 62
凝@@ 62
坡@@ 62
每日@@ 62
共计@@ 62
3、@@ 62
售票@@ 62
团体@@ 62
经费@@ 62
外来@@ 62
的变化@@ 62
投诉@@ 62
麻烦@@ 62
,一直@@ 62
,好@@ 62
不在@@ 62
暴@@ 62
证券@@ 62
跨年晚会@@ 62
的车@@ 62
作用,@@ 62
用地@@ 62
Angela@@ 62
驾@@ 62
。作为@@ 62
那里@@ 62
大多数@@ 62
度 62
特征@@ 62
州、@@ 62
肯@@ 62
00元@@ 62
力和@@ 62
清晰@@ 62
希@@ 62
化,@@ 62
化工@@ 62
科研@@ 62
罢@@ 62
98@@ 62
适应@@ 62
辐射@@ 62
犯罪嫌疑人@@ 62
公安局@@ 62
被困@@ 62
互动@@ 62
中有@@ 62
月球@@ 62
蓝洁瑛@@ 62
口腔@@ 62
比特币@@ 62
组合@@ 61
,加强@@ 61
建设、@@ 61
诚@@ 61
执法人员@@ 61
武装@@ 61
新年的@@ 61
太阳@@ 61
气象@@ 61
;在@@ 61
的企业@@ 61
违法行为@@ 61
警告@@ 61
配备@@ 61
“中国@@ 61
促@@ 61
胆@@ 61
、小@@ 61
廉@@ 61
长,@@ 61
总额@@ 61
侵@@ 61
大多@@ 61
礼物@@ 61
多年的@@ 61
花费@@ 61
实在@@ 61
鹏@@ 61
病人@@ 61
火灾@@ 61
洛@@ 61
办事@@ 61
的家庭@@ 61
貌@@ 61
留下@@ 61
普查员@@ 61
能力。 61
的价格@@ 61
州市@@ 61
窃@@ 61
头部@@ 61
疑似@@ 61
了!@@ 61
订@@ 61
师傅@@ 61
热议@@ 61
争议@@ 61
600@@ 61
(化名)@@ 61
作用。 61
地点@@ 61
64@@ 61
躲@@ 61
居住证@@ 61
疏@@ 61
为何@@ 61
出现了@@ 61
说法@@ 61
耕地@@ 61
or@@ 61
颗@@ 61
遗憾@@ 61
和其他@@ 61
倾@@ 61
法庭@@ 61
》等@@ 61
钙@@ 61
狼@@ 61
激素@@ 61
递@@ 61
发生了@@ 60
第一时间@@ 60
聚集@@ 60
国际社会@@ 60
相似@@ 60
改革,@@ 60
良好@@ 60
把握@@ 60
着力@@ 60
抓好@@ 60
权利@@ 60
杆@@ 60
%、@@ 60
注重@@ 60
庆祝@@ 60
本来@@ 60
2015年@@ 60
送给@@ 60
坐在@@ 60
魏@@ 60
品种@@ 60
恋情@@ 60
逆@@ 60
球员@@ 60
浪漫@@ 60
格局@@ 60
外国@@ 60
保健@@ 60
高达@@ 60
我是@@ 60
男神@@ 60
略@@ 60
况@@ 60
俩@@ 60
寄@@ 60
慢慢@@ 60
[美国@@ 60
公示@@ 60
黎@@ 60
窝@@ 60
中医@@ 60
实时@@ 60
晴@@ 60
然而@@ 60
主要是@@ 60
频繁@@ 60
读书@@ 60
,已经@@ 60
。随着@@ 60
,只是@@ 60
高兴@@ 60
厨房@@ 60
150@@ 60
富含@@ 60
热量@@ 60
婉@@ 60
怀疑@@ 60
墓@@ 60
高考@@ 60
al@@ 60
陆丰@@ 60
斗争@@ 59
大队@@ 59
刑事@@ 59
特别是@@ 59
回去@@ 59
不如@@ 59
常常@@ 59
,来@@ 59
42@@ 59
亲自@@ 59
旅行@@ 59
捡@@ 59
首都@@ 59
成就@@ 59
国产@@ 59
激情@@ 59
都没@@ 59
闪@@ 59
求助@@ 59
慧@@ 59
桂@@ 59
路口@@ 59
验收@@ 59
是最@@ 59
长时间@@ 59
抓获@@ 59
使得@@ 59
留言@@ 59
上“@@ 59
部长@@ 59
一片@@ 59
昨晚@@ 59
伙@@ 59
房产@@ 59
道:“@@ 59
尿@@ 59
,一边@@ 59
不住@@ 59
医师@@ 59
处,@@ 59
郑利@@ 59
,并将@@ 59
力度,@@ 59
了不少@@ 59
翔@@ 59
。2014年@@ 59
机械@@ 59
展现@@ 59
竞@@ 59
碗@@ 59
签证@@ 59
相当于@@ 59
发育@@ 59
频@@ 59
主题@@ 59
拉开@@ 59
率先@@ 59
研究所@@ 59
焦@@ 59
案,@@ 59
截@@ 59
老百姓@@ 59
栏@@ 59
风格@@ 59
头的@@ 59
尝试@@ 59
潜规则@@ 59
即使@@ 59
琳@@ 59
性能@@ 59
分享@@ 59
电动车@@ 59
癌症@@ 59
武汉市@@ 59
火锅@@ 59
运用@@ 59
盒@@ 59
当地时间@@ 59
奇石@@ 59
台北@@ 59
纵火@@ 59
反恐@@ 58
日子@@ 58
面向@@ 58
更大@@ 58
政府的@@ 58
荒@@ 58
抛@@ 58
施行@@ 58
说:“我@@ 58
党员@@ 58
邓@@ 58
抓住@@ 58
贪@@ 58
年末@@ 58
亿元。 58
云南@@ 58
量刑@@ 58
,形成@@ 58
午@@ 58
大桥@@ 58
恒@@ 58
88@@ 58
le@@ 58
力。@@ 58
被人@@ 58
告知@@ 58
还能@@ 58
标志@@ 58
帽@@ 58
人生@@ 58
辛@@ 58
赢@@ 58
援@@ 58
有可能@@ 58
1万@@ 58
年轻人@@ 58
晨@@ 58
而言,@@ 58
国家安全@@ 58
,才@@ 58
,双方@@ 58
满意@@ 58
1月1日,@@ 58
巨大的@@ 58
,自@@ 58
脏@@ 58
万元的@@ 58
业绩@@ 58
2013年11月@@ 58
增值税@@ 58
也很@@ 58
够@@ 58
抱着@@ 58
学会@@ 58
逾@@ 58
,需要@@ 58
聊@@ 58
广东省@@ 58
减轻@@ 58
外交部@@ 58
稍@@ 58
足球@@ 58
驾驶员@@ 58
兴奋@@ 58
备受@@ 58
比如@@ 58
上海市@@ 58
退出@@ 58
外的@@ 58
门,@@ 58
化学@@ 58
啥@@ 58
接收@@ 58
呢? 58
。据悉,@@ 58
更高@@ 58
颇@@ 58
发动机@@ 58
相同@@ 58
汽油@@ 58
汁@@ 58
东莞@@ 58
养老@@ 58
台风@@ 58
鹰@@ 58
新农合@@ 58
保健品@@ 58
经济增长@@ 57
伏尔加格勒@@ 57
让我们@@ 57
美好@@ 57
述@@ 57
火车票@@ 57
编制@@ 57
保留@@ 57
判处@@ 57
力争@@ 57
方式,@@ 57
放心@@ 57
二、@@ 57
外,还@@ 57
周末@@ 57
获得了@@ 57
高峰@@ 57
空中@@ 57
。”他@@ 57
新增@@ 57
精彩@@ 57
危@@ 57
,正@@ 57
职责@@ 57
53@@ 57
低调@@ 57
语言@@ 57
孩子们@@ 57
发起@@ 57
下一步@@ 57
热情@@ 57
漏@@ 57
趁@@ 57
9年@@ 57
赶到现场@@ 57
律@@ 57
差异@@ 57
房价@@ 57
密集@@ 57
相继@@ 57
署@@ 57
调查。 57
大厅@@ 57
了,我@@ 57
饭店@@ 57
,没@@ 57
总经理@@ 57
默@@ 57
回答@@ 57
最为@@ 57
点。 57
虚假@@ 57
。可@@ 57
摘@@ 57
乡村@@ 57
新政@@ 57
户口@@ 57
,避免@@ 57
支队@@ 57
最高气温@@ 57
沪@@ 57
39@@ 57
等部门@@ 57
用品@@ 57
已在@@ 57
信息化@@ 57
区别@@ 57
ch@@ 57
爆料@@ 57
孔@@ 57
牙齿@@ 57
监狱@@ 57
旧金山@@ 57
传出@@ 57
总部@@ 57
擅闯@@ 57
了解到@@ 57
包子@@ 57
专利@@ 57
股市@@ 56
西北@@ 56
大家都@@ 56
评估@@ 56
种植@@ 56
两侧@@ 56
同步@@ 56
缓@@ 56
故障@@ 56
对待@@ 56
并不是@@ 56
发动@@ 56
和谐@@ 56
项目的@@ 56
人均@@ 56
同比增长@@ 56
到来@@ 56
新年第一天,@@ 56
南部@@ 56
抢劫@@ 56
斗@@ 56
不用@@ 56
逢@@ 56
纵@@ 56
挖@@ 56
园区@@ 56
物流@@ 56
闽@@ 56
滴@@ 56
成长@@ 56
诊@@ 56
跨年夜@@ 56
跟着@@ 56
不错@@ 56
一段@@ 56
说,他@@ 56
仍有@@ 56
。去年@@ 56
旋@@ 56
执@@ 56
的妻子@@ 56
邻居@@ 56
给我@@ 56
报记者@@ 56
租金@@ 56
珍@@ 56
巨大@@ 56
达到了@@ 56
嘉宾@@ 56
。这种@@ 56
国企@@ 56
动态@@ 56
很好@@ 56
财务@@ 56
药物@@ 56
菌@@ 56
声,@@ 56
穷@@ 56
,吃@@ 56
刘女士@@ 56
橙@@ 56
最多@@ 56
王晶@@ 56
大脑@@ 56
本报记者@@ 56
计算机@@ 56
白色@@ 56
,比@@ 56
魔@@ 56
协助@@ 56
社区矫正@@ 56
玛@@ 55
表态@@ 55
无论@@ 55
,才能@@ 55
的规定@@ 55
正式实施@@ 55
明的@@ 55
境内@@ 55
监察@@ 55
定期@@ 55
二战@@ 55
全力@@ 55
奋斗@@ 55
拓展@@ 55
米的@@ 55
适用@@ 55
尤其@@ 55
问题。@@ 55
大、@@ 55
利润@@ 55
@@@ 55
两大@@ 55
耗@@ 55
回归@@ 55
男生@@ 55
等人@@ 55
存款@@ 55
也能@@ 55
溪@@ 55
定的@@ 55
长沙@@ 55
关系的@@ 55
一旦@@ 55
房子@@ 55
出版@@ 55
弟@@ 55
不停@@ 55
流转@@ 55
Kimi@@ 55
番@@ 55
赏@@ 55
4日@@ 55
记者:@@ 55
过度@@ 55
催@@ 55
人和@@ 55
有机@@ 55
基金会@@ 55
爱心@@ 55
发生在@@ 55
俗@@ 55
车厢@@ 55
审查@@ 55
浪费@@ 55
大小@@ 55
十几@@ 55
我就@@ 55
整理@@ 55
结论@@ 55
发布了@@ 55
近年来,@@ 55
实际上@@ 55
中毒@@ 55
帮忙@@ 55
用的@@ 55
肿@@ 55
稿@@ 55
报名@@ 55
碱@@ 55
刺@@ 55
支出@@ 55
扩@@ 55
天然@@ 55
杜慧颖@@ 55
抑制@@ 55
掌@@ 55
让你@@ 55
烈@@ 55
出轨@@ 55
或许@@ 55
人死亡@@ 55
张先生@@ 55
回顾@@ 54
繁荣@@ 54
渔@@ 54
燃@@ 54
南苏丹@@ 54
那样@@ 54
数百@@ 54
之路@@ 54
吹@@ 54
占用@@ 54
服务,@@ 54
零售@@ 54
济@@ 54
2014年元旦@@ 54
广西@@ 54
的基本@@ 54
毒品@@ 54
附@@ 54
内衣@@ 54
客流@@ 54
头。 54
踢@@ 54
的要求@@ 54
乙肝疫苗@@ 54
来了@@ 54
关闭@@ 54
拒@@ 54
拿到@@ 54
滨@@ 54
新闻》@@ 54
乐观@@ 54
丢@@ 54
700@@ 54
窗户@@ 54
在微博@@ 54
ou@@ 54
疯狂@@ 54
相比,@@ 54
是因为@@ 54
拿出@@ 54
Y@@ 54
互相@@ 54
。其实@@ 54
附近的@@ 54
月,@@ 54
联邦@@ 54
朴@@ 54
据报道,@@ 54
”一@@ 54
拦@@ 54
。如@@ 54
7年@@ 54
点 54
,很多@@ 54
柔@@ 54
困@@ 54
是有@@ 54
’的@@ 54
棚@@ 54
嘛@@ 54
度假@@ 54
阻@@ 54
长江@@ 54
裤@@ 54
情侣@@ 54
氧@@ 54
。不@@ 54
吸引了@@ 54
,则@@ 54
参考@@ 54
直播@@ 54
是不是@@ 54
子里@@ 54
食品安全@@ 54
扶@@ 54
,可能@@ 54
它们@@ 54
科学家@@ 54
恶劣@@ 54
阵容@@ 54
高血压@@ 54
胶@@ 54
计划生育@@ 54
歼@@ 54
劳教@@ 54
全莉@@ 54
纪录@@ 53
气氛@@ 53
的一些@@ 53
官兵@@ 53
万名@@ 53
分布@@ 53
人民法院@@ 53
元 53
被害人@@ 53
,每年@@ 53
恰@@ 53
今天的@@ 53
反复@@ 53
省市@@ 53
序@@ 53
的市场@@ 53
党政机关@@ 53
一、@@ 53
没想到@@ 53
过年@@ 53
浦@@ 53
批准@@ 53
新一代@@ 53
砍@@ 53
陈锦文@@ 53
嫌@@ 53
道歉@@ 53
出租@@ 53
交通事故@@ 53
不想@@ 53
强行@@ 53
自己在@@ 53
多万@@ 53
失去@@ 53
者,@@ 53
拔@@ 53
乌克兰@@ 53
查看@@ 53
可见@@ 53
中。@@ 53
欧元@@ 53
门前@@ 53
长达@@ 53
了近@@ 53
生产的@@ 53
全场@@ 53
极端@@ 53
眉@@ 53
媒体报道@@ 53
答应@@ 53
事务@@ 53
秘书@@ 53
直到@@ 53
术@@ 53
位。 53
妹@@ 53
23日@@ 53
堡@@ 53
擦@@ 53
,北京@@ 53
举行的@@ 53
考虑到@@ 53
醉@@ 53
的一项@@ 53
难度@@ 53
声明@@ 53
缩@@ 53
的最@@ 53
妃@@ 53
私人@@ 53
宿@@ 53
规律@@ 53
之前,@@ 53
碰@@ 53
营业@@ 53
。据了解,@@ 53
经典@@ 53
诊断@@ 53
亿美元@@ 53
面包@@ 53
胸部@@ 53
装置@@ 53
加盟@@ 53
》 53
敲@@ 53
,直到@@ 53
发改委@@ 53
时报》@@ 53
中小投资者@@ 53
埃利斯@@ 53
加速@@ 52
战斗@@ 52
早日@@ 52
忘@@ 52
大道@@ 52
人民的@@ 52
记得@@ 52
乃至@@ 52
裂@@ 52
世界上@@ 52
基础设施@@ 52
、一@@ 52
创业@@ 52
,占@@ 52
重,@@ 52
伴@@ 52
诉讼@@ 52
分钟,@@ 52
骑@@ 52
点半@@ 52
门诊@@ 52
万余@@ 52
3个月@@ 52
忌@@ 52
首席@@ 52
映@@ 52
悬@@ 52
2014年,@@ 52
对手@@ 52
77@@ 52
据悉@@ 52
霞@@ 52
对“@@ 52
部委@@ 52
某些@@ 52
玻璃@@ 52
,都是@@ 52
工厂@@ 52
《关于@@ 52
94@@ 52
明天@@ 52
本土@@ 52
护航@@ 52
逝@@ 52
上演@@ 52
录音@@ 52
脱离@@ 52
[当地时间@@ 52
,很@@ 52
林某@@ 52
较低@@ 52
2.5@@ 52
自杀@@ 52
度的@@ 52
,只能@@ 52
,也就是@@ 52
揽@@ 52
周年@@ 52
赛事@@ 52
镜头@@ 52
拿着@@ 52
翼@@ 52
段时间@@ 52
汉中市@@ 52
丰富的@@ 52
赖@@ 52
27日@@ 52
南瓜@@ 52
阅@@ 52
葡萄@@ 52
一直在@@ 52
烦@@ 52
短信@@ 52
冰毒@@ 52
有很多@@ 52
舒马赫的@@ 52
过多@@ 52
大气@@ 52
头发@@ 52
陵@@ 52
爱的@@ 52
壳@@ 52
路、@@ 52
环保局@@ 52
以色列@@ 52
四川省@@ 52
熙@@ 52
轰@@ 52
1月2日电(@@ 52
新闻联播@@ 52
流量@@ 52
最高人民法院@@ 51
建造@@ 51
餐饮@@ 51
地方政府@@ 51
姓名@@ 51
的三@@ 51
号码@@ 51
孤@@ 51
更大的@@ 51
,努力@@ 51
、水@@ 51
培育@@ 51
第五@@ 51
基于@@ 51
分别为@@ 51
西部@@ 51
人民网北京@@ 51
役@@ 51
裁@@ 51
假日@@ 51
节奏@@ 51
度过@@ 51
迎新年@@ 51
佩@@ 51
讲述@@ 51
出租车@@ 51
接种@@ 51
楚@@ 51
”:@@ 51
恐@@ 51
税务@@ 51
媒体报道,@@ 51
大战@@ 51
玲@@ 51
尤@@ 51
美国的@@ 51
棉@@ 51
,使得@@ 51
。同时@@ 51
有限@@ 51
或将@@ 51
与其@@ 51
196@@ 51
仔细@@ 51
罗伯特@@ 51
判决@@ 51
就此@@ 51
,有效@@ 51
烟草@@ 51
首批@@ 51
寿@@ 51
一座@@ 51
中小@@ 51
教学@@ 51
早已@@ 51
》《@@ 51
管理,@@ 51
了两@@ 51
一生@@ 51
旺@@ 51
罐@@ 51
信号@@ 51
画面@@ 51
版本@@ 51
的感觉@@ 51
昆明@@ 51
一套@@ 51
养生:@@ 51
还可以@@ 51
西红柿@@ 51
枣@@ 51
票房@@ 51
狱@@ 51
谈判@@ 51
当选@@ 51
小勇@@ 51
受贿@@ 51
杜先生@@ 51
500元@@ 51
反对派@@ 51
“呵呵”@@ 51
于女士@@ 51
着“@@ 50
慰问@@ 50
演练@@ 50
。以@@ 50
发展。 50
候@@ 50
信息,@@ 50
识@@ 50
一线@@ 50
生态环境@@ 50
帕@@ 50
矿@@ 50
2009年@@ 50
高度重视@@ 50
辖区@@ 50
听取@@ 50
等方式@@ 50
播放@@ 50
,分别@@ 50
的中@@ 50
凶@@ 50
不明@@ 50
站,@@ 50
客车@@ 50
医保@@ 50
在现场@@ 50
会场@@ 50
进了@@ 50
叙利亚@@ 50
伙伴@@ 50
据台湾@@ 50
56@@ 50
愿望@@ 50
新的一年@@ 50
加拿大@@ 50
识别@@ 50
打破@@ 50
听说@@ 50
5月,@@ 50
辈@@ 50
。美国@@ 50
内阁@@ 50
二十@@ 50
研究院@@ 50
好好@@ 50
58@@ 50
47@@ 50
公共服务@@ 50
对此,@@ 50
强大@@ 50
美食@@ 50
浴@@ 50
较为@@ 50
有利@@ 50
闯@@ 50
:“我@@ 50
管理中心@@ 50
有多@@ 50
at@@ 50
找到了@@ 50
的风险@@ 50
关系,@@ 50
生物安全@@ 50
不出@@ 50
给她@@ 50
队员@@ 50
线索@@ 50
泪@@ 50
,尤其@@ 50
新闻发言人@@ 50
插@@ 50
经营者@@ 50
据美国@@ 50
收视率@@ 50
卓@@ 50
它的@@ 50
,我省@@ 50
南极@@ 50
将为@@ 50
嫩@@ 50
高层@@ 50
婆婆@@ 50
小心@@ 50
由此@@ 50
摔倒@@ 50
论坛@@ 50
标识@@ 50
拘捕@@ 50
巢湖@@ 50
高潮@@ 50
远程@@ 50
巴勒斯坦@@ 50
博社村@@ 50
流感@@ 50
提到@@ 49
宪@@ 49
随时@@ 49
阻止@@ 49
练@@ 49
所有的@@ 49
院长@@ 49
步伐@@ 49
防治@@ 49
当事人@@ 49
择@@ 49
查,@@ 49
径@@ 49
韦@@ 49
对抗@@ 49
观念@@ 49
共识@@ 49
驱@@ 49
关键词@@ 49
五年@@ 49
影响,@@ 49
市、@@ 49
不同,@@ 49
车、@@ 49
上周@@ 49
垂@@ 49
激烈@@ 49
手,@@ 49
留在@@ 49
慈善@@ 49
温馨@@ 49
提示@@ 49
,应@@ 49
每一个@@ 49
。比如@@ 49
墨@@ 49
好处@@ 49
,但他@@ 49
著@@ 49
身的@@ 49
迎接新年@@ 49
领导小组@@ 49
上门@@ 49
等等@@ 49
收取@@ 49
霸@@ 49
婷@@ 49
制的@@ 49
释@@ 49
辩@@ 49
可是@@ 49
经纪人@@ 49
很好的@@ 49
自从@@ 49
送上@@ 49
家住@@ 49
,一位@@ 49
产权@@ 49
省政府@@ 49
壁@@ 49
也许@@ 49
去的@@ 49
审理@@ 49
,根据@@ 49
盲@@ 49
的确@@ 49
担忧@@ 49
个别@@ 49
忧@@ 49
待遇@@ 49
汗@@ 49
禁令@@ 49
区县@@ 49
,车@@ 49
吕@@ 49
仙@@ 49
花园@@ 49
寺@@ 49
的。” 49
了这@@ 49
在线@@ 49
寿命@@ 49
体重@@ 49
彭@@ 49
收藏@@ 49
案例@@ 49
摩@@ 49
1日晚@@ 49
也曾@@ 49
反而@@ 49
上报@@ 49
的原因@@ 49
一批@@ 49
不但@@ 49
胎@@ 49
肩@@ 49
血压@@ 49
乏@@ 49
所谓“@@ 49
46@@ 49
喷@@ 49
,曾@@ 49
固定@@ 49
除夕@@ 49
学者@@ 49
【图】 49
坤@@ 49
田亮@@ 49
榜单@@ 49
街头@@ 49
轨道@@ 49
我市@@ 49
侠@@ 49
中科院@@ 49
。那@@ 49
战机@@ 49
拼车@@ 49
邹侑根@@ 49
核武器@@ 49
智能家居@@ 49
高于@@ 48
要把@@ 48
自信@@ 48
收获@@ 48
办法》@@ 48
景观@@ 48
龄@@ 48
岭@@ 48
急救@@ 48
国内外@@ 48
极大@@ 48
董@@ 48
会、@@ 48
务实@@ 48
社会的@@ 48
老家@@ 48
看看@@ 48
有趣@@ 48
站、@@ 48
电力@@ 48
能力,@@ 48
回复@@ 48
走出@@ 48
二人@@ 48
遮@@ 48
坦言@@ 48
后,他@@ 48
防空@@ 48
现身@@ 48
计生@@ 48
对比@@ 48
绕@@ 48
”为@@ 48
权益@@ 48
大大@@ 48
地产@@ 48
仅为@@ 48
热点@@ 48
爽@@ 48
城市的@@ 48
”,而@@ 48
口岸@@ 48
无烟@@ 48
旁边@@ 48
全程@@ 48
孟@@ 48
受害@@ 48
驾车@@ 48
身材@@ 48
维权@@ 48
字,@@ 48
数十@@ 48
乌鲁木齐@@ 48
四大@@ 48
公款@@ 48
新区@@ 48
雕@@ 48
。警方@@ 48
用来@@ 48
,人@@ 48
感染@@ 48
一体@@ 48
.0@@ 48
论文@@ 48
,各@@ 48
优良@@ 48
事项@@ 48
1-@@ 48
当场@@ 48
”。但@@ 48
职业病@@ 48
港澳@@ 48
着陆@@ 48
两种@@ 48
iPhone@@ 48
奖金@@ 48
钾@@ 48
下面@@ 48
细菌@@ 48
句话@@ 48
肉类@@ 48
刷牙@@ 48
遂@@ 48
早前@@ 48
熊@@ 48
死者@@ 48
奥巴马@@ 48
人民网海南视窗@@ 48
剪@@ 48
成的@@ 48
案发@@ 48
外媒@@ 48
魏泽楷@@ 48
研究生@@ 48
女神@@ 48
刘恺威@@ 48
南方@@ 47
尤其是@@ 47
取得了@@ 47
涌@@ 47
,一旦@@ 47
已成为@@ 47
日本人@@ 47
侵略@@ 47
开工@@ 47
节约@@ 47
问题上@@ 47
公布的@@ 47
的。”@@ 47
研究中心@@ 47
研究员@@ 47
节假日@@ 47
喜剧@@ 47
黄色@@ 47
、中国@@ 47
目的地@@ 47
城管@@ 47
庸@@ 47
上有@@ 47
拳@@ 47
权威@@ 47
筹@@ 47
之际,@@ 47
一项@@ 47
此,@@ 47
2006年@@ 47
57@@ 47
得到了@@ 47
领土@@ 47
货币@@ 47
就像@@ 47
流动性@@ 47
钱,@@ 47
,警方@@ 47
甚@@ 47
兆@@ 47
典@@ 47
烂@@ 47
电梯@@ 47
说,她@@ 47
。前@@ 47
公办养老机构@@ 47
数额@@ 47
造成的@@ 47
4000@@ 47
疆@@ 47
凸显@@ 47
一系列@@ 47
蒸@@ 47
意愿@@ 47
又是@@ 47
活动的@@ 47
挨@@ 47
半年@@ 47
青岛@@ 47
臂@@ 47
纠@@ 47
严重的@@ 47
院士@@ 47
促销@@ 47
态势@@ 47
愈@@ 47
策@@ 47
看着@@ 47
停产@@ 47
采集@@ 47
业内人士@@ 47
仪式@@ 47
外面@@ 47
撤@@ 47
想象@@ 47
哪里@@ 47
马年@@ 47
宾@@ 47
,下@@ 47
亮点@@ 47
浓度@@ 47
的需求@@ 47
赛车@@ 47
构@@ 47
穴@@ 47
ETC@@ 47
慰@@ 47
阶梯@@ 47
神奇@@ 47
俱乐部@@ 47
。如今@@ 47
住房保障@@ 47
领馆@@ 47
12306网站@@ 47
输入@@ 47
榆林@@ 47
爷@@ 47
潜艇@@ 47
股票@@ 46
警惕@@ 46
营造@@ 46
关系。@@ 46
研@@ 46
开设@@ 46
安置@@ 46
毅@@ 46
畏@@ 46
防护@@ 46
另外,@@ 46
预警@@ 46
风景@@ 46
有期徒刑@@ 46
亡@@ 46
立场@@ 46
口,@@ 46
”之@@ 46
活力@@ 46
盆@@ 46
本地@@ 46
宅@@ 46
》。@@ 46
币@@ 46
样的@@ 46
缝@@ 46
,除@@ 46
得了@@ 46
或是@@ 46
疗@@ 46
更好@@ 46
丘@@ 46
一周@@ 46
办公楼@@ 46
ad@@ 46
都市@@ 46
提供的@@ 46
棋@@ 46
日本首相安倍晋三@@ 46
染@@ 46
在今年@@ 46
8日@@ 46
名为@@ 46
挣@@ 46
2.0@@ 46
东海@@ 46
清新@@ 46
。张@@ 46
周恩来@@ 46
更新@@ 46
毫不@@ 46
上去@@ 46
股权@@ 46
纳税@@ 46
49@@ 46
称,“@@ 46
相关负责人@@ 46
。大@@ 46
图) 46
领域的@@ 46
邮政@@ 46
大楼@@ 46
外科@@ 46
主张@@ 46
,不但@@ 46
入住@@ 46
暂停@@ 46
村庄@@ 46
名的@@ 46
痕@@ 46
逐@@ 46
拍卖@@ 46
10年@@ 46
带来的@@ 46
人大常委会@@ 46
。因此,@@ 46
城镇化@@ 46
制,@@ 46
在家@@ 46
不容易@@ 46
160@@ 46
99@@ 46
,有些@@ 46
的目标@@ 46
暴露@@ 46
绍@@ 46
大国@@ 46
串@@ 46
摔@@ 46
长寿@@ 46
鼻@@ 46
是什么@@ 46
岳@@ 46
大事@@ 46
新加坡@@ 46
el@@ 46
南非@@ 46
白天@@ 46
副书记@@ 46
大会@@ 46
崔@@ 46
太太@@ 46
多吃@@ 46
自愿@@ 46
种食物@@ 46
娇@@ 46
不满@@ 46
新一轮@@ 46
秘书长@@ 46
胃肠@@ 46
出动@@ 46
转发@@ 46
精子@@ 46
依靠@@ 46
起火@@ 46
,三@@ 46
让我@@ 46
养老金@@ 46
6000@@ 46
机器@@ 46
大病保险@@ 46
警官@@ 46
严厉@@ 46
河北省@@ 46
西方@@ 46
农历@@ 46
人工耳蜗@@ 46
“我们@@ 45
的情况下,@@ 45
通讯@@ 45
没有任何@@ 45
对记者@@ 45
出来,@@ 45
人心@@ 45
站台@@ 45
规定的@@ 45
责令@@ 45
隐患@@ 45
靖国神社@@ 45
。19@@ 45
使命@@ 45
经济社会发展@@ 45
姚@@ 45
习近平总书记@@ 45
门槛@@ 45
线,@@ 45
加强对@@ 45
治安@@ 45
石家庄@@ 45
邻@@ 45
夜,@@ 45
称为“@@ 45
商店@@ 45
(含@@ 45
领先@@ 45
水、@@ 45
柜@@ 45
兄弟@@ 45
湘@@ 45
婴儿@@ 45
下来,@@ 45
采购@@ 45
火车@@ 45
现场,@@ 45
皆@@ 45
10分钟@@ 45
走了@@ 45
将来@@ 45
4月,@@ 45
党内@@ 45
士兵@@ 45
中心的@@ 45
日益@@ 45
全民@@ 45
介@@ 45
目录@@ 45
签署@@ 45
姑娘@@ 45
啦@@ 45
十足@@ 45
,当时@@ 45
失望@@ 45
排除@@ 45
高端@@ 45
,如今@@ 45
年终@@ 45
走在@@ 45
两家@@ 45
外观@@ 45
着急@@ 45
熬@@ 45
手中@@ 45
董事长@@ 45
这名@@ 45
赵先生@@ 45
住了@@ 45
据了解@@ 45
位的@@ 45
夜间@@ 45
跟踪@@ 45
干燥@@ 45
的一位@@ 45
图为@@ 45
盼@@ 45
荡@@ 45
--@@ 45
都被@@ 45
冬天@@ 45
捕@@ 45
积累@@ 45
也就@@ 45
“小@@ 45
更好的@@ 45
丧@@ 45
了对@@ 45
书法@@ 45
,这也是@@ 45
,男@@ 45
效应@@ 45
景点@@ 45
呀@@ 45
15日@@ 45
今天,@@ 45
[国家@@ 45
22日@@ 45
呼吸@@ 45
难道@@ 45
北部@@ 45
扫描@@ 45
连接@@ 45
人都@@ 45
将近@@ 45
ol@@ 45
肌肉@@ 45
杂志@@ 45
想法@@ 45
,我市@@ 45
用水@@ 45
捐款@@ 45
郭德纲@@ 45
,就能@@ 45
成龙@@ 45
豆浆@@ 45
的手@@ 45
。近日,@@ 45
健康的@@ 45
、黄@@ 45
琴@@ 45
97@@ 45
早餐@@ 45
少吃@@ 45
糖尿病@@ 45
红薯@@ 45
李亚鹏@@ 45
闭@@ 45
性欲@@ 45
,直接@@ 45
块钱@@ 45
干净@@ 45
团伙@@ 45
绿道@@ 45
成都市@@ 45
Rain@@ 45
出“@@ 45
宪法@@ 45
林业@@ 45
邓大妈@@ 45
性早熟@@ 45
刘许强@@ 45
维也纳@@ 45
甲午@@ 45
苏-35@@ 45
海陵王@@ 45
以来的@@ 44
世界和平@@ 44
恐怖袭击@@ 44
坚@@ 44
强的@@ 44
2013年12月29日@@ 44
突发@@ 44
而不@@ 44
遭受@@ 44
组长@@ 44
地球@@ 44
许可证@@ 44
;对@@ 44
物,@@ 44
欢乐@@ 44
类型@@ 44
必然@@ 44
珠@@ 44
城乡居民@@ 44
%和@@ 44
比重@@ 44
、社会@@ 44
冷空气@@ 44
西南@@ 44
贵州@@ 44
41@@ 44
企业、@@ 44
伦敦@@ 44
专用@@ 44
名为“@@ 44
万辆@@ 44
万人次@@ 44
现有@@ 44
握@@ 44
看到了@@ 44
几十@@ 44
”,并@@ 44
场景@@ 44
一把手@@ 44
蒂@@ 44
桶@@ 44
帝@@ 44
万个@@ 44
闽江@@ 44
全世界@@ 44
将对@@ 44
奋@@ 44
名义@@ 44
恨@@ 44
转让@@ 44
24日@@ 44
本月@@ 44
合唱@@ 44
中心,@@ 44
已经被@@ 44
在地@@ 44
汽@@ 44
实力@@ 44
售价@@ 44
锐@@ 44
13日@@ 44
为人@@ 44
5年,@@ 44
党委@@ 44
的时@@ 44
档案@@ 44
珠宝@@ 44
床上@@ 44
独特@@ 44
二次@@ 44
较高@@ 44
逸@@ 44
三十@@ 44
节,@@ 44
的一次@@ 44
嫌犯@@ 44
若干@@ 44
好转@@ 44
有一些@@ 44
副市长@@ 44
割@@ 44
高级@@ 44
饿@@ 44
苗@@ 44
开发商@@ 44
差距@@ 44
同一@@ 44
、华@@ 44
彼此@@ 44
卫星@@ 44
游行@@ 44
组织部@@ 44
领导班子@@ 44
营销@@ 44
说:@@ 44
超越@@ 44
晋@@ 44
日历@@ 44
一份@@ 44
旦@@ 44
葱@@ 44
车王@@ 44
脂@@ 44
不少网友@@ 44
泡脚@@ 44
疼@@ 44
楠@@ 44
肠胃@@ 44
系统的@@ 44
进食@@ 44
续@@ 44
的女@@ 44
,我就@@ 44
波士顿@@ 44
神秘@@ 44
住建@@ 44
香港警方@@ 44
黄桂提@@ 44
合肥市@@ 44
亏损@@ 44
算是@@ 44
彬@@ 44
就餐@@ 44
公安部@@ 44
维也纳新年音乐会@@ 44
斯洛伐克@@ 44
制毒@@ 44
埃文@@ 44
雪莲@@ 44
扎丹@@ 44
巩固@@ 43
的经济@@ 43
》(@@ 43
中旬@@ 43
,这样的@@ 43
漫@@ 43
中新网@@ 43
化。 43
物、@@ 43
。对此,@@ 43
干警@@ 43
扭@@ 43
资本市场@@ 43
兹@@ 43
早晨@@ 43
欣赏@@ 43
甜蜜@@ 43
延长@@ 43
产值@@ 43
将从@@ 43
薛某@@ 43
中共中央政治局@@ 43
打了@@ 43
追究@@ 43
心情@@ 43
子”@@ 43
郭涛@@ 43
派出所民警@@ 43
吃了@@ 43
哪个@@ 43
之下,@@ 43
却是@@ 43
太多@@ 43
油漆@@ 43
的相关@@ 43
纳税人@@ 43
读者@@ 43
警示@@ 43
一同@@ 43
奇葩@@ 43
地面@@ 43
质的@@ 43
坦@@ 43
5日@@ 43
财经@@ 43
元钱@@ 43
死亡。 43
炫@@ 43
公务员@@ 43
7日@@ 43
,就算@@ 43
处分@@ 43
时任@@ 43
,令@@ 43
就被@@ 43
大使@@ 43
挑衅@@ 43
居然@@ 43
,没想到@@ 43
中院@@ 43
订单@@ 43
伪造@@ 43
之一。 43
正能量@@ 43
000@@ 43
棉花@@ 43
千万@@ 43
上级@@ 43
不上@@ 43
,按@@ 43
作者@@ 43
济南@@ 43
基因@@ 43
辨@@ 43
书画@@ 43
在《@@ 43
怎样@@ 43
原料@@ 43
行为,@@ 43
缠@@ 43
奉@@ 43
棒@@ 43
看了@@ 43
了 43
出血@@ 43
智能手机@@ 43
元的@@ 43
来到了@@ 43
w@@ 43
拥@@ 43
第二季@@ 43
登录@@ 43
致命@@ 43
远远@@ 43
正规@@ 43
办公厅@@ 43
,影响@@ 43
现在的@@ 43
昭@@ 43
中含有@@ 43
秘@@ 43
很少@@ 43
剧情@@ 43
仔@@ 43
关注。 43
巷@@ 43
目光@@ 43
逮捕@@ 43
总领馆@@ 43
礁@@ 43
儒@@ 43
伏@@ 43
核潜艇@@ 43
轰炸机@@ 43
机器人@@ 43
大批@@ 43
财政补贴@@ 43
队的@@ 42
,坚决@@ 42
携手@@ 42
一样的@@ 42
册@@ 42
址@@ 42
有关负责人@@ 42
情况。 42
声称@@ 42
局,@@ 42
对接@@ 42
。按照@@ 42
群众的@@ 42
自觉@@ 42
各部门@@ 42
东部@@ 42
调节@@ 42
意见》@@ 42
这部@@ 42
全家@@ 42
抬@@ 42
的设计@@ 42
最初@@ 42
缩短@@ 42
空调@@ 42
陌生@@ 42
处的@@ 42
不及@@ 42
先行@@ 42
斯诺登@@ 42
否@@ 42
埃及@@ 42
赢得@@ 42
公布了@@ 42
”了@@ 42
服务的@@ 42
昂@@ 42
时间,@@ 42
委托@@ 42
环球@@ 42
3次@@ 42
海域@@ 42
。后@@ 42
,让人@@ 42
一件@@ 42
,最近@@ 42
猫@@ 42
前天@@ 42
,大部分@@ 42
吵架@@ 42
的儿子@@ 42
争吵@@ 42
实习生@@ 42
弟弟@@ 42
蓉@@ 42
独自@@ 42
尴尬@@ 42
拘留@@ 42
时许@@ 42
。经过@@ 42
当天,@@ 42
将进一步@@ 42
。当时@@ 42
抚@@ 42
隐形@@ 42
看不@@ 42
内外@@ 42
都能@@ 42
便是@@ 42
影响。 42
耐@@ 42
椅@@ 42
机票@@ 42
制造业@@ 42
不愿@@ 42
的可能性@@ 42
“最@@ 42
人为@@ 42
足以@@ 42
依托@@ 42
克,@@ 42
忘记@@ 42
是从@@ 42
1号@@ 42
蛇@@ 42
为其@@ 42
16日@@ 42
在美国@@ 42
宾馆@@ 42
幕@@ 42
毕@@ 42
沟@@ 42
制止@@ 42
去世@@ 42
不已@@ 42
禽@@ 42
电器@@ 42
下半年@@ 42
滋@@ 42
悄悄@@ 42
的女性@@ 42
今年的@@ 42
热门@@ 42
飞往@@ 42
航空公司@@ 42
梅艳芳@@ 42
,每次@@ 42
远离@@ 42
菠菜@@ 42
上映@@ 42
有害@@ 42
的李@@ 42
●@@ 42
疼痛@@ 42
摩托车@@ 42
恒大@@ 42
扑@@ 42
驻旧金山总领馆@@ 42
贺新@@ 42
张全@@ 42
的一年@@ 41
克服@@ 41
训@@ 41
的就是@@ 41
电话,@@ 41
中国人民@@ 41
更有@@ 41
疾@@ 41
甩@@ 41
期限@@ 41
坚守@@ 41
域@@ 41
凝聚@@ 41
交通运输@@ 41
,加快@@ 41
屏@@ 41
效益@@ 41
税收@@ 41
幅度@@ 41
所得@@ 41
的能力@@ 41
民意@@ 41
即可@@ 41
烟花@@ 41
肚@@ 41
开门@@ 41
轨道交通@@ 41
延伸@@ 41
国土@@ 41
的城市@@ 41
网友们@@ 41
行李@@ 41
54@@ 41
山、@@ 41
各界@@ 41
充分发挥@@ 41
昨日上午@@ 41
收集@@ 41
,老@@ 41
走上@@ 41
泊@@ 41
,他就@@ 41
之外,@@ 41
影片@@ 41
迎新@@ 41
对话@@ 41
体检@@ 41
妻@@ 41
焰火@@ 41
拆除@@ 41
运作@@ 41
76@@ 41
阔@@ 41
这一年@@ 41
海峡@@ 41
道。 41
大门@@ 41
360@@ 41
赫@@ 41
,一定@@ 41
,不是@@ 41
加油@@ 41
控股@@ 41
诞生@@ 41
豪华@@ 41
2007年@@ 41
赤@@ 41
时,他@@ 41
伤,@@ 41
描述@@ 41
一事@@ 41
李先生@@ 41
闲@@ 41
道的@@ 41
级别@@ 41
乌鲁木齐市@@ 41
安居@@ 41
800@@ 41
受理@@ 41
GDP@@ 41
,致使@@ 41
重的@@ 41
3万@@ 41
100多@@ 41
工艺@@ 41
车门@@ 41
66@@ 41
。截至@@ 41
2005年@@ 41
贫困@@ 41
血管@@ 41
不过,@@ 41
终端@@ 41
暨@@ 41
冬泳@@ 41
护照@@ 41
冰箱@@ 41
短期@@ 41
不可能@@ 41
样子@@ 41
争夺@@ 41
羊肉@@ 41
认可@@ 41
据日本@@ 41
太平洋@@ 41
券@@ 41
必要的@@ 41
病,@@ 41
it@@ 41
,否则@@ 41
曹@@ 41
事后@@ 41
音乐会@@ 41
吉克隽逸@@ 41
草酸@@ 41
膳食@@ 41
日报》@@ 41
件事@@ 41
还不@@ 41
乐团@@ 41
性格@@ 41
的发@@ 41
差不多@@ 41
昏@@ 41
搜@@ 41
盈@@ 41
诚信@@ 41
名叫@@ 41
淫@@ 41
是对@@ 41
夹@@ 41
坑@@ 41
校长@@ 41
制贩毒@@ 41
傻@@ 40
ay@@ 40
康复@@ 40
地、@@ 40
百年@@ 40
制度。@@ 40
记载@@ 40
,并对@@ 40
不宜@@ 40
被告@@ 40
亲切@@ 40
显著@@ 40
经济工作会议@@ 40
、王@@ 40
医药@@ 40
督@@ 40
,推进@@ 40
契@@ 40
担当@@ 40
。除了@@ 40
在此@@ 40
谈及@@ 40
”字@@ 40
,部分@@ 40
罪、@@ 40
只好@@ 40
辅@@ 40
的研究@@ 40
)和@@ 40
漳州@@ 40
双手@@ 40
揭秘@@ 40
每周@@ 40
补助@@ 40
吞@@ 40
转账@@ 40
各国@@ 40
第三次全国经济普查@@ 40
荣誉@@ 40
93@@ 40
尊@@ 40
民进党@@ 40
考验@@ 40
解放@@ 40
人民政府@@ 40
征收@@ 40
123@@ 40
唯@@ 40
山区@@ 40
搭档@@ 40
中华人民共和国@@ 40
熟悉@@ 40
”,但@@ 40
鼠@@ 40
有什么@@ 40
正当@@ 40
时有@@ 40
。当天@@ 40
随机@@ 40
一半@@ 40
大众@@ 40
左右的@@ 40
的热情@@ 40
已经成为@@ 40
办案@@ 40
首相@@ 40
吴天君@@ 40
能不能@@ 40
活动。 40
弗@@ 40
保密@@ 40
分解@@ 40
一级@@ 40
将“@@ 40
时速@@ 40
毫@@ 40
出来的@@ 40
塑料@@ 40
旨在@@ 40
75@@ 40
性。@@ 40
组建@@ 40
出门@@ 40
,一起@@ 40
大爷@@ 40
一路@@ 40
种类@@ 40
种种@@ 40
主导@@ 40
10月,@@ 40
多项@@ 40
、市@@ 40
慎@@ 40
传言@@ 40
的声音@@ 40
爱好者@@ 40
的天@@ 40
的孩子@@ 40
肉、@@ 40
鸭@@ 40
的多@@ 40
笔者@@ 40
盟@@ 40
纽约时报@@ 40
一对@@ 40
幸运@@ 40
饰演@@ 40
李连杰@@ 40
柱@@ 40
指控@@ 40
绿化@@ 40
也不能@@ 40
但是@@ 40
et@@ 40
开发区@@ 40
岛屿@@ 40
新鲜@@ 40
,相关@@ 40
见证@@ 40
感叹@@ 40
,以免@@ 40
篮板@@ 40
招聘@@ 40
聘@@ 40
精力@@ 40
省长@@ 40
新人@@ 40
氧化@@ 40
饮料@@ 40
新年音乐会@@ 40
蛋糕@@ 40
,他的@@ 40
王先东@@ 40
便宜@@ 40
租房@@ 40
好几@@ 40
任职@@ 40
抗议@@ 40
渡@@ 40
真相@@ 40
应该是@@ 40
前后@@ 40
提起@@ 40
x@@ 40
指纹@@ 40
妹妹@@ 40
萧蔷@@ 40
1月4日@@ 40
楼兰@@ 40
72@@ 39
,继续@@ 39
他是@@ 39
,其余@@ 39
透明@@ 39
的政治@@ 39
上空@@ 39
优质@@ 39
成“@@ 39
社会保障@@ 39
腐@@ 39
万户@@ 39
沃@@ 39
《意见》@@ 39
,若@@ 39
理想@@ 39
两天@@ 39
公交车@@ 39
极为@@ 39
文艺@@ 39
部和@@ 39
工地@@ 39
遵守@@ 39
给自己@@ 39
估@@ 39
示威@@ 39
。此次@@ 39
。陈@@ 39
带来了@@ 39
承受@@ 39
加大对@@ 39
金融机构@@ 39
有利于@@ 39
涉案@@ 39
采访时,@@ 39
欧盟@@ 39
中山@@ 39
,他在@@ 39
掀起@@ 39
,打@@ 39
产量@@ 39
A股@@ 39
通知》@@ 39
缴纳@@ 39
国土资源@@ 39
渐@@ 39
少数@@ 39
。因@@ 39
11点@@ 39
邮件@@ 39
。另外@@ 39
8000@@ 39
货物@@ 39
。”(@@ 39
习惯,@@ 39
忽然@@ 39
距@@ 39
谦@@ 39
11日@@ 39
而被@@ 39
的公司@@ 39
百万@@ 39
次数@@ 39
公里的@@ 39
。尽管@@ 39
第二天@@ 39
朋友们@@ 39
歹徒@@ 39
纤维@@ 39
三级@@ 39
会长@@ 39
约束@@ 39
称为@@ 39
故意@@ 39
3人@@ 39
奥运@@ 39
产能@@ 39
滞@@ 39
主管部门@@ 39
疫情@@ 39
初,@@ 39
泥@@ 39
茂@@ 39
观看@@ 39
过于@@ 39
和“@@ 39
心,@@ 39
助理@@ 39
临近@@ 39
产生的@@ 39
。当然@@ 39
仍是@@ 39
捐献@@ 39
半年,@@ 39
大规模@@ 39
is@@ 39
会被@@ 39
羽@@ 39
吗?” 39
在新@@ 39
时会@@ 39
游泳@@ 39
天下@@ 39
传统文化@@ 39
密码@@ 39
着手@@ 39
系统,@@ 39
浅@@ 39
旅行社@@ 39
蕾@@ 39
亲密@@ 39
存在的@@ 39
养生@@ 39
【组图】 39
命运@@ 39
清洁@@ 39
古代@@ 39
失败@@ 39
给你@@ 39
绘@@ 39
这条@@ 39
小的@@ 39
者。 39
选择了@@ 39
的母亲@@ 39
发射@@ 39
天。@@ 39
保障房@@ 39
信息。 39
罩@@ 39
养老保险@@ 39
费、@@ 39
哥哥@@ 39
食堂@@ 39
2000年@@ 39
歌葩@@ 39
收视份额@@ 39
韶山@@ 39
祖国@@ 38
生存@@ 38
靠近@@ 38
民营@@ 38
在这里@@ 38
和人民@@ 38
,未来@@ 38
联动@@ 38
的内容@@ 38
改革创新@@ 38
富裕@@ 38
、文化@@ 38
平等@@ 38
体,@@ 38
是要@@ 38
亿元,同比增长@@ 38
特点,@@ 38
在全国@@ 38
了《关于@@ 38
起点@@ 38
迟@@ 38
视为@@ 38
12月31日,@@ 38
南北@@ 38
消耗@@ 38
隧道@@ 38
休假@@ 38
出发,@@ 38
相应@@ 38
基本医疗保险@@ 38
记者了解到,@@ 38
央广@@ 38
妮@@ 38
分手@@ 38
年前的@@ 38
修宪@@ 38
的数据@@ 38
选举@@ 38
表示“@@ 38
军方@@ 38
遏制@@ 38
11月,@@ 38
溜@@ 38
三天@@ 38
频频@@ 38
妆@@ 38
悲@@ 38
裸@@ 38
小时的@@ 38
,还要@@ 38
受到了@@ 38
也不是@@ 38
获取@@ 38
下跌@@ 38
84@@ 38
:30@@ 38
进去@@ 38
看起来@@ 38
金库@@ 38
IPO@@ 38
2013年10月@@ 38
澳@@ 38
边防@@ 38
名男子@@ 38
面上@@ 38
商铺@@ 38
公安分局@@ 38
董事@@ 38
最美@@ 38
会议,@@ 38
的内@@ 38
越来越多@@ 38
疲劳@@ 38
增长,@@ 38
搜索@@ 38
融合@@ 38
贸@@ 38
标准的@@ 38
将被@@ 38
“好@@ 38
迎来了@@ 38
侵犯@@ 38
押@@ 38
人们的@@ 38
活动。@@ 38
,重@@ 38
第2@@ 38
郁@@ 38
查获@@ 38
倍。 38
、低@@ 38
起飞@@ 38
依赖@@ 38
均为@@ 38
干预@@ 38
满了@@ 38
填@@ 38
的现象@@ 38
牧@@ 38
运动员@@ 38
网站消息,@@ 38
新修订药品GMP@@ 38
包装@@ 38
:在@@ 38
的发生@@ 38
市纪委@@ 38
27日,@@ 38
铜@@ 38
华人@@ 38
侯@@ 38
致电@@ 38
警务@@ 38
的男@@ 38
村里@@ 38
。而在@@ 38
青睐@@ 38
沙发@@ 38
思考@@ 38
柯@@ 38
充足@@ 38
服役@@ 38
最早@@ 38
姿势@@ 38
很大的@@ 38
伸@@ 38
很容易@@ 38
的背景@@ 38
逛@@ 38
回落@@ 38
词汇@@ 38
,一辆@@ 38
键@@ 38
不见@@ 38
山西@@ 38
损坏@@ 38
亏@@ 38
艺人@@ 38
情人@@ 38
吧。 38
洗澡@@ 38
裙@@ 38
子 38
吃得@@ 38
徒@@ 38
有没有@@ 38
马年春晚@@ 38
托管@@ 38
家具@@ 38
遥@@ 38
原材料@@ 38
失踪@@ 38
联盟@@ 38
庆丰包子铺@@ 38
斥@@ 38
宁波@@ 38
河豚@@ 38
学校的@@ 38
吉尼斯世界纪录@@ 38
(记者@@ 38
造假@@ 38
os@@ 38
碑@@ 38
入学@@ 38
1月1日电(记者@@ 37
党和@@ 37
现代化@@ 37
,同@@ 37
看望@@ 37
,“我们@@ 37
这份@@ 37
辱@@ 37
一年,@@ 37
50万@@ 37
法律法规@@ 37
监督管理@@ 37
新规@@ 37
做出了@@ 37
相关的@@ 37
的生@@ 37
安全管理@@ 37
。日本@@ 37
扩张@@ 37
委、@@ 37
中、@@ 37
前期@@ 37
树立@@ 37
担保@@ 37
,市场@@ 37
,其中,@@ 37
肇事@@ 37
目的是@@ 37
装饰@@ 37
等候@@ 37
2013年度@@ 37
福建省@@ 37
自助@@ 37
幻@@ 37
作出了@@ 37
启用@@ 37
现状@@ 37
小孩@@ 37
身体健康@@ 37
烤@@ 37
被指@@ 37
,看到@@ 37
大厦@@ 37
捧@@ 37
向记者@@ 37
踏@@ 37
”,是@@ 37
之外@@ 37
毕业生@@ 37
倒数@@ 37
28日@@ 37
发票@@ 37
正常的@@ 37
19日@@ 37
被盗@@ 37
培@@ 37
躺在@@ 37
服装@@ 37
事件,@@ 37
清算@@ 37
主管@@ 37
悦@@ 37
结算@@ 37
常务@@ 37
数据,@@ 37
季节@@ 37
26日@@ 37
许多人@@ 37
可谓@@ 37
的马@@ 37
纠正@@ 37
实施“@@ 37
。他说,@@ 37
,这位@@ 37
决议@@ 37
29日@@ 37
能在@@ 37
钢铁@@ 37
菊@@ 37
接连@@ 37
可在@@ 37
辞@@ 37
队,@@ 37
,她们@@ 37
表彰@@ 37
”。“@@ 37
安全的@@ 37
的过程@@ 37
欺@@ 37
领取@@ 37
吃的@@ 37
厘米@@ 37
头、@@ 37
厚的@@ 37
车。 37
场的@@ 37
的决定@@ 37
省份@@ 37
误区@@ 37
事实上,@@ 37
技能@@ 37
寻求@@ 37
市场化@@ 37
人员的@@ 37
圣诞@@ 37
意志@@ 37
180@@ 37
子。 37
事宜@@ 37
是否会@@ 37
大妈@@ 37
”中@@ 37
感受到@@ 37
副局长@@ 37
住院@@ 37
深度@@ 37
阅读@@ 37
50元@@ 37
中部@@ 37
杨议@@ 37
研究发现,@@ 37
保守@@ 37
关系。 37
普及@@ 37
毒素@@ 37
。今天@@ 37
绵@@ 37
传媒@@ 37
漂亮@@ 37
分泌@@ 37
纹@@ 37
禁区@@ 37
排毒@@ 37
囊@@ 37
迹象@@ 37
李嫣@@ 37
大学生@@ 37
轻易@@ 37
耶@@ 37
曼联@@ 37
保姆@@ 37
发现了@@ 37
燃烧@@ 37
加油站@@ 37
卫计委@@ 37
阿富汗@@ 37
承包@@ 37
结果,@@ 37
预报@@ 37
李女士@@ 37
新街口@@ 37
歪@@ 37
拆迁@@ 37
个月,@@ 37
英文@@ 37
之余@@ 37
又有@@ 37
完成投资@@ 37
1月2日,@@ 37
汉字@@ 37
军营@@ 37
特雷佩@@ 37
组织的@@ 36
清除@@ 36
日的@@ 36
前进@@ 36
国家主权@@ 36
平民@@ 36
加剧@@ 36
简易@@ 36
这个“@@ 36
告别@@ 36
必将@@ 36
实名@@ 36
5万元@@ 36
战胜@@ 36
引领@@ 36
政法@@ 36
宗教@@ 36
法治@@ 36
2013年12月31日,@@ 36
手持@@ 36
,李娜@@ 36
指导意见@@ 36
均衡@@ 36
权,@@ 36
分析,@@ 36
。专家@@ 36
捞@@ 36
后,将@@ 36
概@@ 36
弯@@ 36
投放@@ 36
习近平在@@ 36
民政@@ 36
抢救@@ 36
救治@@ 36
,先@@ 36
说,在@@ 36
有不少@@ 36
,也要@@ 36
第六@@ 36
集中在@@ 36
提醒,@@ 36
蓝色@@ 36
近10@@ 36
和妻子@@ 36
耀@@ 36
粥@@ 36
的她@@ 36
了自己@@ 36
态@@ 36
后续@@ 36
晚会@@ 36
,中央@@ 36
结果。 36
、陈@@ 36
21日@@ 36
怎样的@@ 36
哀@@ 36
花了@@ 36
前一@@ 36
合生元@@ 36
气、@@ 36
季度@@ 36
思路@@ 36
性。 36
在其@@ 36
孝@@ 36
”的“@@ 36
就“@@ 36
2013年12月30日,@@ 36
网友的@@ 36
10点@@ 36
化解@@ 36
富豪@@ 36
钻石@@ 36
尔·@@ 36
辛苦@@ 36
捍卫@@ 36
获悉@@ 36
主办@@ 36
狂欢@@ 36
标准,@@ 36
市的@@ 36
萍@@ 36
极其@@ 36
,按照@@ 36
的最大@@ 36
研制@@ 36
炉@@ 36
寒冷@@ 36
2004年@@ 36
印发@@ 36
缺少@@ 36
塑@@ 36
消防官兵@@ 36
生物威胁防御@@ 36
流失@@ 36
协同@@ 36
奇怪@@ 36
感慨@@ 36
青少年@@ 36
有序@@ 36
细化@@ 36
服务业@@ 36
权、@@ 36
监护@@ 36
占据@@ 36
攀@@ 36
媳妇@@ 36
沿着@@ 36
接下来@@ 36
”。他@@ 36
臀@@ 36
馅@@ 36
日期@@ 36
桑@@ 36
伍@@ 36
病症@@ 36
,刘@@ 36
咬@@ 36
,呼吁@@ 36
信用卡@@ 36
陷@@ 36
召@@ 36
搭载@@ 36
猴@@ 36
婚纱@@ 36
锁定@@ 36
个性@@ 36
人被@@ 36
茶叶@@ 36
,也让@@ 36
子宫@@ 36
的精神@@ 36
鞋@@ 36
经期@@ 36
囚犯@@ 36
奏@@ 36
说的@@ 36
到的@@ 36
曹某@@ 36
新闻发布会@@ 36
温州@@ 36
来源:@@ 36
。自@@ 36
下午5@@ 36
烟花爆竹@@ 36
文学@@ 36
68@@ 36
净利润@@ 36
蟒蛇@@ 36
江青@@ 36
航运@@ 36
大气污染@@ 36
_@@ 36
短裙@@ 36
徐琴@@ 36
李茜@@ 36
马儿@@ 36
阿华@@ 36
策略@@ 35
伤者@@ 35
介绍说,@@ 35
的人们@@ 35
严禁@@ 35
维修@@ 35
铁路运输@@ 35
困扰@@ 35
焚烧@@ 35
代理@@ 35
惯@@ 35
已是@@ 35
不让@@ 35
三中全会@@ 35
,大力@@ 35
赋予@@ 35
的社会@@ 35
实现了@@ 35
教育、@@ 35
吉林@@ 35
的方法@@ 35
点燃@@ 35
辞旧迎新@@ 35
朝阳@@ 35
得以@@ 35
国税@@ 35
隔离@@ 35
是一名@@ 35
农民工@@ 35
常规@@ 35
回头@@ 35
中华民族@@ 35
会上,@@ 35
急诊@@ 35
餐厅@@ 35
该剧@@ 35
主角@@ 35
特别的@@ 35
“两@@ 35
色彩@@ 35
擅自@@ 35
处以@@ 35
6日@@ 35
未来的@@ 35
搏@@ 35
28日,@@ 35
便捷@@ 35
仓@@ 35
通信@@ 35
之内@@ 35
捐@@ 35
提倡@@ 35
2013年9月@@ 35
整顿@@ 35
巨额@@ 35
百分@@ 35
分左右,@@ 35
唤@@ 35
,共同@@ 35
在新年@@ 35
授@@ 35
疯@@ 35
班子@@ 35
铭@@ 35
历史的@@ 35
勃@@ 35
,不管@@ 35
周岁@@ 35
评议@@ 35
亲戚@@ 35
排查@@ 35
成效@@ 35
形态@@ 35
每人@@ 35
等级@@ 35
滩@@ 35
的路@@ 35
甘肃@@ 35
将成为@@ 35
线的@@ 35
半个@@ 35
枝@@ 35
萝卜@@ 35
的选择@@ 35
,2012年@@ 35
另一方面@@ 35
框架@@ 35
芦@@ 35
的市民@@ 35
可疑@@ 35
安保@@ 35
的车辆@@ 35
新版@@ 35
自家@@ 35
仅有@@ 35
圆满@@ 35
不仅是@@ 35
媒体的@@ 35
推销@@ 35
下旬@@ 35
品质@@ 35
婴@@ 35
颖@@ 35
、更@@ 35
尼亚@@ 35
掀@@ 35
升值@@ 35
辣椒@@ 35
业的@@ 35
菜、@@ 35
一款@@ 35
色的@@ 35
过去的@@ 35
心脏病@@ 35
腺@@ 35
足够@@ 35
。此前@@ 35
的工作人员@@ 35
中最@@ 35
余额宝@@ 35
带有@@ 35
机型@@ 35
粒@@ 35
穆@@ 35
岁月@@ 35
约会@@ 35
》。 35
如果是@@ 35
磷@@ 35
筒@@ 35
吃什么@@ 35
察@@ 35
交给@@ 35
成年@@ 35
避孕@@ 35
作用。@@ 35
内裤@@ 35
丑@@ 35
不起@@ 35
营养价值@@ 35
病毒@@ 35
号线@@ 35
鬼@@ 35
洪某@@ 35
猜测@@ 35
绯闻@@ 35
饭后@@ 35
男方@@ 35
航天@@ 35
村委会@@ 35
牌照@@ 35
文字@@ 35
,现@@ 35
国资委@@ 35
频率@@ 35
途径@@ 35
看法@@ 35
江西@@ 35
身着@@ 35
列入@@ 35
》杂志@@ 35
刹@@ 35
抓捕@@ 35
收费站@@ 35
歇@@ 35
下水@@ 35
该校@@ 35
常年@@ 35
东方卫视@@ 35
信用@@ 35
浦东@@ 35
励志@@ 35
眼球@@ 35
冷链物流@@ 35
虐@@ 35
红枣@@ 35
魏琼@@ 35
开创@@ 34
朝鲜半岛@@ 34
友好@@ 34
的新闻@@ 34
医院、@@ 34
全面深化改革的@@ 34
生产、@@ 34
许可@@ 34
地的@@ 34
,是因为@@ 34
的关键@@ 34
长效@@ 34
激发@@ 34
人事@@ 34
项目建设@@ 34
竣工@@ 34
实效@@ 34
140@@ 34
余额@@ 34
依次@@ 34
,但这@@ 34
也有人@@ 34
周一@@ 34
不多@@ 34
早就@@ 34
财富@@ 34
意大利@@ 34
根据《@@ 34
扰@@ 34
常委、@@ 34
功夫@@ 34
是他@@ 34
最喜欢@@ 34
、刘@@ 34
坚定@@ 34
好。 34
一道@@ 34
残疾@@ 34
敷@@ 34
3月,@@ 34
,去年@@ 34
,自己@@ 34
掩@@ 34
芝@@ 34
9点@@ 34
中方@@ 34
教育部@@ 34
背后@@ 34
只需@@ 34
志愿@@ 34
是为@@ 34
用途@@ 34
责任。 34
行 34
得很@@ 34
中美关系@@ 34
提及@@ 34
聚焦@@ 34
关注的@@ 34
3天@@ 34
1月1日起@@ 34
符@@ 34
能让@@ 34
跑车@@ 34
用手@@ 34
害怕@@ 34
四五@@ 34
特意@@ 34
陕@@ 34
的比例@@ 34
增幅@@ 34
4、@@ 34
,每个@@ 34
移交@@ 34
面前@@ 34
到处@@ 34
、美@@ 34
,先后@@ 34
在该@@ 34
发生一起@@ 34
,常@@ 34
有一定@@ 34
,作为@@ 34
。面对@@ 34
6.@@ 34
来临@@ 34
个体@@ 34
第十@@ 34
模范@@ 34
2012年,@@ 34
尺寸@@ 34
上世纪@@ 34
中国经济@@ 34
130@@ 34
%以上@@ 34
什么样的@@ 34
素质@@ 34
摄氏度@@ 34
愁@@ 34
,这里@@ 34
不止@@ 34
泄@@ 34
先进的@@ 34
工程师@@ 34
周期@@ 34
的产品@@ 34
药品GMP@@ 34
提交@@ 34
在大@@ 34
身亡@@ 34
产品的@@ 34
页@@ 34
,反而@@ 34
包含@@ 34
责任。@@ 34
两个月@@ 34
,二@@ 34
凑@@ 34
焦点@@ 34
生长@@ 34
会计@@ 34
。周@@ 34
雇@@ 34
自曝@@ 34
:“你@@ 34
晶@@ 34
开场@@ 34
此时@@ 34
头痛@@ 34
后果@@ 34
的男性@@ 34
之下@@ 34
。昨日@@ 34
这类@@ 34
动员@@ 34
五大@@ 34
又一@@ 34
晕@@ 34
国家级@@ 34
罕见@@ 34
旗下@@ 34
正确的@@ 34
第二次@@ 34
生成@@ 34
叹@@ 34
美国《@@ 34
保养@@ 34
马路@@ 34
尝@@ 34
的原则@@ 34
出。 34
多了@@ 34
演绎@@ 34
高清@@ 34
超出@@ 34
变成了@@ 34
刮@@ 34
头盔@@ 34
。就@@ 34
毕竟@@ 34
。随后@@ 34
孙杨@@ 34
说,这@@ 34
伊朗@@ 34
am@@ 34
约定@@ 34
,但由于@@ 34
℃,@@ 34
RA@@ 34
都可以@@ 34
股东@@ 34
贼@@ 34
谈话@@ 34
连锁@@ 34
信托@@ 34
中的“@@ 34
猎@@ 34
日军@@ 34
故宫博物院@@ 34
滚@@ 34
芜湖@@ 34
艺术品@@ 34
82@@ 34
白酒@@ 34
服用@@ 34
猜@@ 34
庙@@ 34
开除@@ 34
搞怪@@ 34
供电@@ 34
我在@@ 34
全智贤@@ 34
1月1日报道,@@ 34
胡军@@ 34
当事人李先生:“@@ 34
陈女@@ 34
林改@@ 34
政法系统@@ 34
徐剑@@ 34
体系,@@ 33
北方@@ 33
us@@ 33
道理@@ 33
旱@@ 33
有力@@ 33
1万元@@ 33
行政处罚@@ 33
城镇居民@@ 33
案的@@ 33
合法权益@@ 33
、国家@@ 33
30万元@@ 33
纳粹@@ 33
领袖@@ 33
敲响@@ 33
谨@@ 33
之年@@ 33
委会@@ 33
智慧@@ 33
副主席@@ 33
、二@@ 33
,提升@@ 33
机,@@ 33
解放思想@@ 33
政务@@ 33
节点@@ 33
风,@@ 33
指定@@ 33
的基础上,@@ 33
拘@@ 33
在上海@@ 33
告诉记者:“@@ 33
到来。 33
下。 33
”。而@@ 33
委内瑞拉@@ 33
1.2@@ 33
平方米,@@ 33
溶@@ 33
、地@@ 33
方案,@@ 33
叙@@ 33
过,@@ 33
微笑@@ 33
不懂@@ 33
柏林@@ 33
反政府@@ 33
明白@@ 33
排行榜@@ 33
民办@@ 33
僵@@ 33
2人@@ 33
约有@@ 33
脉@@ 33
织@@ 33
抓紧@@ 33
亭@@ 33
舆情@@ 33
波动@@ 33
制品@@ 33
点击@@ 33
有助于@@ 33
6号@@ 33
涂@@ 33
超生@@ 33
期待。 33
要素@@ 33
巴黎@@ 33
蓄@@ 33
何润东@@ 33
简直@@ 33
表情@@ 33
协议,@@ 33
是由@@ 33
土地增值税@@ 33
说了@@ 33
房地产市场@@ 33
模特@@ 33
快递@@ 33
。他还@@ 33
策划@@ 33
行业的@@ 33
邮@@ 33
小型@@ 33
高。 33
宣传部@@ 33
,做@@ 33
称,在@@ 33
崛起@@ 33
脖子@@ 33
嫌疑@@ 33
出境@@ 33
的资金@@ 33
睡前@@ 33
意识到@@ 33
常委会@@ 33
低于@@ 33
添@@ 33
在了@@ 33
客观@@ 33
赌@@ 33
,也许@@ 33
设计师@@ 33
转向@@ 33
形成了@@ 33
高压@@ 33
去,@@ 33
家乡@@ 33
郊@@ 33
厘@@ 33
分工@@ 33
国有企业@@ 33
四是@@ 33
电、@@ 33
部门的@@ 33
零下@@ 33
贩@@ 33
上午10@@ 33
。北京@@ 33
少了@@ 33
游玩@@ 33
数千@@ 33
植@@ 33
陈先生@@ 33
性地@@ 33
已达@@ 33
51@@ 33
鉴于@@ 33
食品药品@@ 33
份额@@ 33
检查,@@ 33
。但是,@@ 33
14日@@ 33
社交@@ 33
的效果@@ 33
原原@@ 33
)在@@ 33
年纪@@ 33
一番@@ 33
最多的@@ 33
本届@@ 33
不容@@ 33
2日,@@ 33
20日@@ 33
加重@@ 33
2014年第一@@ 33
茄@@ 33
王女士@@ 33
合影@@ 33
纷@@ 33
当初@@ 33
,帮助@@ 33
照,@@ 33
了该@@ 33
计划的@@ 33
踩@@ 33
题材@@ 33
1200@@ 33
曝出@@ 33
伴随着@@ 33
例如@@ 33
回了@@ 33
铜川@@ 33
”行动@@ 33
妥善@@ 33
17日@@ 33
un@@ 33
最好的@@ 33
卸@@ 33
碳@@ 33
一下,@@ 33
iPhone5s@@ 33
,全市@@ 33
余名@@ 33
机。 33
曾志伟@@ 33
开,@@ 33
肌@@ 33
湖北省@@ 33
联络@@ 33
赔@@ 33
瘦身@@ 33
损伤@@ 33
NO@@ 33
片,@@ 33
粗粮@@ 33
内有@@ 33
王诗龄@@ 33
皇帝@@ 33
跟随@@ 33
观点@@ 33
表明,@@ 33
。这次@@ 33
咽@@ 33
时被@@ 33
目前的@@ 33
瑞士@@ 33
发布会@@ 33
昏迷@@ 33
什@@ 33
左手@@ 33
一声@@ 33
埃@@ 33
我和@@ 33
营改增@@ 33
小,@@ 33
指挥中心@@ 33
加州@@ 33
低收入@@ 33
上半年@@ 33
说起@@ 33
家门口@@ 33
190@@ 33
遗址@@ 33
亩,@@ 33
时而@@ 33
李嘉诚@@ 33
重污染@@ 33
公车@@ 33
.com@@ 33
动漫@@ 33
保险公司@@ 33
恐怕@@ 33
执勤@@ 33
市公安局@@ 33
QQ@@ 33
将军@@ 33
87@@ 33
本钱@@ 33
各区县@@ 33
狠@@ 33
呵呵@@ 33
宋筱玮@@ 33
考研@@ 33
王宇澄@@ 33
商品交易市场@@ 33
方某@@ 33
阶梯水价@@ 33
若羌@@ 33
拐卖@@ 33
(C@@ 32
被视为@@ 32
适时@@ 32
表示,在@@ 32
会让@@ 32
的核@@ 32
新年快乐@@ 32
来看看@@ 32
克、@@ 32
蛮@@ 32
高温@@ 32
上网@@ 32
继承@@ 32
,进行@@ 32
报 32
个人,@@ 32
机构和@@ 32
县级@@ 32
开局@@ 32
中国特色社会主义@@ 32
副书记、@@ 32
弘扬@@ 32
苍@@ 32
破解@@ 32
环境,@@ 32
00万@@ 32
进一步加强@@ 32
等到@@ 32
剧院@@ 32
心愿@@ 32
1951年@@ 32
革@@ 32
车间@@ 32
送往@@ 32
曝光的@@ 32
上车@@ 32
所属@@ 32
新的一年里,@@ 32
不符合@@ 32
证、@@ 32
阳、@@ 32
摄) 32
吸烟、@@ 32
散步@@ 32
爸妈@@ 32
证实,@@ 32
重返@@ 32
拿下@@ 32
防务@@ 32
课程@@ 32
驰@@ 32
、在@@ 32
增加,@@ 32
中央纪委@@ 32
监察局@@ 32
当局@@ 32
店的@@ 32
无锡@@ 32
,更是@@ 32
2002年@@ 32
台“@@ 32
在南京@@ 32
:我@@ 32
的这@@ 32
负面@@ 32
一出,@@ 32
跌幅@@ 32
购房@@ 32
库存@@ 32
父子@@ 32
为大家@@ 32
洒@@ 32
总监@@ 32
不必@@ 32
5、@@ 32
河南省@@ 32
会。 32
18日@@ 32
议员@@ 32
仅仅@@ 32
每个人@@ 32
婆@@ 32
悠@@ 32
25日@@ 32
一把@@ 32
拓宽@@ 32
占有@@ 32
此前,@@ 32
悔@@ 32
开幕@@ 32
国王@@ 32
动脉@@ 32
的重大@@ 32
主力@@ 32
制度、@@ 32
0.@@ 32
涵盖@@ 32
借助@@ 32
厕@@ 32
见义勇为@@ 32
多年来@@ 32
气候@@ 32
的责任@@ 32
就算@@ 32
流动人口@@ 32
拐@@ 32
59@@ 32
政策的@@ 32
万人次,@@ 32
米、@@ 32
土壤@@ 32
30%@@ 32
20种@@ 32
较大的@@ 32
,就会@@ 32
借鉴@@ 32
管制@@ 32
,分@@ 32
被“@@ 32
入侵@@ 32
颁布@@ 32
相应的@@ 32
,当地@@ 32
捉@@ 32
车子@@ 32
伪@@ 32
爱好@@ 32
剩@@ 32
有效的@@ 32
条,@@ 32
主流@@ 32
收购《纽约时报》@@ 32
抓获。 32
了个@@ 32
学家@@ 32
积水@@ 32
龙岩@@ 32
韵@@ 32
莹@@ 32
中国游客@@ 32
一块@@ 32
天坛@@ 32
。“我们@@ 32
89@@ 32
.5万@@ 32
围观@@ 32
,后来@@ 32
节目中@@ 32
》报道,@@ 32
洛杉矶@@ 32
90后@@ 32
多。 32
要注意@@ 32
不适@@ 32
有一种@@ 32
卧@@ 32
研究人员@@ 32
,绝@@ 32
30分钟@@ 32
灰霾@@ 32
大胆@@ 32
推出的@@ 32
。这样@@ 32
新车@@ 32
率为@@ 32
修复@@ 32
阿尔@@ 32
震惊@@ 32
。他的@@ 32
ur@@ 32
模拟@@ 32
意见,@@ 32
婚庆@@ 32
曲目@@ 32
大牌@@ 32
已经是@@ 32
年 32
腹部@@ 32
特定@@ 32
的东西@@ 32
被称为“@@ 32
的人群@@ 32
图 32
提出,@@ 32
》在@@ 32
潜水@@ 32
才知道@@ 32
改为@@ 32
内涵@@ 32
(A@@ 32
新娘@@ 32
驻港部队@@ 32
板块@@ 32
上面@@ 32
环卫@@ 32
停放@@ 32
上。@@ 32
动态验证码@@ 32
另有@@ 32
虞@@ 32
血糖@@ 32
清水@@ 32
美国政府@@ 32
的女儿@@ 32
鑫@@ 32
动画@@ 32
循环@@ 32
落马@@ 32
慢性病@@ 32
对我@@ 32
皖@@ 32
少年@@ 32
模仿@@ 32
肤@@ 32
陌生人@@ 32
喘@@ 32
泗县@@ 32
政府性债务@@ 32
奥迪@@ 32
圆明园@@ 32
其它@@ 31
取得的@@ 31
统一的@@ 31
主权@@ 31
之声@@ 31
向他@@ 31
警戒@@ 31
……”@@ 31
祈福@@ 31
一个“@@ 31
名称@@ 31
的具体@@ 31
专职@@ 31
。安倍@@ 31
不顾@@ 31
的行@@ 31
摆脱@@ 31
钟声@@ 31
,具有@@ 31
经济社会@@ 31
长远@@ 31
,实行@@ 31
倡导@@ 31
层次@@ 31
内蒙古@@ 31
强奸@@ 31
、周@@ 31
短片@@ 31
电视机@@ 31
零时@@ 31
一期@@ 31
到位@@ 31
怎么样@@ 31
的旅游@@ 31
综@@ 31
热烈@@ 31
摄像@@ 31
的患者@@ 31
查明@@ 31
流浪@@ 31
逊@@ 31
阴影@@ 31
”,在@@ 31
。到@@ 31
订票@@ 31
掐@@ 31
29日,@@ 31
出演@@ 31
这事@@ 31
祭@@ 31
然而,@@ 31
将迎来@@ 31
8万@@ 31
入选@@ 31
时隔@@ 31
2001年@@ 31
单位的@@ 31
活跃@@ 31
就医@@ 31
、经济@@ 31
了4@@ 31
编辑@@ 31
坊@@ 31
我想@@ 31
剧组@@ 31
短短@@ 31
计生委@@ 31
是:@@ 31
10日@@ 31
誓@@ 31
陆军@@ 31
中,有@@ 31
的眼@@ 31
饰@@ 31
登高@@ 31
对他@@ 31
、生产@@ 31
致癌@@ 31
环比上涨@@ 31
8元@@ 31
入户@@ 31
跨年演唱会@@ 31
亲子@@ 31
出身@@ 31
爱,@@ 31
一看,@@ 31
跪@@ 31
夸张@@ 31
证,@@ 31
厢@@ 31
去年11月@@ 31
溢@@ 31
吧,@@ 31
惊讶@@ 31
开玩笑@@ 31
副部长@@ 31
免去@@ 31
的电话@@ 31
等问题@@ 31
的一名@@ 31
信访@@ 31
煤炭@@ 31
26日,@@ 31
并无@@ 31
过分@@ 31
的一家@@ 31
、交通@@ 31
骗取@@ 31
利息@@ 31
戈@@ 31
之前的@@ 31
各方面@@ 31
循@@ 31
这是一@@ 31
难,@@ 31
在公共场所@@ 31
跑到@@ 31
天津市@@ 31
促使@@ 31
山路@@ 31
入境@@ 31
推出了@@ 31
透过@@ 31
。此外@@ 31
20%@@ 31
十一@@ 31
和高@@ 31
不完全@@ 31
新年第一天@@ 31
、海@@ 31
保卫@@ 31
说过@@ 31
二代@@ 31
忍不住@@ 31
把他@@ 31
混乱@@ 31
2014年1月1日起@@ 31
答:@@ 31
梳理@@ 31
信息、@@ 31
跟我@@ 31
银行卡@@ 31
不着@@ 31
预订@@ 31
殴打@@ 31
出事@@ 31
从小@@ 31
姿@@ 31
教育局@@ 31
凌晨,@@ 31
苏联@@ 31
器、@@ 31
”。(@@ 31
全县@@ 31
娟@@ 31
上学@@ 31
扶持@@ 31
篮球@@ 31
也让@@ 31
美丽乡村@@ 31
,减少@@ 31
当代@@ 31
在这个@@ 31
z@@ 31
as@@ 31
了我@@ 31
器官@@ 31
,是否@@ 31
把自己@@ 31
窄@@ 31
收缩@@ 31
时候,@@ 31
定为@@ 31
收受@@ 31
日 31
无数@@ 31
通用@@ 31
轴@@ 31
,有关@@ 31
丝毫@@ 31
风暴@@ 31
的黑@@ 31
纬@@ 31
录制@@ 31
场比赛@@ 31
助攻@@ 31
、林@@ 31
安全套@@ 31
共产党@@ 31
。下面@@ 31
衰老@@ 31
喝水@@ 31
叫“@@ 31
奈@@ 31
,其中包括@@ 31
肝脏@@ 31
忽@@ 31
癌、@@ 31
际@@ 31
公主@@ 31
最高的@@ 31
诱惑@@ 31
去除@@ 31
茜@@ 31
抵抗@@ 31
窦靖童@@ 31
台的@@ 31
不当@@ 31
萧@@ 31
入了@@ 31
疑问@@ 31
平方米的@@ 31
图片来源:@@ 31
鹿@@ 31
的他@@ 31
黄先生@@ 31
男孩@@ 31
寸@@ 31
新闻发布@@ 31
曾被@@ 31
寨@@ 31
童名谦@@ 31
家企业@@ 31
桌上@@ 31
12月,@@ 31
芬@@ 31
授权@@ 31
外公@@ 31
娃娃@@ 31
太大@@ 31
窜@@ 31
的新年@@ 31
“你@@ 31
乔峰@@ 31
育儿@@ 31
观光@@ 31
谷歌@@ 31
解析@@ 31
新城@@ 31
消失@@ 31
劝阻@@ 31
村支书@@ 31
前三@@ 31
中环@@ 31
议事@@ 31
而已@@ 31
橘@@ 31
懵@@ 31
;(@@ 31
“呵呵”的@@ 31
核弹头@@ 31
依依的@@ 31
最后一天@@ 30
据《@@ 30
,强调@@ 30
方针@@ 30
污@@ 30
加以@@ 30
袖@@ 30
屈@@ 30
任命@@ 30
》和《@@ 30
悲剧@@ 30
让他们@@ 30
“有@@ 30
热的@@ 30
履@@ 30
向往@@ 30
大量的@@ 30
法制@@ 30
明确,@@ 30
区域内@@ 30
隐私@@ 30
:一是@@ 30
;二是@@ 30
依照@@ 30
3万元@@ 30
扬言@@ 30
,全面@@ 30
局面@@ 30
贡献。 30
、多@@ 30
要坚持@@ 30
项目、@@ 30
物价@@ 30
和安全@@ 30
时段@@ 30
人民检察院@@ 30
总队@@ 30
7.@@ 30
好、@@ 30
和发展@@ 30
黑龙江@@ 30
有小@@ 30
宣告@@ 30
中级人民法院@@ 30
上班族@@ 30
偿@@ 30
来回@@ 30
。”小@@ 30
例行@@ 30
亲友@@ 30
里。 30
“抢@@ 30
2号线@@ 30
2017年@@ 30
塘@@ 30
干扰@@ 30
开展“@@ 30
左侧@@ 30
管理、@@ 30
的健康@@ 30
无线@@ 30
电影《@@ 30
热播@@ 30
下班@@ 30
魂@@ 30
丸@@ 30
引人@@ 30
战后@@ 30
DA@@ 30
出炉@@ 30
顶级@@ 30
球迷@@ 30
看出@@ 30
零点@@ 30
飘@@ 30
完工@@ 30
费。@@ 30
出于@@ 30
英国《@@ 30
为:@@ 30
例,@@ 30
30万@@ 30
联手@@ 30
,无论@@ 30
惜@@ 30
宏观@@ 30
房地产开发@@ 30
欠税@@ 30
嗓@@ 30
闷@@ 30
不愿意@@ 30
平台,@@ 30
股份有限公司@@ 30
后宫@@ 30
所长@@ 30
近年@@ 30
可以在@@ 30
9日@@ 30
却不@@ 30
刑事拘留@@ 30
过来,@@ 30
村的@@ 30
后才@@ 30
慕@@ 30
都觉得@@ 30
后,在@@ 30
的男子@@ 30
行动,@@ 30
表示,目前@@ 30
中表示,@@ 30
期望@@ 30
体现了@@ 30
可持续@@ 30
都将@@ 30
,现场@@ 30
2003年@@ 30
低温@@ 30
惩罚@@ 30
布局@@ 30
处在@@ 30
清晨@@ 30
曙光@@ 30
漫画@@ 30
变更@@ 30
阿根廷@@ 30
为止@@ 30
舒适@@ 30
稻@@ 30
毯@@ 30
住所@@ 30
为例,@@ 30
五个@@ 30
场面@@ 30
自然灾害@@ 30
产生了@@ 30
当中@@ 30
免疫@@ 30
传统的@@ 30
从中@@ 30
,原@@ 30
淘汰@@ 30
管理的@@ 30
义务教育@@ 30
学生的@@ 30
大院@@ 30
增添@@ 30
几次@@ 30
也不会@@ 30
相反@@ 30
艺术家@@ 30
处理。 30
10天@@ 30
在意@@ 30
自称@@ 30
证监会@@ 30
都很@@ 30
骄傲@@ 30
农户@@ 30
厨@@ 30
致富@@ 30
一生一世@@ 30
学位@@ 30
ot@@ 30
趣@@ 30
身穿@@ 30
处女@@ 30
相处@@ 30
都知道@@ 30
传闻@@ 30
无疑@@ 30
焦虑@@ 30
按摩@@ 30
更容易@@ 30
磨@@ 30
代谢@@ 30
撕@@ 30
人”@@ 30
形容@@ 30
额度@@ 30
es@@ 30
and@@ 30
轩@@ 30
返还@@ 30
日游@@ 30
占到@@ 30
风光@@ 30
受访@@ 30
《天龙八部》@@ 30
室,@@ 30
忽视@@ 30
小编@@ 30
关注。@@ 30
观测@@ 30
情况下,@@ 30
时用@@ 30
、生@@ 30
课题@@ 30
书、@@ 30
气体@@ 30
姐妹@@ 30
虾@@ 30
哦@@ 30
吧! 30
情况。@@ 30
喜事@@ 30
坎@@ 30
类的@@ 30
宣称@@ 30
世界杯@@ 30
赛 30
詹姆斯@@ 30
接着@@ 30
吻@@ 30
巴基斯坦@@ 30
督促@@ 30
人员、@@ 30
证明、@@ 30
和水@@ 30
套,@@ 30
调整完善生育政策的@@ 30
公务接待@@ 30
雁@@ 30
检察院@@ 30
大街@@ 30
天堂@@ 30
进来@@ 30
计划,@@ 30
定安@@ 30
业、@@ 30
变形@@ 30
商户@@ 30
停在@@ 30
机组@@ 30
专题@@ 30
F-22@@ 30
少女@@ 30
画家@@ 30
处。@@ 30
恳@@ 30
现役@@ 30
届时@@ 30
导师@@ 30
摄像头@@ 30
涉毒@@ 30
枕@@ 30
大S@@ 30
摩托@@ 30
国网@@ 30
国Ⅳ@@ 30
湘乡@@ 30
博锐@@ 30
新年贺词@@ 29
建设和@@ 29
要在@@ 29
渗透@@ 29
不管@@ 29
期盼@@ 29
、安全@@ 29
人受伤@@ 29
过节@@ 29
,开始@@ 29
,过@@ 29
到来,@@ 29
付出@@ 29
帆@@ 29
复兴@@ 29
甲午战争@@ 29
鉴@@ 29
公众对@@ 29
进出@@ 29
事业单位@@ 29
暴雨@@ 29
坠@@ 29
,防止@@ 29
更换@@ 29
举动@@ 29
想起@@ 29
,表示@@ 29
支援@@ 29
贯穿@@ 29
坚强@@ 29
中央的@@ 29
扎实@@ 29
常态@@ 29
违纪@@ 29
、中央@@ 29
高效@@ 29
2020年@@ 29
等多@@ 29
娃@@ 29
降雪@@ 29
今年元旦@@ 29
跳河@@ 29
小时。 29
流通@@ 29
机制。@@ 29
斯特@@ 29
各方@@ 29
网友纷纷@@ 29
指责@@ 29
动手@@ 29
,加上@@ 29
厦@@ 29
购置@@ 29
鄂@@ 29
扇@@ 29
了5@@ 29
列为@@ 29
留下了@@ 29
掏@@ 29
过去,@@ 29
瘾@@ 29
的首@@ 29
开播@@ 29
派出@@ 29
屡@@ 29
国会@@ 29
全身@@ 29
佩戴@@ 29
厦大@@ 29
为他@@ 29
历经@@ 29
新闻网@@ 29
经济圈@@ 29
国家和@@ 29
外部@@ 29
的调查@@ 29
贯@@ 29
的精@@ 29
仿@@ 29
40岁@@ 29
店里@@ 29
昨@@ 29
豪车@@ 29
宠@@ 29
邦@@ 29
国的@@ 29
11月份@@ 29
三种@@ 29
首歌@@ 29
裤子@@ 29
昨天上午@@ 29
王先生@@ 29
了一组@@ 29
成为了@@ 29
三次@@ 29
媒体采访时@@ 29
调查组@@ 29
,决定@@ 29
重伤@@ 29
一开始@@ 29
丢失@@ 29
学历@@ 29
一代@@ 29
的基础@@ 29
提高了@@ 29
企图@@ 29
分钟后,@@ 29
水中@@ 29
身影@@ 29
主干@@ 29
优待@@ 29
一部分@@ 29
乾@@ 29
己@@ 29
发生爆炸@@ 29
难题@@ 29
鸿@@ 29
局副局长@@ 29
之旅@@ 29
记住@@ 29
汇聚@@ 29
从未@@ 29
烟雾@@ 29
县委书记@@ 29
道、@@ 29
好事@@ 29
裁判@@ 29
左右。 29
把“@@ 29
“高@@ 29
芯片@@ 29
的问题。@@ 29
不动@@ 29
导向@@ 29
劳动者@@ 29
调动@@ 29
国企改革@@ 29
,人们@@ 29
的高度@@ 29
致死@@ 29
为主的@@ 29
治病@@ 29
骨髓@@ 29
十多@@ 29
界的@@ 29
叛@@ 29
多久@@ 29
翁@@ 29
郡@@ 29
帖@@ 29
真正的@@ 29
。刘@@ 29
个百分@@ 29
一律@@ 29
各地要@@ 29
二是@@ 29
移送@@ 29
破裂@@ 29
了,还@@ 29
办案民警@@ 29
之一,@@ 29
锣@@ 29
斩@@ 29
管理系统@@ 29
巾@@ 29
被捕@@ 29
制服@@ 29
2013年12月26日@@ 29
说服@@ 29
造血干细胞@@ 29
便民@@ 29
综艺@@ 29
,经过@@ 29
的形式@@ 29
单身@@ 29
4.@@ 29
改善韩朝@@ 29
党政@@ 29
头脑@@ 29
亿元的@@ 29
下滑@@ 29
铝@@ 29
首发@@ 29
新款@@ 29
ed@@ 29
对此表示@@ 29
。希望@@ 29
领衔@@ 29
。在这@@ 29
“四@@ 29
场合@@ 29
、旅游@@ 29
..@@ 29
不变@@ 29
覃@@ 29
与家人@@ 29
呼声@@ 29
麦克@@ 29
墙壁@@ 29
流传@@ 29
妨碍@@ 29
花生@@ 29
主要的@@ 29
总数@@ 29
状态,@@ 29
传递@@ 29
的美@@ 29
,它们@@ 29
污染源@@ 29
,也会@@ 29
瞧@@ 29
晚上,@@ 29
茎@@ 29
肿瘤@@ 29
臭@@ 29
樱桃@@ 29
酱@@ 29
工作日@@ 29
一只@@ 29
感和@@ 29
喂@@ 29
有过@@ 29
的丈夫@@ 29
瓷@@ 29
暗示@@ 29
腕@@ 29
模型@@ 29
武术@@ 29
在12月@@ 29
撑@@ 29
淑@@ 29
在港@@ 29
相结合@@ 29
管理局@@ 29
医院的@@ 29
走,@@ 29
人社@@ 29
出国@@ 29
广播@@ 29
中文@@ 29
内心@@ 29
搜集@@ 29
人是@@ 29
丛@@ 29
后面@@ 29
责任,@@ 29
不下@@ 29
,未@@ 29
时间:@@ 29
总会@@ 29
(资料图) 29
怨@@ 29
天数@@ 29
怀旧@@ 29
抄袭@@ 29
陈芳应@@ 29
一向@@ 29
犬@@ 29
虹@@ 29
硕@@ 29
郑秀文@@ 29
,让他@@ 29
亿元,同比@@ 29
剧烈@@ 29
司法局@@ 29
劳教所@@ 29
漏洞@@ 29
供电公司@@ 29
皇后@@ 29
知的@@ 29
赵路兴@@ 29
林权@@ 29
郭某@@ 29
评审@@ 29
惩戒@@ 29
翻译@@ 29
专著@@ 29
机动车排放@@ 29
《新闻联播》@@ 29
露骨@@ 29
探测@@ 29
煤场@@ 29
溥仪@@ 29
使用的@@ 28
发电@@ 28
势力@@ 28
莫斯科@@ 28
该市@@ 28
普京@@ 28
尔的@@ 28
匆匆@@ 28
暑@@ 28
的各种@@ 28
。与此同时,@@ 28
所需@@ 28
规定》@@ 28
违法犯罪@@ 28
为中国@@ 28
一方@@ 28
嚣@@ 28
亚太@@ 28
安倍参拜靖国神社@@ 28
力量,@@ 28
体制改革@@ 28
牺牲@@ 28
,全力@@ 28
开拓@@ 28
检察@@ 28
拉萨@@ 28
阶@@ 28
20年@@ 28
公信@@ 28
生活。 28
,这让@@ 28
2014年1月1日,@@ 28
晚餐@@ 28
将要@@ 28
巴斯@@ 28
。一些@@ 28
冰冷@@ 28
授予@@ 28
英镑@@ 28
层楼@@ 28
扁@@ 28
分公司@@ 28
俱@@ 28
的一年,@@ 28
实现“@@ 28
间的@@ 28
放置@@ 28
一共@@ 28
管理办法@@ 28
陪伴@@ 28
烟瘾@@ 28
,下面@@ 28
勿@@ 28
7年,@@ 28
上前@@ 28
夸@@ 28
已经有@@ 28
加之@@ 28
蹲@@ 28
高调@@ 28
。最@@ 28
马来西亚@@ 28
巨星@@ 28
降至@@ 28
从“@@ 28
乡亲@@ 28
抹@@ 28
缕@@ 28
、服务@@ 28
的情况下@@ 28
4%@@ 28
美国在@@ 28
相撞@@ 28
街上@@ 28
倪@@ 28
10万@@ 28
豪宅@@ 28
。12月@@ 28
2名@@ 28
汪峰的@@ 28
外形@@ 28
没什么@@ 28
一早@@ 28
影响。@@ 28
信贷@@ 28
、金@@ 28
环比@@ 28
昨晚,@@ 28
原因,@@ 28
真诚@@ 28
幼儿@@ 28
跳楼@@ 28
景象@@ 28
采访了@@ 28
:一@@ 28
千亿@@ 28
”号@@ 28
开会@@ 28
香烟@@ 28
贪污@@ 28
和他@@ 28
煤矿@@ 28
事先@@ 28
194@@ 28
身为@@ 28
会 28
强大的@@ 28
7点@@ 28
交代@@ 28
一人@@ 28
10%@@ 28
在深圳@@ 28
两起@@ 28
法 28
的情@@ 28
昆@@ 28
8月,@@ 28
营运@@ 28
石油@@ 28
村村民@@ 28
激励@@ 28
世界的@@ 28
试行@@ 28
宿舍@@ 28
奉献@@ 28
边的@@ 28
挂牌@@ 28
此外@@ 28
6万@@ 28
其次@@ 28
新兴产业@@ 28
足够的@@ 28
函@@ 28
集中,@@ 28
追踪@@ 28
,本@@ 28
火爆@@ 28
意图@@ 28
。针对@@ 28
患病@@ 28
淋@@ 28
一段时间@@ 28
年头@@ 28
口袋@@ 28
做过@@ 28
摹@@ 28
编队@@ 28
进行的@@ 28
风情@@ 28
其中的@@ 28
全过程@@ 28
劣@@ 28
保存@@ 28
1998年@@ 28
急性@@ 28
南京市@@ 28
”事件@@ 28
抱怨@@ 28
大奖@@ 28
刊登@@ 28
迟迟@@ 28
银联@@ 28
福利@@ 28
病房@@ 28
象征@@ 28
,这也@@ 28
议题@@ 28
户外@@ 28
常识@@ 28
免签@@ 28
发生后,@@ 28
拘捕一名@@ 28
尸@@ 28
TV@@ 28
不一样@@ 28
20个@@ 28
薇@@ 28
。那么@@ 28
口径@@ 28
井喷@@ 28
支付宝@@ 28
为期@@ 28
大赛@@ 28
耕@@ 28
女王@@ 28
(P@@ 28
她在@@ 28
疲@@ 28
剩下@@ 28
能使@@ 28
不清楚@@ 28
买卖@@ 28
的一部分@@ 28
其中,@@ 28
创下@@ 28
大麻@@ 28
iv@@ 28
难的@@ 28
公积金@@ 28
,像@@ 28
海岸@@ 28
将以@@ 28
技术改造@@ 28
吗@@ 28
贫血@@ 28
犹豫@@ 28
同台@@ 28
的5@@ 28
特殊的@@ 28
,经常@@ 28
唾液@@ 28
惹@@ 28
雌激素@@ 28
引起了@@ 28
不同程度@@ 28
的话题@@ 28
胰@@ 28
皂@@ 28
扮演@@ 28
维生素B@@ 28
达标@@ 28
饼@@ 28
国庆@@ 28
勾@@ 28
缺陷@@ 28
如果你@@ 28
马拉维@@ 28
楼的@@ 28
国安局@@ 28
没法@@ 28
邵@@ 28
单位和@@ 28
没有人@@ 28
住户@@ 28
初中@@ 28
自嘲@@ 28
备案@@ 28
。(通讯员@@ 28
老师的@@ 28
啊!@@ 28
苑@@ 28
咋@@ 28
也都@@ 28
机动@@ 28
三胞集团@@ 28
间谍@@ 28
雷达@@ 28
郝邵文@@ 28
演讲@@ 28
宣传片@@ 28
爱情公寓@@ 28
聋哑@@ 28
原来,@@ 28
不清@@ 28
了10@@ 28
给出@@ 28
杀人@@ 28
燃煤@@ 28
-15@@ 28
最差@@ 28
约为@@ 28
抄@@ 28
耐心@@ 28
省(@@ 28
抽查@@ 28
1月2日电(记者@@ 28
野生动物园@@ 28
遗产@@ 28
结尾@@ 28
农药@@ 28
暴风雪@@ 28
博主@@ 28
任团@@ 28
吴镇宇@@ 28
南太平洋@@ 28
拙@@ 28
刚才@@ 28
漳州市@@ 28
。香港@@ 28
不服@@ 28
罗晨@@ 28
胡国初@@ 28
,多云,[最低气温@@ 28
老杨@@ 28
要比@@ 27
的投资@@ 27
和《@@ 27
和解@@ 27
电(记者@@ 27
防卫@@ 27
为主,@@ 27
指令@@ 27
情况的@@ 27
忙碌@@ 27
充实@@ 27
地。@@ 27
舞台上@@ 27
美好的@@ 27
、《@@ 27
仓库@@ 27
的,由@@ 27
范围,@@ 27
要求。 27
至少有@@ 27
之举@@ 27
自豪@@ 27
心、@@ 27
高原@@ 27
,切实@@ 27
水平。 27
惠民@@ 27
教育,@@ 27
为民@@ 27
招商引资@@ 27
落地@@ 27
亿元、@@ 27
农牧民@@ 27
比赛中@@ 27
实施细则@@ 27
几百@@ 27
5天@@ 27
,去@@ 27
福袋@@ 27
两条@@ 27
区间@@ 27
亿元;@@ 27
63@@ 27
鲜明@@ 27
较高的@@ 27
下午4@@ 27
,但因@@ 27
进、@@ 27
教育实践活动@@ 27
禁忌@@ 27
海沧@@ 27
问责@@ 27
懒@@ 27
女方@@ 27
指南@@ 27
小伙@@ 27
,时间@@ 27
制订@@ 27
”——@@ 27
最具@@ 27
,几乎@@ 27
护栏@@ 27
大臣@@ 27
,以此@@ 27
一年的@@ 27
北海@@ 27
网站“@@ 27
企事业单位@@ 27
脚步@@ 27
另据@@ 27
冰场@@ 27
武昌@@ 27
”。在@@ 27
如同@@ 27
仇@@ 27
把它@@ 27
合适@@ 27
线城市@@ 27
保持适度流动性@@ 27
测算@@ 27
仍未@@ 27
地说:“@@ 27
岁的儿子@@ 27
遗体@@ 27
了这一@@ 27
台上@@ 27
吵@@ 27
,她的@@ 27
可靠@@ 27
如此,@@ 27
禁烟令@@ 27
检察机关@@ 27
,身体@@ 27
项链@@ 27
恶性@@ 27
官网@@ 27
”也@@ 27
乘地铁@@ 27
真的是@@ 27
淘@@ 27
座谈@@ 27
,并以@@ 27
服务、@@ 27
辖区内@@ 27
罪,@@ 27
投资、@@ 27
,法院@@ 27
严密@@ 27
玩手机@@ 27
专家表示,@@ 27
躺@@ 27
科学院@@ 27
潜在@@ 27
之际@@ 27
紧紧@@ 27
泄露@@ 27
着,@@ 27
生效@@ 27
安全、@@ 27
正好@@ 27
4万@@ 27
F1@@ 27
草案@@ 27
。我国@@ 27
外贸@@ 27
版的@@ 27
加快推进@@ 27
公益性@@ 27
”被@@ 27
说,自己@@ 27
”就@@ 27
万元。@@ 27
慌@@ 27
带走@@ 27
详@@ 27
证书@@ 27
汇总@@ 27
导游@@ 27
新华@@ 27
副总@@ 27
国资@@ 27
引发了@@ 27
琦@@ 27
于是@@ 27
在某@@ 27
四周@@ 27
简短@@ 27
非洲@@ 27
、西@@ 27
登山@@ 27
领事@@ 27
送往医院@@ 27
救护@@ 27
会不会@@ 27
刷新@@ 27
基本上@@ 27
扒@@ 27
分别是@@ 27
费,@@ 27
挽@@ 27
无偿献血@@ 27
毫升@@ 27
步入@@ 27
华裔@@ 27
玩偶@@ 27
il@@ 27
女演员@@ 27
引起的@@ 27
有益@@ 27
命令@@ 27
简单的@@ 27
所致@@ 27
晒出@@ 27
钓鱼@@ 27
个人信息@@ 27
经历了@@ 27
ion@@ 27
250@@ 27
措@@ 27
降落@@ 27
、省@@ 27
一群@@ 27
决赛@@ 27
,但却@@ 27
晚报》@@ 27
肾脏@@ 27
晃@@ 27
好心@@ 27
月经@@ 27
肥胖@@ 27
很不@@ 27
浑@@ 27
渴@@ 27
纪检监察@@ 27
农产品@@ 27
煲@@ 27
感冒@@ 27
气的@@ 27
护肤@@ 27
,还能@@ 27
气管@@ 27
的几率@@ 27
敛财@@ 27
在香港@@ 27
传奇@@ 27
夏季@@ 27
衡@@ 27
减速@@ 27
泡沫@@ 27
喉@@ 27
取暖@@ 27
机构的@@ 27
魅@@ 27
是谁@@ 27
的态度@@ 27
张国立@@ 27
抚养@@ 27
越南@@ 27
看得@@ 27
制成@@ 27
、公安@@ 27
车队@@ 27
病例@@ 27
希特勒@@ 27
上台@@ 27
新京报@@ 27
中国驻@@ 27
少的@@ 27
他和@@ 27
总务@@ 27
沈建华@@ 27
守法@@ 27
[三亚中院办公楼成危楼追踪:整修即将完成 27
路面@@ 27
蔓延@@ 27
网点@@ 27
供暖@@ 27
电厂@@ 27
骏@@ 27
电子商务@@ 27
之处@@ 27
1月3日,@@ 27
嫖娼@@ 27
粤@@ 27
中药@@ 27
小时后,@@ 27
响应@@ 27
,而这@@ 27
中小企业@@ 27
校方@@ 27
县政府@@ 27
盈利@@ 27
入口@@ 27
洲际弹道导弹@@ 27
琪@@ 27
做饭@@ 27
组成的@@ 27
参赛者@@ 27
歌葩地图@@ 27
门外@@ 27
爸比@@ 27
纵火案@@ 27
伙食@@ 27
楼顶@@ 27
人力资源@@ 27
女婴@@ 27
马俊飞@@ 27
性爱@@ 27
卖淫@@ 27
阎迁涛@@ 27
的歌词@@ 27
导演高先明@@ 27
谎言@@ 27
何美丹@@ 27
78@@ 26
原则,@@ 26
紧密@@ 26
今天是@@ 26
搭建@@ 26
标准、@@ 26
政府对@@ 26
亿万@@ 26
廉洁@@ 26
2000元@@ 26
保护区@@ 26
巡查@@ 26
环境保护@@ 26
匿@@ 26
面临的@@ 26
生态文明@@ 26
,社会@@ 26
稳定的@@ 26
改革、@@ 26
发表了@@ 26
上来@@ 26
目标,@@ 26
精品@@ 26
、三@@ 26
产业发展@@ 26
实事@@ 26
条件,@@ 26
之风@@ 26
履职@@ 26
上、@@ 26
杠@@ 26
潜力@@ 26
前提@@ 26
得分@@ 26
,以便@@ 26
小长假@@ 26
记者采访时@@ 26
出游@@ 26
不远@@ 26
造成了@@ 26
歌唱@@ 26
鞋子@@ 26
风俗@@ 26
列,@@ 26
招商@@ 26
落户@@ 26
队长@@ 26
与之@@ 26
本质@@ 26
攻坚克@@ 26
重症@@ 26
、公共@@ 26
徽@@ 26
表面@@ 26
界定@@ 26
缅@@ 26
此举@@ 26
憋@@ 26
只有一@@ 26
现年@@ 26
寓@@ 26
前晚@@ 26
碰撞@@ 26
柏@@ 26
在路边@@ 26
时,发现@@ 26
小时后@@ 26
惊人@@ 26
复苏@@ 26
摸清@@ 26
普查对象@@ 26
星级@@ 26
是一位@@ 26
募@@ 26
原有@@ 26
。至于@@ 26
航线@@ 26
万达@@ 26
的名@@ 26
振兴@@ 26
用 26
利亚@@ 26
,在中国@@ 26
双边@@ 26
打仗@@ 26
趋势。 26
要想@@ 26
陈婷@@ 26
许伟英@@ 26
正在调查@@ 26
较快@@ 26
辆车@@ 26
25日,@@ 26
阁@@ 26
为此@@ 26
看点@@ 26
-5@@ 26
间接@@ 26
不合格@@ 26
时间为@@ 26
当成@@ 26
旭@@ 26
聪明@@ 26
违建@@ 26
走势@@ 26
15个@@ 26
上年@@ 26
趋@@ 26
小区居民@@ 26
,如何@@ 26
过后,@@ 26
记者来到@@ 26
不时@@ 26
勒索@@ 26
其他人@@ 26
职权@@ 26
目击者@@ 26
凶手@@ 26
现任@@ 26
市委常委、@@ 26
娱@@ 26
蒋@@ 26
失明@@ 26
以为是@@ 26
教训@@ 26
遵循@@ 26
难得@@ 26
跨越@@ 26
出击@@ 26
尊严@@ 26
头条@@ 26
援助@@ 26
仑@@ 26
谱@@ 26
深的@@ 26
并且@@ 26
这边@@ 26
同行@@ 26
签约@@ 26
砂@@ 26
起的@@ 26
拌@@ 26
泳@@ 26
公约@@ 26
成为“@@ 26
农业生产@@ 26
不高@@ 26
发达国家@@ 26
,实际上@@ 26
变化,@@ 26
要求。@@ 26
收入分配@@ 26
铃@@ 26
缩水@@ 26
。例如@@ 26
接到报警@@ 26
娶@@ 26
不幸@@ 26
挖掘@@ 26
过渡@@ 26
储备@@ 26
辅助@@ 26
生前@@ 26
1000万元@@ 26
转入@@ 26
。图为@@ 26
替代@@ 26
不对@@ 26
低价@@ 26
一直没有@@ 26
被子@@ 26
18个@@ 26
理事@@ 26
不超过@@ 26
付款@@ 26
合力@@ 26
确诊@@ 26
厨师@@ 26
的3@@ 26
食用油@@ 26
成品@@ 26
,而不是@@ 26
。昨日,@@ 26
,公司@@ 26
央@@ 26
参加了@@ 26
平常@@ 26
贷@@ 26
乃@@ 26
又一次@@ 26
农机@@ 26
科院@@ 26
5.@@ 26
(M@@ 26
偶@@ 26
小镇@@ 26
1314@@ 26
:00@@ 26
网购@@ 26
亲民@@ 26
从来@@ 26
登上@@ 26
有毒@@ 26
脖@@ 26
相亲@@ 26
抑郁@@ 26
汉中@@ 26
筋@@ 26
礼品@@ 26
收益率@@ 26
电商@@ 26
高 26
、产业@@ 26
率、@@ 26
见过@@ 26
吸毒@@ 26
最新的@@ 26
产品,@@ 26
曝光 26
之后的@@ 26
(S@@ 26
巴西@@ 26
ter@@ 26
这款@@ 26
漆@@ 26
最受@@ 26
大 26
渐渐@@ 26
的平均@@ 26
味道@@ 26
陪同@@ 26
市县@@ 26
李胜基与允儿@@ 26
俏@@ 26
腹泻@@ 26
结石@@ 26
钙、@@ 26
那时@@ 26
日报@@ 26
劲儿@@ 26
人人@@ 26
摄取@@ 26
食物 26
常吃@@ 26
的说法@@ 26
提取@@ 26
手指@@ 26
食,@@ 26
批发@@ 26
便秘@@ 26
与人@@ 26
原标题:两性养生:@@ 26
据外媒报道,@@ 26
肆@@ 26
贵的@@ 26
慢性@@ 26
熏@@ 26
将在2014年@@ 26
阀@@ 26
北京时间@@ 26
圣诞节@@ 26
填写@@ 26
支行@@ 26
火,@@ 26
下属@@ 26
据外媒@@ 26
啊,@@ 26
趴@@ 26
。昨天,@@ 26
”地@@ 26
投入使用@@ 26
重复@@ 26
稳妥@@ 26
喻@@ 26
与“@@ 26
之日起@@ 26
房的@@ 26
相差@@ 26
地向@@ 26
县、@@ 26
日本首相@@ 26
制度。 26
、杨@@ 26
高官@@ 26
销售额@@ 26
廊@@ 26
野生动物@@ 26
发达@@ 26
严惩@@ 26
小叶@@ 26
更好地@@ 26
、马@@ 26
房产证@@ 26
占地@@ 26
书写@@ 26
录入@@ 26
资料图:@@ 26
将达到@@ 26
明显的@@ 26
京城@@ 26
舰艇@@ 26
类似的@@ 26
枢纽@@ 26
趟@@ 26
阳市@@ 26
中队@@ 26
华西@@ 26
(即@@ 26
碧@@ 26
急诊科@@ 26
对策@@ 26
政府在@@ 26
海淀区@@ 26
绑@@ 26
渴望@@ 26
金价@@ 26
赵志强@@ 26
僧@@ 26
苏宁@@ 26
制造商@@ 26
刷指纹@@ 26
强烈谴责@@ 26
知情@@ 26
条子@@ 26
买菜@@ 26
中介@@ 26
辖@@ 26
1000元@@ 26
玉米@@ 26
至第@@ 26
文化遗产@@ 26
也需要@@ 26
喜爱@@ 26
1800@@ 26
蒋介石@@ 26
顾文启@@ 26
发帖@@ 26
群岛@@ 26
报》1日@@ 26
铁路警方@@ 26
荧幕@@ 26
脱困@@ 26
张含韵@@ 26
手中的@@ 26
正定人民@@ 26
肛裂@@ 26
受灾@@ 26
性侵@@ 26
试射@@ 26
PE@@ 26
市值蒸发@@ 26
行走@@ 26
微克立方米@@ 26
举证@@ 26
妓女@@ 26
莫言@@ 26
扎丹的@@ 26
徐全@@ 26
肃@@ 25
廖@@ 25
逐一@@ 25
不忘@@ 25
战术@@ 25
谢谢@@ 25
构筑@@ 25
者们@@ 25
高。@@ 25
污水@@ 25
最高可@@ 25
进站@@ 25
区和@@ 25
处理,@@ 25
法人@@ 25
外汇@@ 25
按照国家@@ 25
人员在@@ 25
“在@@ 25
的问题,@@ 25
伟大@@ 25
党中央@@ 25
线、@@ 25
改善民生@@ 25
衔接@@ 25
准入@@ 25
的思想@@ 25
严格执行@@ 25
传达@@ 25
气象台@@ 25
犯罪的@@ 25
满意度@@ 25
;第二@@ 25
的要求,@@ 25
不少人@@ 25
直呼@@ 25
聚会@@ 25
加热@@ 25
冷水@@ 25
许愿@@ 25
钱包@@ 25
项目。@@ 25
被砍@@ 25
争执@@ 25
,许多@@ 25
和支持@@ 25
曾任@@ 25
。(记者刘@@ 25
缴费@@ 25
特大@@ 25
按规定@@ 25
全会@@ 25
缺失@@ 25
人大代表@@ 25
家 25
很快就@@ 25
各级党政机关@@ 25
湖南、@@ 25
在办公室@@ 25
仲@@ 25
剧中@@ 25
银行的@@ 25
第三次@@ 25
平静@@ 25
披@@ 25
个体经营户@@ 25
营业执照@@ 25
学科@@ 25
尽力@@ 25
有机会@@ 25
7000@@ 25
废止@@ 25
的实际@@ 25
挪@@ 25
5000元@@ 25
经济、@@ 25
身上的@@ 25
,同时也@@ 25
一直是@@ 25
这两@@ 25
伴随@@ 25
和你@@ 25
卖萌@@ 25
可爱@@ 25
正面@@ 25
条约@@ 25
侨@@ 25
这么多@@ 25
感言@@ 25
的身材@@ 25
,年@@ 25
报道中@@ 25
露出@@ 25
100个城市@@ 25
分化@@ 25
差别@@ 25
2013-@@ 25
众人@@ 25
妹子@@ 25
,他是@@ 25
他,@@ 25
,平时@@ 25
位列@@ 25
攒@@ 25
6人@@ 25
前面@@ 25
大。@@ 25
市场,@@ 25
吸烟的@@ 25
决定,@@ 25
持刀@@ 25
祸@@ 25
因涉嫌@@ 25
勃兰特@@ 25
杀害@@ 25
震撼@@ 25
美方@@ 25
姿态@@ 25
表示,这@@ 25
打招呼@@ 25
环路@@ 25
地铁站@@ 25
要做@@ 25
警车@@ 25
。可是@@ 25
市级@@ 25
近百@@ 25
掌控@@ 25
有网友@@ 25
视力@@ 25
胀@@ 25
强烈的@@ 25
魅力@@ 25
填报@@ 25
代言@@ 25
1.0@@ 25
长度@@ 25
商量@@ 25
,谁@@ 25
中小学@@ 25
杜绝@@ 25
坦承@@ 25
楼下@@ 25
所含@@ 25
的山@@ 25
加坡@@ 25
时光@@ 25
港口@@ 25
号牌@@ 25
恐怖分子@@ 25
特种@@ 25
5名@@ 25
校园@@ 25
日本的@@ 25
能力的@@ 25
完成,@@ 25
的新型@@ 25
定价@@ 25
的第一天@@ 25
。此时,@@ 25
博弈@@ 25
趋于@@ 25
合成@@ 25
遗传@@ 25
防控@@ 25
一小@@ 25
车厢内@@ 25
低,@@ 25
粘@@ 25
都想@@ 25
炒作@@ 25
缓慢@@ 25
2014年1月1日起,@@ 25
情况下@@ 25
的结果@@ 25
,一方面@@ 25
初期@@ 25
利用职务@@ 25
预约@@ 25
入场@@ 25
金属@@ 25
侦破@@ 25
平日@@ 25
能量@@ 25
美术@@ 25
儿童医院@@ 25
小朋友@@ 25
被迫@@ 25
报案@@ 25
厂家@@ 25
生,@@ 25
反击@@ 25
带孩子@@ 25
去了@@ 25
买到@@ 25
13个@@ 25
三角@@ 25
威廉@@ 25
会影响@@ 25
地理@@ 25
请求@@ 25
说道@@ 25
最高法院@@ 25
匪@@ 25
的明星@@ 25
对着@@ 25
建议,@@ 25
身心@@ 25
羞@@ 25
挫@@ 25
的运动@@ 25
终身@@ 25
,而在@@ 25
年货@@ 25
下午2@@ 25
排在@@ 25
.7%,@@ 25
渣@@ 25
原理@@ 25
纪念邮票@@ 25
车展@@ 25
定于@@ 25
穿过@@ 25
航班延误@@ 25
家园@@ 25
蒲@@ 25
播出的@@ 25
去年9月@@ 25
一句@@ 25
主场@@ 25
。最终@@ 25
竖@@ 25
文具@@ 25
小客车指标@@ 25
时间内@@ 25
的功效@@ 25
发病@@ 25
一一@@ 25
气血@@ 25
钠@@ 25
为自己@@ 25
,无论是@@ 25
没有什么@@ 25
六大@@ 25
即便@@ 25
,双@@ 25
畅通@@ 25
社会管理@@ 25
东风@@ 25
”活动@@ 25
繁琐@@ 25
1米@@ 25
马桶@@ 25
口味@@ 25
,往往@@ 25
出道@@ 25
大豆@@ 25
堪称@@ 25
得上@@ 25
酒、@@ 25
痔疮@@ 25
,故@@ 25
事实上@@ 25
腔@@ 25
前夫@@ 25
专辑@@ 25
,有网友@@ 25
心脏@@ 25
?为什么@@ 25
蜂@@ 25
大。 25
姑@@ 25
社会公平正义@@ 25
西亚@@ 25
里面的@@ 25
茫@@ 25
热火@@ 25
一号@@ 25
新股@@ 25
,也可以@@ 25
国四@@ 25
LED@@ 25
采访时@@ 25
身份证、@@ 25
耿@@ 25
扩散@@ 25
没人@@ 25
DNA@@ 25
已久@@ 25
国资国企改革@@ 25
录取@@ 25
会继续@@ 25
攻坚@@ 25
:你@@ 25
一起,@@ 25
无视@@ 25
ra@@ 25
著作@@ 25
那种@@ 25
中区重案组@@ 25
动 25
推荐: 25
甸@@ 25
这段@@ 25
金先生@@ 25
武平@@ 25
相关负责人介绍,@@ 25
正式启动@@ 25
到“@@ 25
监视@@ 25
腊@@ 25
才会@@ 25
的 25
边,@@ 25
就已经@@ 25
。(李@@ 25
煎@@ 25
12岁@@ 25
对自己的@@ 25
吏@@ 25
2万@@ 25
套餐@@ 25
的哥@@ 25
自制@@ 25
用药@@ 25
劫@@ 25
。最后@@ 25
硬件@@ 25
是通过@@ 25
4号线@@ 25
的12@@ 25
集会@@ 25
三是@@ 25
勇敢@@ 25
7.0@@ 25
之二@@ 25
4G@@ 25
吴某@@ 25
锤@@ 25
痕迹@@ 25
剧本@@ 25
话筒@@ 25
爱你一世@@ 25
土楼@@ 25
亿元,占年计划的@@ 25
候选人@@ 25
。(实习编译:@@ 25
招待@@ 25
哈佛@@ 25
清剿@@ 25
保证金@@ 25
氯@@ 25
周某@@ 25
枪支@@ 25
幼女@@ 25
前妻@@ 25
放入@@ 25
维拉@@ 25
米兰@@ 25
放学@@ 25
秀英炮台@@ 25
华南虎@@ 25
李升基@@ 25
前景@@ 24
藏在@@ 24
友谊@@ 24
出任@@ 24
束@@ 24
玫瑰@@ 24
交谈@@ 24
,3@@ 24
哨@@ 24
谊@@ 24
修建@@ 24
年轻的@@ 24
发展、@@ 24
饱受@@ 24
常委@@ 24
监督、@@ 24
放射@@ 24
,应当@@ 24
账号@@ 24
信息。@@ 24
裁决@@ 24
节日期间@@ 24
党的建设@@ 24
自治区党委@@ 24
上来,@@ 24
代价@@ 24
基础上,@@ 24
牢@@ 24
严肃查处@@ 24
亿元,增长@@ 24
,发展@@ 24
稳步@@ 24
公正@@ 24
贩卖@@ 24
的传统@@ 24
上旬@@ 24
得不@@ 24
在日本@@ 24
设计的@@ 24
组,@@ 24
桩@@ 24
部门在@@ 24
筑@@ 24
BBC@@ 24
,将在@@ 24
调度@@ 24
勇于@@ 24
风云@@ 24
右手@@ 24
卫生计生委@@ 24
救命@@ 24
低保@@ 24
时间表@@ 24
第七@@ 24
躁@@ 24
子。@@ 24
”和@@ 24
印发《关于@@ 24
无烟机关@@ 24
日前在@@ 24
地上@@ 24
两张@@ 24
,原本@@ 24
珊@@ 24
没了@@ 24
确有@@ 24
半岛@@ 24
东南亚@@ 24
入户登记@@ 24
3.0@@ 24
又将@@ 24
贞@@ 24
绿地@@ 24
验证@@ 24
环境、@@ 24
江县@@ 24
船舶@@ 24
机 24
百货@@ 24
晚报记者@@ 24
向社会@@ 24
出具@@ 24
看病@@ 24
罗马尼亚@@ 24
屁股@@ 24
位居@@ 24
仗@@ 24
已成@@ 24
今天上午@@ 24
了解,@@ 24
,属于@@ 24
前日@@ 24
谈到@@ 24
范爷@@ 24
首度@@ 24
交易所@@ 24
1999年@@ 24
的文化@@ 24
宗旨@@ 24
恐惧@@ 24
南山@@ 24
3.5@@ 24
货币政策@@ 24
闸@@ 24
原来是@@ 24
点名@@ 24
条件的@@ 24
岁末@@ 24
,不同@@ 24
时至@@ 24
展望@@ 24
健康、@@ 24
掌声@@ 24
车牌@@ 24
介入@@ 24
生病@@ 24
新生@@ 24
是否有@@ 24
络@@ 24
楼梯@@ 24
实名举报@@ 24
部手机@@ 24
医院,@@ 24
治疗,@@ 24
权 24
外交部发言人@@ 24
克制@@ 24
历史上@@ 24
获释@@ 24
谴责@@ 24
早上,@@ 24
上传@@ 24
8点@@ 24
”一词@@ 24
的事实@@ 24
小伙子@@ 24
图书馆@@ 24
养老服务@@ 24
谎称@@ 24
境外@@ 24
聪@@ 24
式的@@ 24
发微博@@ 24
领域改革@@ 24
的10@@ 24
综合整治@@ 24
和中国@@ 24
,但其@@ 24
魄@@ 24
进军@@ 24
八大@@ 24
开始“@@ 24
80%@@ 24
“新@@ 24
的第一天,@@ 24
温泉@@ 24
挑战赛@@ 24
平方公里@@ 24
占道@@ 24
取代@@ 24
届全国@@ 24
现行@@ 24
困境@@ 24
电池@@ 24
标签@@ 24
社保@@ 24
影响了@@ 24
经济体制@@ 24
的任务@@ 24
受益@@ 24
设计,@@ 24
财政部@@ 24
,市民@@ 24
几天,@@ 24
孩@@ 24
小军@@ 24
严峻@@ 24
严格的@@ 24
无辜@@ 24
80后@@ 24
只有一个@@ 24
重量@@ 24
包裹@@ 24
业界@@ 24
霖@@ 24
佐@@ 24
唯一的@@ 24
热潮@@ 24
无菌药品@@ 24
的生产@@ 24
临床@@ 24
重要的是@@ 24
机会,@@ 24
的技术@@ 24
采用了@@ 24
身亡。@@ 24
汉中市纪委@@ 24
调查发现@@ 24
开办@@ 24
涉嫌犯罪@@ 24
齐全@@ 24
1月5日@@ 24
侦@@ 24
致辞@@ 24
单一@@ 24
奥地利@@ 24
彩票@@ 24
的元旦@@ 24
抢救无效@@ 24
,并称@@ 24
后将@@ 24
酿@@ 24
唇@@ 24
右侧@@ 24
1.4@@ 24
兔@@ 24
娅@@ 24
患者的@@ 24
20多@@ 24
吗?”@@ 24
误解@@ 24
。”在@@ 24
生理@@ 24
分散@@ 24
增收@@ 24
帮扶@@ 24
灌@@ 24
,组织@@ 24
我觉得@@ 24
限量@@ 24
一直持续到@@ 24
性物质@@ 24
给他们@@ 24
亨@@ 24
燥@@ 24
眠@@ 24
脾气@@ 24
结束后,@@ 24
此类@@ 24
赠@@ 24
我们就@@ 24
只见@@ 24
精心@@ 24
全新的@@ 24
进展。 24
而且@@ 24
经销商@@ 24
结局@@ 24
带上@@ 24
周年,@@ 24
速通卡@@ 24
可通过@@ 24
延误@@ 24
者”@@ 24
6点@@ 24
葛@@ 24
舞蹈@@ 24
限于@@ 24
,杨@@ 24
阿朱@@ 24
20万@@ 24
生 24
肾结石@@ 24
不易@@ 24
蛋黄@@ 24
等多项@@ 24
防癌@@ 24
抗癌@@ 24
做的@@ 24
说什么@@ 24
了?@@ 24
日常生活@@ 24
面部@@ 24
除此之外,@@ 24
湿度@@ 24
,让你@@ 24
胡萝卜素@@ 24
随便@@ 24
走红@@ 24
中还@@ 24
12种@@ 24
溃疡@@ 24
的角度@@ 24
”中,@@ 24
美、@@ 24
幻想@@ 24
名。 24
一堆@@ 24
,外公@@ 24
阿姨@@ 24
诉求@@ 24
谋划@@ 24
骏马@@ 24
宝贝@@ 24
米饭@@ 24
糊@@ 24
州的@@ 24
后发现@@ 24
多岁的@@ 24
将有@@ 24
还有很多@@ 24
大师@@ 24
出场@@ 24
说他@@ 24
何炅@@ 24
奢@@ 24
人家@@ 24
环境监测@@ 24
人员伤亡@@ 24
社区居委会@@ 24
无证@@ 24
仰@@ 24
不便@@ 24
集结@@ 24
相关负责人表示,@@ 24
将于今年@@ 24
的《关于@@ 24
括@@ 24
异地@@ 24
烫@@ 24
报复@@ 24
家、@@ 24
建国@@ 24
敬老院@@ 24
中海@@ 24
坝@@ 24
她家@@ 24
夫妇俩@@ 24
反抗@@ 24
费 24
省会@@ 24
祝福。 24
消毒@@ 24
其实是@@ 24
薯@@ 24
。对此@@ 24
杀死@@ 24
考古@@ 24
骨折@@ 24
这件事@@ 24
世人@@ 24
演技@@ 24
火山@@ 24
颗粒物@@ 24
20分钟@@ 24
高档@@ 24
手里@@ 24
天安门广场@@ 24
进一步做好领导干部报告个人有关事项@@ 24
小杨@@ 24
辅导@@ 24
夺回@@ 24
丑闻@@ 24
链@@ 24
冠华@@ 24
山市@@ 24
桐庐@@ 24
山,@@ 24
批文@@ 24
不少于@@ 24
不治@@ 24
例行记者会@@ 24
潜射@@ 24
北路@@ 24
辑@@ 24
歌葩最@@ 24
摇滚@@ 24
做得@@ 24
铲@@ 24
行政拘留@@ 24
男朋友@@ 24
“呵呵”,@@ 24
永定@@ 24
的节目@@ 24
宋忠平说,@@ 24
卫生计生机构@@ 24
卫生计生@@ 24
陈建@@ 24
巨灾@@ 24
罗拉@@ 24
赖特@@ 24
添置@@ 24
室、@@ 24
把她@@ 24
盛典@@ 24
、好@@ 24
维斯@@ 24
蜡像@@ 24
胡小姐@@ 24
陈姓女子@@ 24
日本海上保安厅@@ 24
尺度@@ 24
转学@@ 24
特种设备@@ 24
、[@@ 24
炮台@@ 24
宋某@@ 24
Raymond@@ 24
1997年@@ 23
看好@@ 23
有力的@@ 23
生于@@ 23
,迅速@@ 23
政委@@ 23
。同@@ 23
的改革@@ 23
犹@@ 23
的努力@@ 23
行车@@ 23
〈@@ 23
〉@@ 23
规章@@ 23
,将于@@ 23
等因素@@ 23
删@@ 23
包括:@@ 23
存放@@ 23
1次@@ 23
东亚@@ 23
用心@@ 23
会给@@ 23
各族@@ 23
结构、@@ 23
指示@@ 23
。我们要@@ 23
、科学@@ 23
全方位@@ 23
,打造@@ 23
大兴@@ 23
关爱@@ 23
条例》,@@ 23
坚持“@@ 23
转化为@@ 23
思维@@ 23
安全生产@@ 23
武警@@ 23
为10@@ 23
人次@@ 23
收入、@@ 23
进出口@@ 23
迅@@ 23
量刑规范化@@ 23
绳@@ 23
基准@@ 23
抢夺@@ 23
。各@@ 23
引入@@ 23
放假安排@@ 23
一趟@@ 23
枞树@@ 23
饰品@@ 23
写下@@ 23
全线@@ 23
建筑面积@@ 23
局部@@ 23
巢@@ 23
路的@@ 23
着一个@@ 23
过大@@ 23
。两人@@ 23
原来的@@ 23
复杂的@@ 23
殷@@ 23
长约@@ 23
区市@@ 23
医疗费用@@ 23
过得@@ 23
回家的@@ 23
务工@@ 23
多小时@@ 23
买的@@ 23
的干部@@ 23
烟头@@ 23
极品@@ 23
、最@@ 23
爱你@@ 23
送至@@ 23
办公室主任@@ 23
普查数据@@ 23
誉@@ 23
。(记者李@@ 23
码头@@ 23
放开@@ 23
一定的@@ 23
英国广播公司@@ 23
等国@@ 23
点评@@ 23
震慑@@ 23
。截至目前,@@ 23
栏目@@ 23
的,可@@ 23
。更@@ 23
关注度@@ 23
出访@@ 23
在国内@@ 23
装,@@ 23
要让@@ 23
7月,@@ 23
管理工作@@ 23
之中,@@ 23
实体经济@@ 23
。报道@@ 23
弊@@ 23
组织,@@ 23
搬迁@@ 23
存量@@ 23
,在“@@ 23
日趋@@ 23
数次@@ 23
Cindy@@ 23
目睹@@ 23
带,@@ 23
这对@@ 23
创业板@@ 23
,至今@@ 23
势头@@ 23
0.4@@ 23
茵@@ 23
,并于@@ 23
盯@@ 23
打通@@ 23
该县@@ 23
大喊@@ 23
可怕@@ 23
的手机@@ 23
曾多次@@ 23
3年,@@ 23
,他和@@ 23
场 23
乘坐地铁@@ 23
上午10点@@ 23
有两个@@ 23
12月28日@@ 23
地。 23
下手@@ 23
不低于@@ 23
民政部@@ 23
功能,@@ 23
市场、@@ 23
30日,@@ 23
一审@@ 23
宣判@@ 23
按时@@ 23
居民身份证@@ 23
无关@@ 23
升至@@ 23
旋风@@ 23
选择在@@ 23
丝绸之路经济带@@ 23
牢牢@@ 23
任务。@@ 23
注明@@ 23
虚拟@@ 23
可能在@@ 23
6次@@ 23
市)@@ 23
焕@@ 23
的机会@@ 23
的时代@@ 23
,所有@@ 23
拾@@ 23
净化@@ 23
山东省@@ 23
四方@@ 23
第一批@@ 23
重型@@ 23
辽宁@@ 23
举行了@@ 23
到来的@@ 23
核查@@ 23
4名@@ 23
在外@@ 23
各级政府@@ 23
发展战略@@ 23
中路@@ 23
’,@@ 23
丧失@@ 23
建设。 23
战士@@ 23
到现在@@ 23
不久,@@ 23
不得超过@@ 23
眼,@@ 23
备受关注的@@ 23
周刊》@@ 23
通过对@@ 23
一阵@@ 23
,均@@ 23
可控@@ 23
、从@@ 23
和完善@@ 23
从业@@ 23
会同@@ 23
9月4日@@ 23
岁。@@ 23
17日,@@ 23
审,@@ 23
交易平台@@ 23
。民警@@ 23
七八@@ 23
热爱@@ 23
流域@@ 23
禁毒@@ 23
援引@@ 23
转身@@ 23
情绪激动,@@ 23
下午3@@ 23
兑@@ 23
数据显示@@ 23
集中的@@ 23
,1月1日@@ 23
是以@@ 23
会使@@ 23
当即@@ 23
王子@@ 23
译@@ 23
ic@@ 23
别的@@ 23
ing@@ 23
岛国@@ 23
委屈@@ 23
精神病@@ 23
兴趣@@ 23
一根@@ 23
媛@@ 23
欲望@@ 23
变动@@ 23
”,这@@ 23
治污@@ 23
国际化@@ 23
自贸区@@ 23
下载@@ 23
下一代@@ 23
韦伯@@ 23
分管@@ 23
法拉利@@ 23
网络上@@ 23
试点,@@ 23
岩石@@ 23
翠@@ 23
文献@@ 23
光线@@ 23
仍旧@@ 23
第二个@@ 23
9月,@@ 23
煽动@@ 23
格外@@ 23
学友@@ 23
演唱会@@ 23
节目《@@ 23
株@@ 23
高中@@ 23
变身@@ 23
霜@@ 23
。有些@@ 23
二手@@ 23
男人的@@ 23
年龄的@@ 23
11个@@ 23
骨骼@@ 23
脾@@ 23
胶原@@ 23
,保持@@ 23
脑部@@ 23
寻常@@ 23
帮你@@ 23
,一是@@ 23
津贴@@ 23
的成绩@@ 23
无所@@ 23
芽@@ 23
保健食品@@ 23
高出@@ 23
含有大量的@@ 23
酮@@ 23
不该@@ 23
名誉@@ 23
解毒@@ 23
的是,在@@ 23
美容@@ 23
酸盐@@ 23
弥@@ 23
,不料@@ 23
藉@@ 23
愧@@ 23
交换@@ 23
兄@@ 23
闹钟@@ 23
球,@@ 23
伤口@@ 23
上诉@@ 23
单独@@ 23
iPad@@ 23
发给@@ 23
1.8@@ 23
的4@@ 23
绩@@ 23
的最新@@ 23
北京的@@ 23
一本@@ 23
座位@@ 23
可爱的@@ 23
,尽管@@ 23
倾听@@ 23
摄影师@@ 23
运送@@ 23
的做法@@ 23
消息称,@@ 23
加价@@ 23
汽车尾气@@ 23
物业公司@@ 23
率达@@ 23
[北京市@@ 23
也就是@@ 23
间隔@@ 23
角落@@ 23
独生子女@@ 23
出现的@@ 23
转换@@ 23
破冰@@ 23
。另一@@ 23
滞留@@ 23
定点@@ 23
被警方@@ 23
台风“@@ 23
工会@@ 23
应有的@@ 23
回报@@ 23
别墅@@ 23
和她@@ 23
三沙书记市长肖杰:2014是建设发展机遇之年 23
海南2013年十件民生实事完成接受群众检阅 23
《三沙新闻》元旦首发肖杰签名送本网记者 23
本网关注:特困户黄仕宣新年将圆电动车梦想 23
海口环海大厦百余业主苦等8年仍未拿房产证 23
视频:阿婆为受虐者作证遭殴派出所无下文 23
海南实施新交规一年:共对近88万名驾驶人记分 23
热带@@ 23
惩@@ 23
关停@@ 23
难、@@ 23
红包@@ 23
监测点@@ 23
、百@@ 23
登记、@@ 23
不需要@@ 23
开行@@ 23
街坊四邻@@ 23
时,她@@ 23
设想@@ 23
自贡@@ 23
十五@@ 23
会”@@ 23
商圈@@ 23
不正之风@@ 23
企业家@@ 23
AQI@@ 23
面对面@@ 23
穆沙拉夫@@ 23
、谢@@ 23
托德@@ 23
纪检监察干部@@ 23
处级@@ 23
成立了@@ 23
的名字@@ 23
也纷纷@@ 23
时才@@ 23
屋内@@ 23
极具@@ 23
.03@@ 23
勘察@@ 23
案。 23
,有时@@ 23
竞选@@ 23
超女@@ 23
民用@@ 23
阳县@@ 23
申请人@@ 23
被盗抢@@ 23
锅炉@@ 23
1:@@ 23
期末@@ 23
教育的@@ 23
一针@@ 23
歼-@@ 23
刘亦菲@@ 23
普通的@@ 23
张卫华@@ 23
300元@@ 23
幸福的@@ 23
30岁@@ 23
沿海@@ 23
晓明@@ 23
喂食@@ 23
爱”@@ 23
书记 23
,我区@@ 23
。”张@@ 23
专业化@@ 23
好像@@ 23
中国驻旧金山总领馆@@ 23
,近日@@ 23
3.3@@ 23
1个月@@ 23
遣返@@ 23
捉迷藏@@ 23
的几@@ 23
小偷@@ 23
宠物@@ 23
拿起@@ 23
纸杯@@ 23
审稿:@@ 23
洗浴@@ 23
打印@@ 23
发明@@ 23
水下@@ 23
仲裁@@ 23
孙女士@@ 23
胡斯蒂娜@@ 23
冯小刚@@ 23
魔仙@@ 23
红军@@ 23
电休克疗法@@ 23
衢江@@ 23
贾某@@ 23
巴士@@ 23
,[@@ 23
曾佩伦@@ 23
在2013年的@@ 22
牢固@@ 22
恐怖主义@@ 22
措施。@@ 22
同胞@@ 22
,送@@ 22
的蔬菜@@ 22
我们在@@ 22
,让我们@@ 22
前行@@ 22
1月1日电(@@ 22
裁判文书@@ 22
牲畜@@ 22
时在@@ 22
应急预案@@ 22
水源@@ 22
10万元@@ 22
当事@@ 22
、负债@@ 22
专门的@@ 22
耍@@ 22
要将@@ 22
陈全国@@ 22
着眼@@ 22
关怀@@ 22
210@@ 22
邓小平@@ 22
红线@@ 22
而努力@@ 22
用好@@ 22
夕@@ 22
创新、@@ 22
生产总值@@ 22
元、@@ 22
在这一@@ 22
亿美元,@@ 22
有4@@ 22
作了@@ 22
单纯@@ 22
崩溃@@ 22
难免@@ 22
一天,@@ 22
周二@@ 22
庞@@ 22
掘@@ 22
洽谈@@ 22
腿部@@ 22
进一步调查@@ 22
微博上@@ 22
欺负@@ 22
厦门市@@ 22
群众路线@@ 22
箭@@ 22
过去的一年@@ 22
,全省@@ 22
5分钟@@ 22
报警。 22
去年,@@ 22
(包括@@ 22
注射@@ 22
家长们@@ 22
9时@@ 22
避开@@ 22
客流量@@ 22
意,@@ 22
各级领导干部@@ 22
卫生间@@ 22
黄子华@@ 22
谜@@ 22
同居@@ 22
傍晚@@ 22
酬@@ 22
高管@@ 22
价值观@@ 22
直言@@ 22
帅气@@ 22
。(记者陈@@ 22
徒步@@ 22
饥@@ 22
这一幕@@ 22
带回@@ 22
网银@@ 22
下午,记者@@ 22
这家@@ 22
一笔@@ 22
瞩@@ 22
,最好@@ 22
捐赠@@ 22
层出不穷@@ 22
被媒体@@ 22
定了@@ 22
黄岐@@ 22
马祖@@ 22
传承@@ 22
无聊@@ 22
交付@@ 22
永久@@ 22
多样@@ 22
。一般@@ 22
金钱@@ 22
74@@ 22
北美@@ 22
视察@@ 22
据中国@@ 22
澜@@ 22
2012年12月@@ 22
改版@@ 22
31个@@ 22
产业结构@@ 22
宵@@ 22
贺岁@@ 22
,今天@@ 22
情况进行@@ 22
湖区@@ 22
用车@@ 22
要“@@ 22
会员@@ 22
6名@@ 22
了一系列@@ 22
发言@@ 22
恶意@@ 22
生活在@@ 22
轿@@ 22
也为@@ 22
烟火@@ 22
长沙营可@@ 22
配方@@ 22
完成后,@@ 22
销售的@@ 22
,结束@@ 22
,怎么@@ 22
呼救@@ 22
倒是@@ 22
岳母@@ 22
中年@@ 22
解决方案@@ 22
,可谓@@ 22
,之后@@ 22
丰田@@ 22
下调@@ 22
,吴@@ 22
最快@@ 22
老爸@@ 22
悬挂@@ 22
禁止吸烟@@ 22
杭@@ 22
不好意思@@ 22
立案调查@@ 22
时30分@@ 22
职,@@ 22
也对@@ 22
膝@@ 22
认出@@ 22
建立健全@@ 22
提升,@@ 22
等方式,@@ 22
的钻石@@ 22
受害人@@ 22
毕业后@@ 22
。法院@@ 22
均已@@ 22
。日前,@@ 22
臣@@ 22
者在@@ 22
批示@@ 22
,增强@@ 22
刚刚过去的@@ 22
分裂@@ 22
的信息@@ 22
主打@@ 22
。王@@ 22
二级@@ 22
6%@@ 22
的颜色@@ 22
蓬@@ 22
雀@@ 22
中央领导@@ 22
。没有@@ 22
韧@@ 22
餐馆@@ 22
3月1日@@ 22
受到法律@@ 22
量为@@ 22
遥控@@ 22
捷@@ 22
融入@@ 22
赞助@@ 22
会“@@ 22
好评@@ 22
高等@@ 22
经济体@@ 22
系统、@@ 22
转移到@@ 22
艰难@@ 22
冲动@@ 22
,基本@@ 22
经验,@@ 22
。二是@@ 22
体现在@@ 22
顶层@@ 22
招考@@ 22
不久前@@ 22
大学的@@ 22
话,@@ 22
管控@@ 22
分析人士@@ 22
清醒@@ 22
、使用@@ 22
———@@ 22
失误@@ 22
交涉@@ 22
民俗@@ 22
记者问@@ 22
颇为@@ 22
PMI@@ 22
的有效@@ 22
泛@@ 22
有哪些@@ 22
协作@@ 22
市红十字会账户@@ 22
尸检@@ 22
失血@@ 22
善后@@ 22
正在进行@@ 22
新兴@@ 22
窥@@ 22
朝着@@ 22
12月30日,@@ 22
获奖@@ 22
机的@@ 22
打电话给@@ 22
既然@@ 22
行程@@ 22
扎堆@@ 22
瘫痪@@ 22
享受到@@ 22
分歧@@ 22
说,当时@@ 22
年份@@ 22
那天@@ 22
天坛生物@@ 22
出来。 22
毫米@@ 22
间 22
场内@@ 22
等多种@@ 22
已经在@@ 22
了,就@@ 22
基础上@@ 22
渠@@ 22
,一年@@ 22
,再加上@@ 22
等方面的@@ 22
长跑@@ 22
退役@@ 22
几个月@@ 22
,这名@@ 22
边缘@@ 22
燃放@@ 22
烦恼@@ 22
沐@@ 22
和家人@@ 22
荧屏@@ 22
被网友@@ 22
会是@@ 22
杀手@@ 22
误会@@ 22
也应@@ 22
不去@@ 22
妍@@ 22
手脚@@ 22
有媒体@@ 22
业余@@ 22
一口@@ 22
不成@@ 22
了,我们@@ 22
地将@@ 22
理财产品@@ 22
之间,@@ 22
的最佳@@ 22
韩朝@@ 22
美国和@@ 22
誓言@@ 22
这个词@@ 22
是想@@ 22
两地@@ 22
保管@@ 22
幻觉@@ 22
的海@@ 22
建设。@@ 22
SA@@ 22
ag@@ 22
要是@@ 22
OS@@ 22
不行@@ 22
英寸@@ 22
,市@@ 22
上调@@ 22
昨天(@@ 22
京津冀@@ 22
比对@@ 22
长三角@@ 22
,进而@@ 22
拥抱@@ 22
的张@@ 22
老伴@@ 22
好多@@ 22
找不到@@ 22
6、@@ 22
的吸收@@ 22
圣诞老人@@ 22
缸@@ 22
的表现@@ 22
认为是@@ 22
的传闻@@ 22
少,@@ 22
卵@@ 22
痴@@ 22
肋@@ 22
尺@@ 22
,就连@@ 22
了”。 22
酸、@@ 22
千万不要@@ 22
,及时@@ 22
廉政@@ 22
,那就@@ 22
轻微@@ 22
悟@@ 22
段誉@@ 22
这张@@ 22
牙膏@@ 22
建议:@@ 22
[很多人@@ 22
魁@@ 22
生的@@ 22
演艺@@ 22
100克@@ 22
适量@@ 22
乳腺癌@@ 22
不含@@ 22
很大,@@ 22
香艳@@ 22
糕@@ 22
,又是@@ 22
效果。 22
筹备@@ 22
情。 22
3位@@ 22
中青年@@ 22
古人@@ 22
的世界@@ 22
目的,@@ 22
膝盖@@ 22
购车@@ 22
用,@@ 22
。即使@@ 22
缔@@ 22
万余元@@ 22
钞@@ 22
额的@@ 22
ro@@ 22
扮@@ 22
号”@@ 22
太空@@ 22
十六@@ 22
世界各地@@ 22
泼@@ 22
行政审批@@ 22
大火@@ 22
油品@@ 22
行为的@@ 22
硫@@ 22
沦@@ 22
反思@@ 22
高架@@ 22
老汉@@ 22
鞭炮@@ 22
右翼@@ 22
尹@@ 22
人力资源和社会保障@@ 22
几年,@@ 22
的另一@@ 22
”组织@@ 22
添加@@ 22
翘@@ 22
毫无@@ 22
树林@@ 22
14年@@ 22
不堪@@ 22
”计划@@ 22
为基础@@ 22
装的@@ 22
元旦海南游账单写满盈字游客乐游新景点 22
对此事@@ 22
见习记者@@ 22
人防@@ 22
秀英@@ 22
提高到@@ 22
服务。 22
渝@@ 22
越野@@ 22
包间@@ 22
见到了@@ 22
客服@@ 22
否则@@ 22
卧室@@ 22
站点@@ 22
棚户区改造@@ 22
合计@@ 22
区。 22
庆丰@@ 22
是指@@ 22
度污染@@ 22
。若@@ 22
公里。 22
捣@@ 22
爸爸们@@ 22
葬@@ 22
夫人@@ 22
新浪@@ 22
有不@@ 22
珀@@ 22
的人物@@ 22
,截至@@ 22
了”,@@ 22
途中@@ 22
美的@@ 22
背影@@ 22
氮@@ 22
县城@@ 22
郝@@ 22
揉@@ 22
条款@@ 22
.09@@ 22
夫妻二人@@ 22
跟帖@@ 22
升旗@@ 22
办主任@@ 22
股价@@ 22
铁路总公司客服热线@@ 22
自身的@@ 22
饮用@@ 22
汀@@ 22
我们家@@ 22
毛主席的@@ 22
踪@@ 22
通车@@ 22
家。 22
管网@@ 22
殡仪馆@@ 22
设施,@@ 22
一次性@@ 22
捷克@@ 22
侦察@@ 22
门店@@ 22
成以上@@ 22
的下@@ 22
“东@@ 22
Su@@ 22
展览@@ 22
殿@@ 22
全国歌葩地图@@ 22
爱唱@@ 22
“零点报告@@ 22
土地流转@@ 22
大年初一@@ 22
1月2日电@@ 22
900@@ 22
暖气@@ 22
上头条@@ 22
激怒@@ 22
伤,有人@@ 22
时用“呵呵”,@@ 22
小红帽@@ 22
周总理@@ 22
放缓@@ 22
谭@@ 22
涵@@ 22
正体汉字@@ 22
公斤,@@ 22
检察官@@ 22
州长@@ 22
农民工工资@@ 22
平价@@ 22
总领事馆@@ 22
刘姓大学生@@ 22
诺基亚@@ 22
微克@@ 22
超限@@ 22
天成@@ 22
有轨电车@@ 22
学霸@@ 22
班级@@ 22
汪精卫@@ 22
陇@@ 22
水量@@ 22
思想和@@ 21
无比@@ 21
一所@@ 21
封锁@@ 21
疏散@@ 21
,其中有@@ 21
午饭@@ 21
可能有@@ 21
公平正义@@ 21
的支持@@ 21
春天@@ 21
路径@@ 21
中外@@ 21
“对@@ 21
今日起@@ 21
施行,@@ 21
储存@@ 21
查验@@ 21
有权@@ 21
以下的@@ 21
制、@@ 21
金融资产@@ 21
还表示,@@ 21
缆@@ 21
1名@@ 21
。(完) 21
供奉@@ 21
将他@@ 21
2014年新年@@ 21
各族人民@@ 21
党的十八届三中全会@@ 21
十二五”@@ 21
光荣@@ 21
稳定、@@ 21
召开的@@ 21
制度改革@@ 21
基础。 21
建设项目@@ 21
生产生活@@ 21
弦@@ 21
厌@@ 21
的良好@@ 21
自律@@ 21
高级人民法院@@ 21
与此同时,@@ 21
。预计@@ 21
八成@@ 21
等均@@ 21
倩@@ 21
骤@@ 21
故意伤害@@ 21
周三@@ 21
周五@@ 21
这两天@@ 21
上方@@ 21
新年前夜@@ 21
,并把@@ 21
家门@@ 21
每逢@@ 21
热衷@@ 21
特有的@@ 21
进一步完善@@ 21
市民的@@ 21
高、@@ 21
强,@@ 21
112@@ 21
龙头企业@@ 21
影响力@@ 21
高峰期@@ 21
调整为@@ 21
军委@@ 21
问候@@ 21
工作者@@ 21
弃婴@@ 21
,上面@@ 21
福利院@@ 21
以内@@ 21
带着孩子@@ 21
谨慎@@ 21
扯@@ 21
耳朵@@ 21
后,再@@ 21
,接受@@ 21
笑着@@ 21
了,“@@ 21
中办、国办@@ 21
当下,@@ 21
湖南省委@@ 21
4个月@@ 21
一时@@ 21
,我想@@ 21
同盟@@ 21
邻国@@ 21
实地@@ 21
更改@@ 21
的关系@@ 21
《联合@@ 21
注入@@ 21
一”@@ 21
,随着@@ 21
德国总理@@ 21
,因而@@ 21
管理体制@@ 21
将持续@@ 21
冤@@ 21
现象,@@ 21
上千@@ 21
15岁@@ 21
灵活@@ 21
、打@@ 21
已累计@@ 21
审议@@ 21
奶奶@@ 21
地块@@ 21
的衣服@@ 21
交叉@@ 21
锡@@ 21
配合下,@@ 21
比普通@@ 21
桔@@ 21
美国总统@@ 21
标志着@@ 21
跨年晚会,@@ 21
12个@@ 21
压轴@@ 21
,也不@@ 21
足足@@ 21
到医院@@ 21
嘱@@ 21
,所@@ 21
销毁@@ 21
胺@@ 21
分析师@@ 21
的土地增值税@@ 21
等多个@@ 21
调控政策@@ 21
要从@@ 21
尖叫@@ 21
首次公开@@ 21
那儿@@ 21
不小@@ 21
认识了@@ 21
逗@@ 21
老人的@@ 21
儿子的@@ 21
半数@@ 21
推出“@@ 21
各位@@ 21
称:@@ 21
该车@@ 21
本文@@ 21
交所@@ 21
发表声明@@ 21
辞旧@@ 21
繁华@@ 21
酒,@@ 21
表示,他@@ 21
气象局@@ 21
吧。”@@ 21
等问题,@@ 21
生命危险@@ 21
正风肃纪@@ 21
鹤@@ 21
关切@@ 21
,以防@@ 21
权的@@ 21
敦促@@ 21
赶往@@ 21
公共交通@@ 21
养老机构@@ 21
8年,@@ 21
货款@@ 21
该案@@ 21
已构成@@ 21
黑暗@@ 21
半夜@@ 21
[北京@@ 21
干部群众@@ 21
共青团@@ 21
工程建设@@ 21
孜@@ 21
、五@@ 21
儿女@@ 21
赢得了@@ 21
,也不能@@ 21
“这@@ 21
告诉记者。 21
吸烟,@@ 21
层面@@ 21
采访中,@@ 21
市委、市政府@@ 21
要去@@ 21
旅游局@@ 21
恐怖组织@@ 21
世界卫生组织@@ 21
竞赛@@ 21
2010年,@@ 21
占比@@ 21
建立了@@ 21
经济体制改革@@ 21
三、@@ 21
新能源@@ 21
行人@@ 21
店铺@@ 21
明珠@@ 21
气息@@ 21
布置@@ 21
加班@@ 21
范畴@@ 21
传染病@@ 21
实验室@@ 21
支柱@@ 21
禽流感@@ 21
科学院院士@@ 21
的问题。 21
后,她@@ 21
想过@@ 21
青海@@ 21
记者的@@ 21
财物@@ 21
被砸@@ 21
在纽约@@ 21
惑@@ 21
跑步@@ 21
参赛@@ 21
合理的@@ 21
无菌药品生产企业@@ 21
参照@@ 21
控制,@@ 21
中原@@ 21
五是@@ 21
,有利于@@ 21
时限@@ 21
“三农”@@ 21
院校@@ 21
留守@@ 21
张某在家中自杀@@ 21
。11月@@ 21
之便,@@ 21
违纪问题@@ 21
印章@@ 21
有意@@ 21
的想法@@ 21
一台@@ 21
了一台@@ 21
,4@@ 21
元旦假期@@ 21
颅@@ 21
级,@@ 21
浸@@ 21
靓@@ 21
解除@@ 21
拉脱维亚@@ 21
4年,@@ 21
创造了@@ 21
事故原因@@ 21
,男子@@ 21
惟@@ 21
给女儿@@ 21
村,@@ 21
限期@@ 21
买票@@ 21
藤@@ 21
农场@@ 21
番茄@@ 21
多元化@@ 21
不存在@@ 21
工作和@@ 21
征集@@ 21
说:“我们@@ 21
党组织@@ 21
未婚@@ 21
的日子@@ 21
12月30日报道,@@ 21
剑桥@@ 21
女童@@ 21
-M@@ 21
荷兰@@ 21
塔尔@@ 21
西班牙@@ 21
也成为@@ 21
的强@@ 21
资深@@ 21
椎@@ 21
某种@@ 21
齿@@ 21
在自己@@ 21
一会儿@@ 21
可以通过@@ 21
诸如@@ 21
“土豪@@ 21
货币基金@@ 21
宝鸡@@ 21
延安@@ 21
带给@@ 21
5万@@ 21
市场上@@ 21
8.@@ 21
、对@@ 21
双向@@ 21
一部@@ 21
车身@@ 21
又在@@ 21
家里人@@ 21
苹果公司@@ 21
收支@@ 21
乐趣@@ 21
大声@@ 21
交通委@@ 21
去年12月28日@@ 21
下机@@ 21
艇@@ 21
漂移@@ 21
牵头@@ 21
四个月@@ 21
拍到@@ 21
CEO@@ 21
网球@@ 21
好了,@@ 21
沉淀@@ 21
每天吃@@ 21
银幕@@ 21
无意@@ 21
小客车@@ 21
设置了@@ 21
等“@@ 21
年满@@ 21
过多的@@ 21
肌肤@@ 21
原标题:养生警惕:@@ 21
人民医院@@ 21
的人,@@ 21
血液循环@@ 21
的营养@@ 21
的唯一@@ 21
糙@@ 21
,还会@@ 21
色素@@ 21
呕吐@@ 21
俗话@@ 21
走路@@ 21
痛、@@ 21
离不开@@ 21
生殖@@ 21
”这一@@ 21
首位@@ 21
看似@@ 21
很可能@@ 21
升高@@ 21
乳腺@@ 21
处 21
大片@@ 21
。这样的@@ 21
补血@@ 21
时要@@ 21
矿物质@@ 21
大于@@ 21
的天气@@ 21
雾霾天气@@ 21
据台湾媒体报道,@@ 21
主播@@ 21
几家@@ 21
了一条@@ 21
很正常@@ 21
性生活@@ 21
对照@@ 21
封闭@@ 21
的利益@@ 21
是我@@ 21
化 21
被判@@ 21
解决。 21
出资@@ 21
者 21
东西,@@ 21
是针对@@ 21
植入@@ 21
im@@ 21
像是@@ 21
技巧@@ 21
幕。@@ 21
斯坦@@ 21
生日,@@ 21
在他@@ 21
描@@ 21
彭帅@@ 21
谢娜@@ 21
不肯@@ 21
晚高峰@@ 21
以外@@ 21
对地@@ 21
。中新社发@@ 21
离奇@@ 21
小微企业@@ 21
店主@@ 21
:我们@@ 21
元升@@ 21
多地@@ 21
退市@@ 21
民众对@@ 21
农民自建房@@ 21
两周@@ 21
旬@@ 21
医护人员@@ 21
和县@@ 21
清洗@@ 21
。”她@@ 21
的出台@@ 21
的夫妇@@ 21
会见@@ 21
两岸关系@@ 21
历史文化@@ 21
ell@@ 21
司令@@ 21
从此@@ 21
问:@@ 21
。中方@@ 21
表示,他们@@ 21
做一个@@ 21
家电@@ 21
6年,@@ 21
选址@@ 21
喜悦@@ 21
客人@@ 21
地处@@ 21
。”该@@ 21
美兰@@ 21
张贴@@ 21
越来越多的@@ 21
反馈@@ 21
降温@@ 21
颠覆@@ 21
21时@@ 21
立交@@ 21
遣@@ 21
已经开始@@ 21
警方的@@ 21
区(@@ 21
部门将@@ 21
军区@@ 21
。然而,@@ 21
曾有@@ 21
,并与@@ 21
会所@@ 21
段时间,@@ 21
记者会@@ 21
通州区@@ 21
女明星@@ 21
金店@@ 21
网站上@@ 21
照片 21
立体@@ 21
湘潭@@ 21
商人@@ 21
斐@@ 21
女主角@@ 21
唱《@@ 21
很多,@@ 21
发扬@@ 21
截止@@ 21
违纪违法@@ 21
日本宪法@@ 21
缅甸@@ 21
成了“@@ 21
牙龈@@ 21
默默@@ 21
先是@@ 21
3D@@ 21
广东卫视@@ 21
富有@@ 21
城郊@@ 21
韩某@@ 21
什么时候@@ 21
燃油@@ 21
裴@@ 21
胎儿@@ 21
中央纪委监察部@@ 21
处分;@@ 21
。198@@ 21
贾迈勒@@ 21
照片,@@ 21
室友@@ 21
报价@@ 21
好莱坞@@ 21
增量@@ 21
血拼@@ 21
房、@@ 21
事、@@ 21
劳教人员@@ 21
监管安全@@ 21
微软@@ 21
第一期@@ 21
”活动,@@ 21
严重损毁@@ 21
表白@@ 21
度、@@ 21
呼和浩特@@ 21
人行@@ 21
首要污染物@@ 21
国九条@@ 21
富帅@@ 21
核导弹@@ 21
跟他@@ 21
TC@@ 21
'@@ 21
柏芝@@ 21
芹@@ 21
基隆@@ 21
V60@@ 21
游、@@ 21
丰胸@@ 21
不文明@@ 21
【正文】 21
审计署@@ 21
石家庄市@@ 21
东大街派出所@@ 21
彭冠英@@ 21
林峯@@ 21
保电@@ 21
西沙@@ 21
用血@@ 21
晓风@@ 21
海冰@@ 21
海南热点新闻推荐 21
民生实事:[老有所依海南7家新建敬老院落成 21
观澜湖@@ 21
普选@@ 21
福州新区@@ 21
押钞员@@ 21
致以@@ 20
劳动党@@ 20
金日成@@ 20
碍@@ 20
里·@@ 20
合并@@ 20
占领@@ 20
细致@@ 20
。”这是@@ 20
践行@@ 20
定义@@ 20
路上,@@ 20
身份证件@@ 20
《铁路安全管理条例》@@ 20
;三是@@ 20
日本军国主义@@ 20
党和国家@@ 20
精神、@@ 20
中期@@ 20
的一系列@@ 20
、政府@@ 20
92@@ 20
以2@@ 20
社会各界@@ 20
;第三@@ 20
判处有期徒刑@@ 20
黄山@@ 20
100元@@ 20
。小@@ 20
利于@@ 20
表示。 20
纸条@@ 20
放进@@ 20
是一场@@ 20
掌握了@@ 20
膀@@ 20
1号线@@ 20
,东@@ 20
每小时@@ 20
可达@@ 20
后,又@@ 20
民工@@ 20
开口@@ 20
驳@@ 20
东山@@ 20
进取@@ 20
弓@@ 20
在京@@ 20
医疗机构@@ 20
居住地@@ 20
拖欠@@ 20
专项资金@@ 20
省委常委、@@ 20
找出@@ 20
,不如@@ 20
走廊@@ 20
私下@@ 20
起来。 20
范儿@@ 20
几位主演@@ 20
的电影@@ 20
金额为@@ 20
分行@@ 20
沸@@ 20
自卫队@@ 20
单位、@@ 20
发展和@@ 20
名列@@ 20
联赛@@ 20
舅舅@@ 20
未必@@ 20
多位@@ 20
削@@ 20
答案@@ 20
派对@@ 20
管理部门@@ 20
,2014@@ 20
挽回@@ 20
孕妇@@ 20
恰恰@@ 20
舰队@@ 20
驱逐舰@@ 20
护卫舰@@ 20
中纪委@@ 20
,就可以@@ 20
风貌@@ 20
,一家@@ 20
钱。 20
门的@@ 20
型的@@ 20
所说的@@ 20
奢侈@@ 20
王岳伦@@ 20
回国@@ 20
新歌@@ 20
独特的@@ 20
说我@@ 20
允@@ 20
咳@@ 20
100%@@ 20
涉及的@@ 20
霉@@ 20
受损@@ 20
报告》@@ 20
表述@@ 20
适度@@ 20
土地增值税清算@@ 20
的条件@@ 20
向媒体@@ 20
违法建筑@@ 20
,仍@@ 20
0.5@@ 20
,在一@@ 20
话语@@ 20
爸爸去哪儿》@@ 20
搞笑@@ 20
动了@@ 20
年仅@@ 20
已婚@@ 20
配偶@@ 20
庞大的@@ 20
获批@@ 20
公务活动中严禁吸烟@@ 20
会议室@@ 20
,也没有@@ 20
另一位@@ 20
解救@@ 20
鼻子@@ 20
务必@@ 20
措施。 20
提问@@ 20
内政@@ 20
昔@@ 20
会展中心站@@ 20
。直到@@ 20
,也不是@@ 20
通州@@ 20
一下。 20
为由@@ 20
此时,@@ 20
在被@@ 20
牟@@ 20
近3@@ 20
军人@@ 20
20余@@ 20
将于2014年@@ 20
日后@@ 20
激活@@ 20
钩@@ 20
吾@@ 20
负有@@ 20
”上@@ 20
可以让@@ 20
更多人@@ 20
9.@@ 20
荣获@@ 20
称号@@ 20
大户@@ 20
啃@@ 20
这一年,@@ 20
推向@@ 20
兰州市@@ 20
不吸烟@@ 20
偿还@@ 20
,晚上@@ 20
馒头@@ 20
了自己的@@ 20
祭拜@@ 20
选拔@@ 20
1亿@@ 20
卫生部@@ 20
场馆@@ 20
次会议@@ 20
驱动@@ 20
水平的@@ 20
香港的@@ 20
附加值@@ 20
,企业@@ 20
减排@@ 20
长假@@ 20
,享受@@ 20
这座@@ 20
三口@@ 20
打着@@ 20
也是一@@ 20
挑选@@ 20
有很大@@ 20
国家战略@@ 20
生物威胁@@ 20
患上@@ 20
67@@ 20
了,但@@ 20
的微博@@ 20
记者看到@@ 20
出院@@ 20
烈士@@ 20
立方米@@ 20
的第@@ 20
事后,@@ 20
看守所@@ 20
纲@@ 20
火热@@ 20
退货@@ 20
教练@@ 20
和张@@ 20
乙@@ 20
意义。 20
党组@@ 20
教育和@@ 20
腹股沟@@ 20
实体@@ 20
技术的@@ 20
。据了解@@ 20
。后来@@ 20
嫌疑人的@@ 20
被依法@@ 20
的原@@ 20
埠@@ 20
偏重@@ 20
叠加@@ 20
菁@@ 20
客厅@@ 20
偶尔@@ 20
护士@@ 20
填补@@ 20
多尔@@ 20
逃离@@ 20
,马@@ 20
对该@@ 20
、信息@@ 20
长城@@ 20
死亡,@@ 20
18日,@@ 20
等相关@@ 20
静脉@@ 20
台南@@ 20
贬@@ 20
短期内@@ 20
见的@@ 20
行情@@ 20
肉,@@ 20
狮@@ 20
无论是@@ 20
明确表示@@ 20
,更有@@ 20
兴业@@ 20
逐年@@ 20
两三@@ 20
览@@ 20
热水@@ 20
高产@@ 20
长久@@ 20
政府部门@@ 20
搜救@@ 20
,这款@@ 20
花车@@ 20
夷@@ 20
商城@@ 20
一夜@@ 20
追问@@ 20
真人秀@@ 20
节目中,@@ 20
女朋友@@ 20
等症状@@ 20
关节@@ 20
病。 20
的部分@@ 20
时30分,@@ 20
华东@@ 20
剥夺@@ 20
没收@@ 20
劝说@@ 20
棍@@ 20
近来@@ 20
侵害@@ 20
;“@@ 20
3 20
压缩@@ 20
下达@@ 20
,主要是@@ 20
扶贫@@ 20
地对@@ 20
于2013年@@ 20
低估@@ 20
年均@@ 20
,就像@@ 20
网,@@ 20
多方@@ 20
,支持@@ 20
背部@@ 20
的门@@ 20
轻轻@@ 20
屯@@ 20
纽@@ 20
,国家@@ 20
管道@@ 20
安检@@ 20
海南岛@@ 20
跨年演唱@@ 20
互动,@@ 20
十七@@ 20
ig@@ 20
兜@@ 20
“开@@ 20
视野@@ 20
迷奸@@ 20
世界排名@@ 20
职业生涯@@ 20
含义@@ 20
会增加@@ 20
杏@@ 20
早年@@ 20
全面深化改革元年@@ 20
收入分配改革细则@@ 20
养老金并轨@@ 20
内容。 20
总体方案@@ 20
给大家@@ 20
,长@@ 20
白发@@ 20
一定程度上@@ 20
爱 20
森碟@@ 20
冷静@@ 20
提示:@@ 20
出手@@ 20
呵护@@ 20
体内的@@ 20
痛苦@@ 20
。由@@ 20
质、@@ 20
,省@@ 20
演奏@@ 20
不好,@@ 20
食物的@@ 20
上榜@@ 20
吃喝@@ 20
,哪怕@@ 20
坚果@@ 20
驴@@ 20
白萝卜@@ 20
抗氧化@@ 20
拼命@@ 20
以及“@@ 20
%以上。 20
便,@@ 20
卡路@@ 20
榜首@@ 20
林心如@@ 20
会导致@@ 20
明明@@ 20
腹胀@@ 20
纤维素@@ 20
美,@@ 20
,能够@@ 20
民歌@@ 20
钢琴@@ 20
一个多月@@ 20
好了@@ 20
凿@@ 20
叔叔@@ 20
提出的@@ 20
来得@@ 20
餐,@@ 20
。你@@ 20
索尔@@ 20
保罗@@ 20
车 20
名下@@ 20
动的@@ 20
都不能@@ 20
的房@@ 20
与美国@@ 20
*@@ 20
th@@ 20
全美@@ 20
C罗@@ 20
认同@@ 20
紧接着@@ 20
》一@@ 20
接吻@@ 20
做“@@ 20
今后,@@ 20
地把@@ 20
共享@@ 20
村长@@ 20
在一个@@ 20
了三@@ 20
荆@@ 20
海北广场@@ 20
、财产@@ 20
个工作日内进行@@ 20
公示不少于@@ 20
;区住建@@ 20
坠楼@@ 20
过。 20
两人的@@ 20
站着@@ 20
缩小@@ 20
[十八届三中全会@@ 20
协定@@ 20
中国军队@@ 20
也从@@ 20
公报@@ 20
政策和@@ 20
华盛顿@@ 20
小说@@ 20
清单@@ 20
理应@@ 20
一季度@@ 20
辉煌@@ 20
哺乳@@ 20
赠送@@ 20
,跟@@ 20
年级@@ 20
地在@@ 20
指挥部@@ 20
李伟@@ 20
,让这个@@ 20
,全年@@ 20
党风@@ 20
早早@@ 20
抢购@@ 20
圈、@@ 20
殊@@ 20
此项@@ 20
需要一个@@ 20
同伴@@ 20
电线@@ 20
响起@@ 20
,学校@@ 20
酒精@@ 20
时机@@ 20
笼子里@@ 20
秘诀@@ 20
未经@@ 20
,有点@@ 20
伤势@@ 20
冰块@@ 20
人性@@ 20
卖家@@ 20
剧场@@ 20
桐@@ 20
豁@@ 20
《清明上河图》@@ 20
天价@@ 20
形象。 20
说,如果@@ 20
网记者@@ 20
果然@@ 20
,当然@@ 20
有时@@ 20
城管执法@@ 20
新台币@@ 20
眼镜@@ 20
秦师傅@@ 20
贪腐@@ 20
高价@@ 20
“微@@ 20
10个@@ 20
。这位@@ 20
的时刻@@ 20
慨@@ 20
放到@@ 20
产业园@@ 20
断了@@ 20
二手房@@ 20
自首@@ 20
缓刑@@ 20
互助@@ 20
APP@@ 20
八一@@ 20
抗菌@@ 20
台,@@ 20
赡养@@ 20
罚单@@ 20
拦截@@ 20
1小时@@ 20
吧?@@ 20
心血管@@ 20
由第@@ 20
影 20
渊@@ 20
船员@@ 20
人次,@@ 20
KTV唱歌@@ 20
不绝@@ 20
志愿服务@@ 20
手掌@@ 20
海关@@ 20
伪装@@ 20
年度最伤人@@ 20
输入,@@ 20
微博里@@ 20
‘呵呵@@ 20
就需@@ 20
天安门@@ 20
进门@@ 20
无线电@@ 20
唐某@@ 20
歼-20@@ 20
朋@@ 20
没能@@ 20
弹道导弹@@ 20
洲际导弹@@ 20
典礼@@ 20
在海外@@ 20
票选@@ 20
小三@@ 20
周笔畅@@ 20
文化志愿者@@ 20
网购平台@@ 20
二胎@@ 20
进行一次@@ 20
约,@@ 20
宋争光@@ 20
缴获@@ 20
核电@@ 20
送礼@@ 20
“一把手”@@ 20
级地震@@ 20
歌迷@@ 20
洛克@@ 20
德里克@@ 20
联想到@@ 20
人防设施@@ 20
不法@@ 20
年轻观众@@ 20
抄长山@@ 20
滑雪场@@ 20
亿亩@@ 20
一把手”@@ 20
男的@@ 20
精算@@ 20
行政权力@@ 20
威尔谢尔@@ 20
人事调整@@ 20
居民家庭@@ 20
掸邦@@ 20
宋某某@@ 20
比尔@@ 20
钱某@@ 20
军民@@ 19
当做@@ 19
强调,要@@ 19
取得新@@ 19
。只要@@ 19
od@@ 19
电台@@ 19
新年第一@@ 19
战场@@ 19
早饭@@ 19
防御@@ 19
住处@@ 19
亲人@@ 19
撤离@@ 19
将更加@@ 19
艰@@ 19
铁路运输企业@@ 19
所持@@ 19
:从@@ 19
水的@@ 19
明确规定@@ 19
将根据@@ 19
、北京@@ 19
事故,@@ 19
强硬@@ 19
梦”@@ 19
塞尔@@ 19
国家,@@ 19
侵略战争@@ 19
的日本@@ 19
骨干@@ 19
奋战@@ 19
具有重要@@ 19
,实现了@@ 19
党的十八大@@ 19
、国务院@@ 19
民族团结@@ 19
我区@@ 19
坚定不移@@ 19
美丽的@@ 19
,重点@@ 19
障@@ 19
工作作风@@ 19
生动@@ 19
宽松@@ 19
号召@@ 19
、发展@@ 19
基数@@ 19
非公@@ 19
12.8@@ 19
、生态@@ 19
。当日@@ 19
比赛中,@@ 19
地区,@@ 19
能见度@@ 19
℃。 19
的案件@@ 19
只放@@ 19
都会在@@ 19
的游戏@@ 19
倒入@@ 19
岁末,@@ 19
贴身@@ 19
往下@@ 19
网的@@ 19
线。@@ 19
沿线@@ 19
经开区@@ 19
上下班@@ 19
12月29日@@ 19
完成。 19
。”“@@ 19
的一条@@ 19
决策部署@@ 19
病、@@ 19
潭@@ 19
无”@@ 19
。第二@@ 19
工伤@@ 19
乞讨@@ 19
给孩子@@ 19
大连@@ 19
停留@@ 19
”?@@ 19
傲@@ 19
各单位@@ 19
器。 19
尽可能@@ 19
日报记者@@ 19
爱。 19
,原来@@ 19
口罩@@ 19
会后,@@ 19
到场@@ 19
看过@@ 19
的父母@@ 19
新西兰@@ 19
岁的小@@ 19
瑟瑟发抖@@ 19
送到了@@ 19
凌晨2@@ 19
[昨日@@ 19
好地@@ 19
清华大学@@ 19
,北@@ 19
远的@@ 19
招募@@ 19
六个@@ 19
鼎@@ 19
线 19
注意到@@ 19
史上最@@ 19
单位和个人@@ 19
城市管理@@ 19
词 19
首要@@ 19
护理@@ 19
滥用@@ 19
、广州@@ 19
受访者@@ 19
。近期@@ 19
强劲@@ 19
中央纪委监察部网站@@ 19
不再是@@ 19
疑虑@@ 19
5家@@ 19
走完@@ 19
向公众@@ 19
参演@@ 19
,争取@@ 19
拍戏@@ 19
拍了@@ 19
彩排@@ 19
量身@@ 19
袍@@ 19
衫@@ 19
决算@@ 19
楼盘@@ 19
完毕@@ 19
样本@@ 19
小幅@@ 19
较多的@@ 19
三四@@ 19
首《@@ 19
就行@@ 19
的服务@@ 19
夫妻俩@@ 19
生命体征@@ 19
在一旁@@ 19
哭着@@ 19
的职业@@ 19
走。@@ 19
专属@@ 19
了一份@@ 19
赞成@@ 19
政府和@@ 19
皇家@@ 19
提速@@ 19
。很多@@ 19
声。 19
内容属实@@ 19
链接 19
电话。@@ 19
100万@@ 19
空白@@ 19
此案@@ 19
,并没有@@ 19
,他曾@@ 19
有限责任公司@@ 19
反省@@ 19
深深@@ 19
甲级战犯@@ 19
与他@@ 19
哈夫@@ 19
例行新闻发布会@@ 19
确实是@@ 19
郑州市委@@ 19
耽误@@ 19
话 19
却没有@@ 19
瞬@@ 19
24个@@ 19
需求,@@ 19
公建民营@@ 19
手法@@ 19
虚构@@ 19
多是@@ 19
”专项@@ 19
悼@@ 19
共同努力@@ 19
20名@@ 19
爆炸案@@ 19
吓坏@@ 19
涩@@ 19
,提出@@ 19
地带@@ 19
的办法@@ 19
参保@@ 19
,较@@ 19
穿越@@ 19
之一。@@ 19
更多的人@@ 19
笑容@@ 19
观众的@@ 19
富民@@ 19
原始@@ 19
应在@@ 19
而出,@@ 19
促进了@@ 19
快速发展@@ 19
嫦娥@@ 19
出彩@@ 19
钦@@ 19
是大@@ 19
发、@@ 19
艰苦@@ 19
,但对于@@ 19
常务副@@ 19
领导干部带头在公共场所禁烟有关事项的通知》@@ 19
任何人@@ 19
多。@@ 19
案件正在@@ 19
奕@@ 19
城际动车组@@ 19
的最高@@ 19
裕@@ 19
380@@ 19
窗外@@ 19
便可@@ 19
、爱@@ 19
组成部分@@ 19
的第二@@ 19
观赏@@ 19
浙江省@@ 19
一处@@ 19
装有@@ 19
局的@@ 19
去年10月@@ 19
当今@@ 19
,标志着@@ 19
2011年,@@ 19
)》@@ 19
首先是@@ 19
,大约@@ 19
50%@@ 19
闲置@@ 19
日渐@@ 19
远低于@@ 19
重组@@ 19
转型升级@@ 19
,一律@@ 19
全社会@@ 19
竞争力@@ 19
要通过@@ 19
最低气温@@ 19
摄氏@@ 19
国强@@ 19
目的。 19
强 19
弥补@@ 19
影响到@@ 19
激进@@ 19
性文件@@ 19
守则@@ 19
大学教授@@ 19
相距@@ 19
相机@@ 19
随手@@ 19
三位@@ 19
,然而@@ 19
观景@@ 19
部部长@@ 19
心地@@ 19
制品、@@ 19
食品药品监管@@ 19
监督管理局@@ 19
近几年@@ 19
,待@@ 19
、10@@ 19
情况和@@ 19
。一是@@ 19
师生@@ 19
和规范@@ 19
汉中市政府@@ 19
2013年8月,@@ 19
中将@@ 19
研究中心主任@@ 19
差距。 19
”称号@@ 19
6亿元@@ 19
纽约时报》@@ 19
需要,@@ 19
被骗@@ 19
23日,@@ 19
,达到@@ 19
这场@@ 19
附属@@ 19
古田@@ 19
环境的@@ 19
基尔@@ 19
,有媒体@@ 19
,无疑@@ 19
首次在@@ 19
场地@@ 19
时左右@@ 19
4人@@ 19
子上@@ 19
邪@@ 19
了,但是@@ 19
第一季@@ 19
不利@@ 19
猪肉@@ 19
稳定。 19
开业@@ 19
不佳@@ 19
为啥@@ 19
0 19
可穿戴@@ 19
征求意见@@ 19
的钱@@ 19
配有@@ 19
合作社@@ 19
的20@@ 19
面貌@@ 19
的老人@@ 19
刚开始@@ 19
撰@@ 19
程度上@@ 19
ws@@ 19
和我@@ 19
火星@@ 19
都是“@@ 19
晦@@ 19
说自己@@ 19
幽默@@ 19
谦虚@@ 19
失眠@@ 19
提早@@ 19
,这对@@ 19
综合征@@ 19
最容易@@ 19
体温@@ 19
记者:“@@ 19
,各种@@ 19
张成泽@@ 19
处决@@ 19
增加到@@ 19
提出“@@ 19
造林@@ 19
特区@@ 19
12日@@ 19
索要@@ 19
是我国@@ 19
定 19
留下的@@ 19
aut@@ 19
油耗@@ 19
卡车@@ 19
车型的@@ 19
NBA@@ 19
品牌的@@ 19
就来@@ 19
% 19
拉着@@ 19
农庄@@ 19
旅游市场@@ 19
城市、@@ 19
首都机场@@ 19
不听@@ 19
如期@@ 19
公开赛@@ 19
相识@@ 19
的爱情@@ 19
蔚@@ 19
MI@@ 19
,林志颖@@ 19
女粉丝@@ 19
屠宰@@ 19
男星@@ 19
不论@@ 19
凄@@ 19
头号@@ 19
赛场@@ 19
何时@@ 19
一头@@ 19
摄入量@@ 19
的办公室@@ 19
信息系统@@ 19
:中国@@ 19
7次@@ 19
,也被@@ 19
破题@@ 19
兼职@@ 19
里有@@ 19
漫长的@@ 19
很多人都@@ 19
寂寞@@ 19
抓住了@@ 19
表面上@@ 19
用“@@ 19
花、@@ 19
顾问@@ 19
阻碍@@ 19
食欲@@ 19
60岁@@ 19
刊文@@ 19
认知@@ 19
油腻@@ 19
。据介绍,@@ 19
稳步推进@@ 19
颁@@ 19
健康长寿@@ 19
说她@@ 19
金、@@ 19
丰满@@ 19
美味@@ 19
7大@@ 19
,还可以@@ 19
历史新@@ 19
很好地@@ 19
,剧中@@ 19
的温@@ 19
,可是@@ 19
为您@@ 19
点什么@@ 19
饥饿@@ 19
,有助@@ 19
小小的@@ 19
维生素E@@ 19
经常吃@@ 19
及其他@@ 19
菇@@ 19
鱼、@@ 19
无疑是@@ 19
炎、@@ 19
抚养权@@ 19
照料@@ 19
,笑@@ 19
唱片@@ 19
跳舞@@ 19
增进@@ 19
晚间@@ 19
作为一个@@ 19
大树@@ 19
恭喜@@ 19
机制、@@ 19
处理好@@ 19
笼@@ 19
法玛尔@@ 19
顽@@ 19
黑客@@ 19
周刊@@ 19
显示屏@@ 19
弧@@ 19
伊拉克@@ 19
撞击@@ 19
了许多@@ 19
丈@@ 19
,我觉得@@ 19
何炅、谢娜@@ 19
奢华@@ 19
赵薇@@ 19
签字@@ 19
一定会@@ 19
英国《每日邮报》@@ 19
。当地@@ 19
和文化@@ 19
人们对@@ 19
核准@@ 19
回升@@ 19
中国在@@ 19
划分@@ 19
火势@@ 19
住建厅@@ 19
处处长@@ 19
答复@@ 19
上限@@ 19
功能的@@ 19
一幕@@ 19
路上的@@ 19
督办@@ 19
橄榄@@ 19
表示,将@@ 19
中西部@@ 19
分开@@ 19
实质性@@ 19
薪酬@@ 19
被查@@ 19
官邸@@ 19
保持着@@ 19
问题上,@@ 19
历程@@ 19
带到@@ 19
优惠政策@@ 19
饭菜@@ 19
戒毒@@ 19
。之后,@@ 19
经营管理@@ 19
6日,@@ 19
毛巾@@ 19
市政@@ 19
琼海@@ 19
开展了@@ 19
价的@@ 19
怎么办@@ 19
、学校@@ 19
验证码的@@ 19
北青报记者@@ 19
工作 19
原先@@ 19
冈@@ 19
晚报@@ 19
事件。 19
轰炸@@ 19
致力于@@ 19
军舰@@ 19
告诉你@@ 19
领跑@@ 19
新任@@ 19
城市群@@ 19
车祸@@ 19
件,@@ 19
-2@@ 19
偏僻@@ 19
灯光@@ 19
不像@@ 19
力 19
公布婚讯@@ 19
三季度@@ 19
胞@@ 19
空气质量指数@@ 19
公务用车@@ 19
零食@@ 19
多云@@ 19
明知@@ 19
阿峇波威@@ 19
南沙@@ 19
返航靠泊青岛某军港@@ 19
快地@@ 19
豹@@ 19
感恩@@ 19
这样一个@@ 19
长大@@ 19
对社会@@ 19
女儿的@@ 19
亲近@@ 19
潇@@ 19
事发后,@@ 19
眼泪@@ 19
,这份@@ 19
网站的@@ 19
人间@@ 19
子就@@ 19
从来没有@@ 19
、南@@ 19
钱的@@ 19
本身就@@ 19
非机动车@@ 19
责任人@@ 19
突出的@@ 19
料,@@ 19
方向盘@@ 19
变相@@ 19
费劲@@ 19
说,他们@@ 19
3.7@@ 19
强大日本@@ 19
的积极@@ 19
,但从@@ 19
时报@@ 19
愤@@ 19
先前@@ 19
心灵@@ 19
灶@@ 19
成是@@ 19
感兴趣@@ 19
黄晓明@@ 19
为市@@ 19
商合杭铁路@@ 19
长江大桥@@ 19
供水@@ 19
陆某@@ 19
15年@@ 19
道 19
行为。 19
贡@@ 19
上百@@ 19
科的@@ 19
中心主任@@ 19
寇@@ 19
差生@@ 19
噩@@ 19
党建@@ 19
夜班@@ 19
:0@@ 19
16号线@@ 19
新人,@@ 19
来往@@ 19
集聚@@ 19
自责@@ 19
谣@@ 19
per@@ 19
存储@@ 19
文创产品@@ 19
赞同@@ 19
标准化@@ 19
排队买@@ 19
。于是@@ 19
包、@@ 19
用电@@ 19
1961年@@ 19
羽绒服@@ 19
阿里巴巴@@ 19
是很@@ 19
慎重@@ 19
电话里@@ 19
两名男子@@ 19
汝州市蟒川镇@@ 19
散落@@ 19
准岳母娘@@ 19
楼市@@ 19
报道称,中国@@ 19
海试@@ 19
外媒称@@ 19
8日,@@ 19
马尾@@ 19
钧@@ 19
。香港《@@ 19
店员@@ 19
张阳@@ 19
学生们@@ 19
婚外@@ 19
婚期@@ 19
夏威夷@@ 19
互联网金融@@ 19
婚后@@ 19
党纲@@ 19
快餐@@ 19
拉客@@ 19
推荐阅读: 19
代购@@ 19
辞职@@ 19
闹事@@ 19
赶赴现场@@ 19
手柄@@ 19
镁@@ 19
结晶@@ 19
LG@@ 19
汕尾@@ 19
耳蜗@@ 19
央视春晚@@ 19
襄阳@@ 19
航母战斗群@@ 19
人防办@@ 19
用气@@ 19
香港《@@ 19
iPhone6@@ 19
欠薪@@ 19
戏骨@@ 19
将生@@ 19
大方@@ 19
2岁@@ 19
痰@@ 19
建华@@ 19
联系方式@@ 19
煎饼@@ 19
核电厂@@ 19
爱乐乐团@@ 19
原则上@@ 19
探险@@ 19
闫海洋@@ 19
倒票@@ 19
瀑布@@ 19
罗先生@@ 19
国产航母@@ 19
孙耀庭@@ 19
高宗武@@ 19
消法》@@ 19
阿曼古丽@@ 19
.5%@@ 18
1995年@@ 18
贺词@@ 18
克拉@@ 18
9日,@@ 18
摧毁@@ 18
致使@@ 18
四处@@ 18
而又@@ 18
更要@@ 18
祝愿@@ 18
矢@@ 18
2013年,我们@@ 18
国际收支统计申报@@ 18
不符@@ 18
下列@@ 18
个体工商户@@ 18
排污@@ 18
污染防治@@ 18
场、@@ 18
排泄@@ 18
情形@@ 18
予@@ 18
外汇管理局@@ 18
未来,@@ 18
质检@@ 18
设计、@@ 18
一再@@ 18
抱有@@ 18
史上@@ 18
沉着@@ 18
各项工作@@ 18
的战略@@ 18
,深入@@ 18
俞@@ 18
快,@@ 18
较大,@@ 18
国有企业改革@@ 18
、投资@@ 18
懈@@ 18
紧紧围绕@@ 18
“老@@ 18
起步@@ 18
吉祥@@ 18
。新华社记者@@ 18
米。 18
从严@@ 18
1天@@ 18
。吃@@ 18
新年钟声@@ 18
会在新年@@ 18
椅子上@@ 18
寒风@@ 18
深感@@ 18
,计划@@ 18
批复@@ 18
地段@@ 18
和服务@@ 18
高新技术@@ 18
步行@@ 18
200多@@ 18
照 18
正值@@ 18
人民网福州@@ 18
镇的@@ 18
61@@ 18
、手机@@ 18
会。@@ 18
欢聚@@ 18
澳门@@ 18
婴儿安全岛@@ 18
民政厅@@ 18
供养@@ 18
,涉及@@ 18
心。 18
6个月@@ 18
了一次@@ 18
。第@@ 18
招标@@ 18
不抽烟@@ 18
说,这些@@ 18
首度曝光书架上摆放六张照片 18
逛街@@ 18
剧集@@ 18
庐@@ 18
被拍@@ 18
来安@@ 18
是一家@@ 18
榕@@ 18
拢@@ 18
,医生@@ 18
企业和@@ 18
出生于@@ 18
报》报道,@@ 18
台军@@ 18
远距@@ 18
,完全@@ 18
往来@@ 18
都存在@@ 18
变化的@@ 18
。英国@@ 18
是一件@@ 18
午餐@@ 18
遭到了@@ 18
外国人@@ 18
2013年,中国@@ 18
网站报道,@@ 18
极大的@@ 18
通报曝光@@ 18
页面@@ 18
。将@@ 18
纪检组@@ 18
经济发展的@@ 18
40万@@ 18
又被@@ 18
鲍@@ 18
滕@@ 18
回家,@@ 18
顿时@@ 18
热炒@@ 18
无锡市@@ 18
取证@@ 18
的超@@ 18
名人@@ 18
中国好@@ 18
撤出@@ 18
言论@@ 18
信仰@@ 18
[上海@@ 18
逊色@@ 18
真的很@@ 18
现场的@@ 18
子公司@@ 18
乳业@@ 18
,这家@@ 18
工商局@@ 18
而在@@ 18
风波@@ 18
人民代表大会@@ 18
涨跌@@ 18
性低@@ 18
更加注重@@ 18
显现@@ 18
张亮父子@@ 18
和儿子@@ 18
刘诗诗@@ 18
1元@@ 18
在南@@ 18
双双@@ 18
报了警@@ 18
谁来@@ 18
微博@@@ 18
私房钱@@ 18
,超过@@ 18
5人@@ 18
一次,@@ 18
,新增@@ 18
数量和@@ 18
第一季度@@ 18
几年的@@ 18
历时@@ 18
熄灭@@ 18
好看@@ 18
清城区纪委@@ 18
厂长@@ 18
乖乖@@ 18
联系,@@ 18
罪名@@ 18
办事处@@ 18
病床@@ 18
正义@@ 18
一起去@@ 18
新村@@ 18
周口@@ 18
县公安局@@ 18
。(记者王@@ 18
资料显示,@@ 18
波兰@@ 18
遇难@@ 18
里程碑@@ 18
高涨@@ 18
,需@@ 18
郑州市@@ 18
问了@@ 18
错过@@ 18
刺伤@@ 18
他。 18
逃跑@@ 18
念头@@ 18
,各项@@ 18
无期徒刑@@ 18
,被告人@@ 18
伙同@@ 18
,骗取@@ 18
邓文@@ 18
巡视@@ 18
21日,@@ 18
茨@@ 18
治疗。 18
模糊@@ 18
把我@@ 18
中医院@@ 18
负荷@@ 18
全局@@ 18
干部职工@@ 18
是我们@@ 18
珍惜@@ 18
变革@@ 18
接下来的@@ 18
处罚的@@ 18
模式,@@ 18
节的@@ 18
地域@@ 18
看出,@@ 18
全国各地@@ 18
了6@@ 18
。(王@@ 18
玉兔@@ 18
迈向@@ 18
征程@@ 18
经济建设@@ 18
开始了@@ 18
伟大的@@ 18
柴@@ 18
重罚@@ 18
出台的@@ 18
前列@@ 18
枯@@ 18
憨@@ 18
的游客@@ 18
雪地@@ 18
1日起@@ 18
主办方@@ 18
所在地@@ 18
自2013年@@ 18
包围@@ 18
7、@@ 18
”。这@@ 18
公共卫生@@ 18
内容,@@ 18
9年,@@ 18
写入@@ 18
是世界@@ 18
的低@@ 18
资源的@@ 18
证明,@@ 18
是一项@@ 18
办学@@ 18
国有资本@@ 18
经营性@@ 18
店内@@ 18
最暖@@ 18
下午1@@ 18
这个时候@@ 18
后悔@@ 18
一身@@ 18
长队@@ 18
意料@@ 18
新一年的@@ 18
空间,@@ 18
伊斯兰@@ 18
眼下@@ 18
膀胱@@ 18
主治医生@@ 18
20万元@@ 18
禁食@@ 18
喧@@ 18
伤残@@ 18
脸上@@ 18
碰到@@ 18
向警方@@ 18
号,@@ 18
目前为止@@ 18
《功甫帖@@ 18
风的@@ 18
上看,@@ 18
,利用@@ 18
发掘@@ 18
练习@@ 18
当月@@ 18
抵御@@ 18
芝加哥@@ 18
数值@@ 18
流入@@ 18
通过新修订药品GMP认证@@ 18
2013年12月31日前@@ 18
药品生产@@ 18
、管理@@ 18
制度和@@ 18
增设@@ 18
检察院对张某以涉嫌挪用公款罪刑事拘留@@ 18
21日汉中市人民检察院向汉中市中级人民法院依法提起公诉@@ 18
开庭审理。 18
汉中市人民检察院@@ 18
物理@@ 18
巨头@@ 18
为代表@@ 18
在全球@@ 18
回应。 18
标哥@@ 18
而至@@ 18
茅@@ 18
盲目@@ 18
,但仍@@ 18
太平@@ 18
时期的@@ 18
撤销@@ 18
幕后@@ 18
峰会@@ 18
接受采访时@@ 18
巩@@ 18
下。@@ 18
抵押@@ 18
20日,@@ 18
才发现@@ 18
2013年12月26日,@@ 18
绣@@ 18
险些@@ 18
是我的@@ 18
最后一个@@ 18
有一定的@@ 18
务工人员@@ 18
近距离@@ 18
的消费者@@ 18
而来@@ 18
访 18
次 18
出现“@@ 18
起来的@@ 18
签订了@@ 18
专业合作社@@ 18
饲养@@ 18
、蔬菜@@ 18
摆放@@ 18
后备@@ 18
、学@@ 18
善于@@ 18
几位@@ 18
老人们@@ 18
苇@@ 18
二期@@ 18
饺@@ 18
面、@@ 18
调味@@ 18
-14@@ 18
对新人@@ 18
就读@@ 18
,此次@@ 18
丽莎@@ 18
著名的@@ 18
报道,在@@ 18
”上,@@ 18
困难,@@ 18
签名@@ 18
一颗@@ 18
收拾@@ 18
教父@@ 18
间断@@ 18
众所周知@@ 18
嫩模@@ 18
的身体@@ 18
恐慌@@ 18
夜晚@@ 18
仰卧@@ 18
RS@@ 18
心脑血管@@ 18
原因是@@ 18
得不到@@ 18
三年,@@ 18
言语@@ 18
不妨@@ 18
飙升@@ 18
应酬@@ 18
,一天@@ 18
演习@@ 18
分。 18
总收入@@ 18
渭@@ 18
倒塌@@ 18
小伙伴@@ 18
链接@@ 18
om@@ 18
a)@@ 18
输出@@ 18
尔顿@@ 18
本田@@ 18
马力@@ 18
仿佛@@ 18
不胜@@ 18
起伏@@ 18
电(@@ 18
耻@@ 18
的感情@@ 18
从今年@@ 18
其余@@ 18
首先要@@ 18
区域的@@ 18
大雾@@ 18
题:@@ 18
情 18
朵@@ 18
船上@@ 18
升温@@ 18
衍生@@ 18
其后@@ 18
刻意@@ 18
腾讯@@ 18
消息。 18
,用于@@ 18
公益项目@@ 18
,有不少@@ 18
,后者@@ 18
将与@@ 18
2个月@@ 18
哈登@@ 18
全是@@ 18
一起吃@@ 18
浓浓@@ 18
发 18
长得@@ 18
期内@@ 18
晾@@ 18
感觉到@@ 18
命 18
源于@@ 18
脾胃@@ 18
延缓衰老@@ 18
供给@@ 18
氨@@ 18
谢霆锋@@ 18
伴侣@@ 18
、甚至@@ 18
你!@@ 18
不畅@@ 18
点点@@ 18
的爱@@ 18
不老@@ 18
生活习惯@@ 18
想想@@ 18
王晓@@ 18
李克强@@ 18
龙头@@ 18
水分@@ 18
,不然@@ 18
体质@@ 18
的位置@@ 18
醋@@ 18
同食@@ 18
。不仅@@ 18
胆固醇@@ 18
过量@@ 18
含有丰富的@@ 18
多 18
嘴巴@@ 18
古装剧@@ 18
俗话说,@@ 18
看不到@@ 18
烹饪@@ 18
点是@@ 18
毫克@@ 18
上阵@@ 18
酪@@ 18
味甘@@ 18
者、@@ 18
嫣@@ 18
亲吻@@ 18
杰伦@@ 18
,家人@@ 18
是怎么@@ 18
在这里,@@ 18
稿件@@ 18
肯定是@@ 18
底线@@ 18
动物园@@ 18
吃东西@@ 18
,生活@@ 18
邓小平同志@@ 18
阶层@@ 18
感,@@ 18
。据统计,@@ 18
关押在@@ 18
张家@@ 18
多月@@ 18
经查,@@ 18
家里的@@ 18
想办法@@ 18
好 18
钥匙@@ 18
灭火@@ 18
主人@@ 18
扑灭@@ 18
笼罩@@ 18
Mac@@ 18
ook@@ 18
显示器@@ 18
跳水@@ 18
不来@@ 18
逆袭@@ 18
第二次手术@@ 18
两个孩子@@ 18
被撞@@ 18
很是@@ 18
爆出@@ 18
随地@@ 18
长征@@ 18
实的@@ 18
滚滚@@ 18
新年新气象@@ 18
,随时@@ 18
,做到@@ 18
干脆@@ 18
交管@@ 18
远,@@ 18
安监@@ 18
嘟@@ 18
嘘@@ 18
纪念日@@ 18
基尼系数@@ 18
“双@@ 18
单独二孩”政策@@ 18
证等@@ 18
酝酿@@ 18
》、@@ 18
区”@@ 18
新京报记者@@ 18
涅@@ 18
6月,@@ 18
睹@@ 18
,但如果@@ 18
香港人优先@@ 18
链条@@ 18
,或许@@ 18
四年@@ 18
行动。 18
淹@@ 18
,该公司@@ 18
十余@@ 18
和大@@ 18
警力@@ 18
环海大厦@@ 18
一行@@ 18
进行“@@ 18
扬尘@@ 18
养老院@@ 18
仅在@@ 18
社论@@ 18
浏览器@@ 18
东部地区@@ 18
感的@@ 18
了一种@@ 18
高地@@ 18
六七@@ 18
东路@@ 18
专访@@ 18
封顶@@ 18
示 18
隔壁@@ 18
环卫工@@ 18
遂宁@@ 18
栽@@ 18
果断@@ 18
的民警@@ 18
另一名@@ 18
节俭@@ 18
护送@@ 18
实施了@@ 18
弯曲@@ 18
领证@@ 18
婚讯@@ 18
香菇@@ 18
鲜肉@@ 18
单、@@ 18
和记黄埔@@ 18
聋@@ 18
用人单位@@ 18
(约合@@ 18
快男@@ 18
发现场@@ 18
物资@@ 18
军工@@ 18
图片来自@@ 18
。”(记者@@ 18
敏镐@@ 18
打造的@@ 18
西洋@@ 18
,显示@@ 18
林、@@ 18
雯@@ 18
发生性@@ 18
了多个@@ 18
大便@@ 18
榜样@@ 18
菜百@@ 18
独岛@@ 18
说‘@@ 18
的学习@@ 18
节省@@ 18
对她@@ 18
了很多@@ 18
袜@@ 18
了。“@@ 18
人行道@@ 18
稠@@ 18
盲人@@ 18
集群@@ 18
定制@@ 18
,最大@@ 18
PM10@@ 18
改良@@ 18
“翔展@@ 18
坪@@ 18
民事@@ 18
前所未有的@@ 18
是什么?@@ 18
中韩@@ 18
亚冠@@ 18
谈恋爱@@ 18
的风险。 18
焚@@ 18
慈@@ 18
被拍到@@ 18
惩治@@ 18
酒吧@@ 18
猝死@@ 18
海外金融资产@@ 18
编码@@ 18
分摊@@ 18
头晕@@ 18
找个@@ 18
一支@@ 18
被开除@@ 18
傅政华@@ 18
格 18
次于@@ 18
歼-10@@ 18
员和@@ 18
婚姻登记@@ 18
颁证@@ 18
一个人做@@ 18
晨报@@ 18
供气@@ 18
莫名@@ 18
静安@@ 18
强度@@ 18
新宝@@ 18
抑@@ 18
恭@@ 18
达到8@@ 18
委书记@@ 18
歌;@@ 18
歌曲,@@ 18
是:“@@ 18
寒冬@@ 18
市场监管@@ 18
旗舰@@ 18
气压@@ 18
东南@@ 18
科目@@ 18
冒充@@ 18
60年@@ 18
王 18
神情@@ 18
伤。 18
爹@@ 18
稚@@ 18
向美方提出@@ 18
谢楠的@@ 18
,吴京@@ 18
。”吴京@@ 18
大哥@@ 18
饰演的@@ 18
台词@@ 18
租飞机@@ 18
把你@@ 18
不透@@ 18
东侧@@ 18
监禁@@ 18
精良@@ 18
1980元,@@ 18
躺着@@ 18
客人,@@ 18
伙食费@@ 18
双重标准@@ 18
也不例@@ 18
又一个@@ 18
【环球时报驻@@ 18
两口@@ 18
路人@@ 18
名录@@ 18
发送@@ 18
停机@@ 18
志愿军@@ 18
。至@@ 18
运-8@@ 18
崔丽@@ 18
,但他们@@ 18
阵雨@@ 18
汉口@@ 18
校区@@ 18
考场@@ 18
教堂@@ 18
自来水@@ 18
文 18
巨灾保险@@ 18
赔付@@ 18
TOP@@ 18
分红@@ 18
台北市@@ 18
浴室@@ 18
登机@@ 18
记者:“当时@@ 18
奸@@ 18
沃尔沃@@ 18
平潭@@ 18
集中整治@@ 18
纯金打造的@@ 18
舒服@@ 18
金丝楠@@ 18
FBI@@ 18
.cn@@ 18
性债务@@ 18
死亡。@@ 18
#汽油@@ 18
淇@@ 18
GalaxyS@@ 18
数学@@ 18
出席活动@@ 18
《因为爱情》@@ 18
湖南卫视首播时就@@ 18
央视二轮播出时@@ 18
达到8.54@@ 18
成绩。该剧@@ 18
赵韩樱子、彭冠英、张含韵等@@ 18
收视新人王@@ 18
”。对此@@ 18
偶像伦理剧是当前吸引观众的新模式@@ 18
“偶像派”家庭剧@@ 18
,《因为爱情@@ 18
长期高居@@ 18
《因为爱情@@ 18
赵韩樱子、彭冠英@@ 18
般大小@@ 18
竞价@@ 18
重大疾病@@ 18
任雪@@ 18
度,[最高气温23-25度 18
咪表@@ 18
雪莲一家@@ 18
拯救中国虎@@ 18
某和@@ 18
纳拉维@@ 18
芬芳的乳房@@ 18
崔天凯@@ 18
临湘市@@ 18
培英小学@@ 18
如懿@@ 18
稻花香@@ 18
华尔街@@ 17
1996年@@ 17
,消费者@@ 17
一年里,@@ 17
社报道,@@ 17
总裁@@ 17
玩具@@ 17
既有@@ 17
难民@@ 17
分队@@ 17
几名@@ 17
踏实@@ 17
单 17
开辟@@ 17
容纳@@ 17
习近平主席@@ 17
标志性@@ 17
蓝图@@ 17
阐@@ 17
也越来越@@ 17
生活总是充满希望的,成功总是属于积极进取、不懈追求的人们@@ 17
家园。 17
再生@@ 17
健康状况@@ 17
以及其他@@ 17
个人的@@ 17
修改后的《@@ 17
有关规定@@ 17
是其@@ 17
妄@@ 17
掷@@ 17
,是对@@ 17
在我@@ 17
噪@@ 17
”,以@@ 17
什么?@@ 17
祝贺@@ 17
、老@@ 17
稳增长@@ 17
旗帜@@ 17
辟@@ 17
合作,@@ 17
破除@@ 17
简化@@ 17
保障。 17
政绩@@ 17
风气@@ 17
监督检查@@ 17
究@@ 17
充分体现@@ 17
市场化改革@@ 17
撬@@ 17
振奋@@ 17
人均纯收入@@ 17
提升。 17
摄@@ 17
省、@@ 17
隐瞒@@ 17
在家里@@ 17
还得@@ 17
,海@@ 17
做些@@ 17
元旦,@@ 17
始于@@ 17
黄色内衣@@ 17
中心城区@@ 17
届时,@@ 17
换乘@@ 17
7.9@@ 17
铁道@@ 17
设有@@ 17
时30分许,@@ 17
”,他@@ 17
客运量@@ 17
增至@@ 17
各民主党派@@ 17
、工商@@ 17
中共十八大@@ 17
明确要求@@ 17
[昨天@@ 17
无力@@ 17
性别@@ 17
暗访@@ 17
级的@@ 17
旅程@@ 17
老乡@@ 17
,建议@@ 17
不得在禁止吸烟的@@ 17
的官员@@ 17
机关干部@@ 17
照。 17
化妆@@ 17
则在@@ 17
剧《@@ 17
改编@@ 17
谐@@ 17
助阵@@ 17
特地@@ 17
落泪@@ 17
夜里@@ 17
跨行@@ 17
最后一天,@@ 17
马的@@ 17
朴槿惠@@ 17
扭曲@@ 17
1月1日起,@@ 17
的是“@@ 17
复旦大学@@ 17
一日@@ 17
“神@@ 17
路 17
二环@@ 17
,逐渐@@ 17
,记者在@@ 17
砖@@ 17
已完成@@ 17
范围内的@@ 17
以外,@@ 17
冀@@ 17
默克尔@@ 17
发表的@@ 17
,也希望@@ 17
夏天@@ 17
的民众@@ 17
1%@@ 17
的影响力@@ 17
鼓舞@@ 17
航行@@ 17
已超过@@ 17
超额完成@@ 17
(左@@ 17
中之@@ 17
跨年,@@ 17
。日前@@ 17
惊艳@@ 17
精致@@ 17
询@@ 17
工作人员表示,@@ 17
作家@@ 17
治愈@@ 17
桥梁@@ 17
尼克@@ 17
等的@@ 17
值得一提的是,@@ 17
芒@@ 17
找了@@ 17
古装@@ 17
喉咙@@ 17
有好@@ 17
亚华@@ 17
后者@@ 17
人民币汇率@@ 17
亿元。@@ 17
少于@@ 17
指向@@ 17
再一次@@ 17
为目的@@ 17
新建住宅@@ 17
8%@@ 17
19个@@ 17
均价@@ 17
供求@@ 17
观望@@ 17
追捧@@ 17
新年祝福@@ 17
萌娃@@ 17
最后,@@ 17
稽@@ 17
科科长@@ 17
昨天是@@ 17
长春花园@@ 17
楼楼顶@@ 17
响,@@ 17
两个人@@ 17
知情人士@@ 17
想让@@ 17
他的妻子@@ 17
三五@@ 17
两年,@@ 17
喜欢的@@ 17
娘家@@ 17
相对于@@ 17
说到@@ 17
的售价@@ 17
,致@@ 17
商贸@@ 17
已于@@ 17
笑了@@ 17
分分钟可以搞垮一间厂@@ 17
发布《关于@@ 17
跟她@@ 17
会做@@ 17
进京@@ 17
2月,@@ 17
一事,@@ 17
邹@@ 17
涉嫌严重违纪违法@@ 17
犹太人@@ 17
纪念碑@@ 17
重建@@ 17
的一幕@@ 17
国会议员@@ 17
认为“@@ 17
重申@@ 17
12月26日@@ 17
次日@@ 17
了一下@@ 17
方 17
开始的@@ 17
会展中心@@ 17
时,在@@ 17
刚好@@ 17
没钱@@ 17
了,你@@ 17
等着@@ 17
生活质量@@ 17
常住@@ 17
改革试点@@ 17
大中@@ 17
要以@@ 17
培训、@@ 17
套取@@ 17
余万元@@ 17
炳@@ 17
称自己@@ 17
。他说:“@@ 17
短暂@@ 17
不禁@@ 17
就曾@@ 17
注意力@@ 17
不舒服@@ 17
意识,@@ 17
推进“@@ 17
、抓@@ 17
兑现@@ 17
贴近@@ 17
2014年是@@ 17
共建@@ 17
对外开放@@ 17
如实@@ 17
的目的@@ 17
塑造@@ 17
一 17
开工建设@@ 17
电网@@ 17
道德模范@@ 17
1—@@ 17
1日,@@ 17
去年的@@ 17
。”王@@ 17
;是@@ 17
硬骨头@@ 17
满怀@@ 17
稳中有@@ 17
浇@@ 17
就没有@@ 17
开头@@ 17
奠@@ 17
造就@@ 17
烟草制品@@ 17
不得在@@ 17
。不少@@ 17
万一@@ 17
一点,@@ 17
机关、@@ 17
等媒体@@ 17
两级@@ 17
詹@@ 17
,天@@ 17
海事@@ 17
梯@@ 17
滑冰@@ 17
荷@@ 17
交警部门@@ 17
ang@@ 17
(B@@ 17
倍。@@ 17
资源配置@@ 17
偶然@@ 17
,说明@@ 17
决定性作用@@ 17
研究,@@ 17
体、@@ 17
绩效@@ 17
科技创新@@ 17
。三是@@ 17
拉动@@ 17
电信@@ 17
事关@@ 17
风险。 17
关乎@@ 17
分许,@@ 17
消防人员@@ 17
时20@@ 17
结账@@ 17
疆域@@ 17
造成严重@@ 17
《人民日报》@@ 17
双方的@@ 17
、生物@@ 17
强、@@ 17
的可能@@ 17
事件的@@ 17
冯章玉@@ 17
每天都@@ 17
占了@@ 17
不利于@@ 17
每到@@ 17
的画@@ 17
誉为“@@ 17
称,中国@@ 17
QE@@ 17
改革和@@ 17
是美国@@ 17
的全部@@ 17
市场供应@@ 17
的实施@@ 17
79@@ 17
3家@@ 17
也已@@ 17
要对@@ 17
化妆品@@ 17
供应商@@ 17
做大@@ 17
子弟@@ 17
天时间@@ 17
结,@@ 17
汉台@@ 17
,此前@@ 17
。2013年12月@@ 17
国际金融@@ 17
陆家嘴@@ 17
意向@@ 17
参股@@ 17
,5@@ 17
百元@@ 17
受骗@@ 17
长途@@ 17
比去年@@ 17
起码@@ 17
下降,@@ 17
肢体@@ 17
沙发上@@ 17
阳台@@ 17
孙女@@ 17
特色的@@ 17
也非常@@ 17
8名@@ 17
无需@@ 17
新华网@@ 17
出一张@@ 17
所有人@@ 17
区。@@ 17
承办@@ 17
过境@@ 17
职员@@ 17
覆@@ 17
号为@@ 17
只想@@ 17
是非@@ 17
沙滩@@ 17
的单@@ 17
日均@@ 17
珠三角@@ 17
果蔬@@ 17
用手机@@ 17
具体的@@ 17
配型@@ 17
伽@@ 17
村干部@@ 17
,增加@@ 17
鹅@@ 17
后,两人@@ 17
将由@@ 17
10名@@ 17
高楼@@ 17
服饰@@ 17
翩@@ 17
句“@@ 17
知情人@@ 17
部电影@@ 17
质问@@ 17
的男人@@ 17
工作压力@@ 17
心态@@ 17
阻力@@ 17
或不@@ 17
。比如,@@ 17
或其他@@ 17
等于@@ 17
有消息称,@@ 17
家中,@@ 17
。这名@@ 17
将积极@@ 17
安抚@@ 17
步步@@ 17
产品。 17
口碑@@ 17
发表新年讲话@@ 17
分。@@ 17
省委、省政府@@ 17
洪涝@@ 17
之中@@ 17
跨境@@ 17
http@@ 17
口号@@ 17
犹如@@ 17
怪异@@ 17
新产品@@ 17
嫦娥三号@@ 17
,终于@@ 17
处。 17
军用@@ 17
擎@@ 17
LA@@ 17
伤痛@@ 17
马丁@@ 17
推特@@ 17
写道:“@@ 17
口、@@ 17
会在2014年@@ 17
像素@@ 17
最强@@ 17
螺@@ 17
加入了@@ 17
绝对是@@ 17
增值@@ 17
叠@@ 17
城市和@@ 17
做起@@ 17
强迫@@ 17
-6@@ 17
品尝@@ 17
已然@@ 17
。“当时@@ 17
首届@@ 17
离世@@ 17
台前@@ 17
凌晨1点@@ 17
总决赛@@ 17
港台@@ 17
刘锦玲@@ 17
给观众@@ 17
90年代@@ 17
6-@@ 17
丰台@@ 17
着一张@@ 17
营养学@@ 17
的草酸@@ 17
率。 17
的红@@ 17
,即便@@ 17
挑逗@@ 17
中签@@ 17
足迹@@ 17
召开会议@@ 17
视作@@ 17
长江学者@@ 17
”或@@ 17
一:@@ 17
科主任@@ 17
的热量@@ 17
平方@@ 17
调理@@ 17
必需@@ 17
胃酸@@ 17
事 17
口水@@ 17
”来@@ 17
女人的@@ 17
和不@@ 17
受阻@@ 17
图案@@ 17
吃完@@ 17
养颜@@ 17
揭开@@ 17
。省@@ 17
阮@@ 17
水利@@ 17
倾斜@@ 17
人居环境@@ 17
滋补@@ 17
保暖@@ 17
水 17
专家指出,@@ 17
她对@@ 17
卵巢@@ 17
当中,@@ 17
如下@@ 17
活泼@@ 17
的习惯@@ 17
翅@@ 17
剔@@ 17
营养素@@ 17
更年期@@ 17
混合@@ 17
佟@@ 17
海、@@ 17
亚硝@@ 17
职场@@ 17
当兵@@ 17
徐先生@@ 17
天鹅@@ 17
扬子晚报记者@@ 17
尔斯@@ 17
实际上,@@ 17
马克思@@ 17
仍处于@@ 17
的物质@@ 17
就是要@@ 17
叮@@ 17
养成@@ 17
德斯@@ 17
重重@@ 17
孤独@@ 17
,由此@@ 17
杨女士@@ 17
也不知道@@ 17
没办法@@ 17
发生火灾@@ 17
回事@@ 17
在内@@ 17
超过100@@ 17
地图@@ 17
世界纪录@@ 17
17个@@ 17
,共有@@ 17
国足@@ 17
战绩@@ 17
金牌@@ 17
MV@@ 17
2000万@@ 17
就将@@ 17
钉@@ 17
粉丝们@@ 17
2位@@ 17
大腕@@ 17
。最近@@ 17
再也不@@ 17
她也@@ 17
闯入@@ 17
预示着@@ 17
人民大会堂@@ 17
高居@@ 17
。再@@ 17
这起@@ 17
”的字样@@ 17
各种证件@@ 17
、结婚@@ 17
终审@@ 17
退了@@ 17
,其次@@ 17
发展。@@ 17
了一段@@ 17
已对@@ 17
所为@@ 17
堆积@@ 17
闭幕@@ 17
目前正在@@ 17
举行。@@ 17
新型大国@@ 17
2020@@ 17
巡航@@ 17
深,@@ 17
网报道,@@ 17
人文@@ 17
肩负@@ 17
秉@@ 17
钱财@@ 17
喝酒@@ 17
书,@@ 17
想,@@ 17
以前的@@ 17
农村居民@@ 17
下午在@@ 17
姓男子,他们涉嫌@@ 17
匹@@ 17
贴心@@ 17
帮我@@ 17
华为@@ 17
;同时,@@ 17
、白@@ 17
守护@@ 17
户,@@ 17
崭新的@@ 17
旅游景区@@ 17
返乡@@ 17
热心@@ 17
,都会@@ 17
骑行@@ 17
孩子在@@ 17
开往@@ 17
。之后@@ 17
千里@@ 17
之家@@ 17
专项整治@@ 17
点、@@ 17
床位@@ 17
厅长@@ 17
抢票@@ 17
普查人员@@ 17
,不仅可以@@ 17
做客@@ 17
战役@@ 17
成都商报记者@@ 17
。”而@@ 17
二楼@@ 17
去年12月31日@@ 17
追回@@ 17
早高峰@@ 17
蛛@@ 17
偷偷@@ 17
着装@@ 17
长江实业@@ 17
万平方米@@ 17
艾滋病@@ 17
董卿@@ 17
死刑@@ 17
考虑,@@ 17
吃货@@ 17
一看@@ 17
科姆@@ 17
的朋友@@ 17
购物卡@@ 17
处分。 17
,对方@@ 17
窃听@@ 17
监听@@ 17
AN@@ 17
军备@@ 17
21世纪@@ 17
下雨@@ 17
从一个@@ 17
书面@@ 17
难怪@@ 17
埋葬@@ 17
茄子@@ 17
真心@@ 17
我要@@ 17
全天@@ 17
4》@@ 17
“爸爸@@ 17
2012年9月@@ 17
岁的女儿@@ 17
联系到@@ 17
24日,@@ 17
,觉得@@ 17
交了@@ 17
骆驼@@ 17
与女友@@ 17
ak@@ 17
打扮@@ 17
兽@@ 17
酷似@@ 17
卡通@@ 17
,有助于@@ 17
、红@@ 17
能力。@@ 17
接地气@@ 17
长效机制@@ 17
任 17
轮胎@@ 17
环境空气质量@@ 17
,严重@@ 17
作风建设@@ 17
课题组@@ 17
,台湾@@ 17
国安@@ 17
另类@@ 17
精液@@ 17
最受欢迎@@ 17
193@@ 17
晒出了@@ 17
或在@@ 17
宿州市@@ 17
、八@@ 17
起身@@ 17
瑕疵@@ 17
回应 17
设备的@@ 17
蜀@@ 17
肇事者@@ 17
问题进行了@@ 17
万。 17
冰糖@@ 17
反映,@@ 17
民主党@@ 17
设立了@@ 17
设法@@ 17
所在。 17
防空识别区@@ 17
军事专家@@ 17
,使其@@ 17
苏-27@@ 17
糕点@@ 17
测量@@ 17
包括“@@ 17
较2012年@@ 17
00多@@ 17
拟发行不超过@@ 17
飙@@ 17
掸@@ 17
气球@@ 17
,网友@@ 17
劳动教养@@ 17
拉萨市@@ 17
赤裸@@ 17
冒险@@ 17
我们都@@ 17
mi@@ 17
基切@@ 17
,政府@@ 17
酒席@@ 17
关押@@ 17
蒙上@@ 17
昵@@ 17
经历和@@ 17
她从@@ 17
捐助@@ 17
山大@@ 17
贫寒@@ 17
崖@@ 17
27次@@ 17
假装@@ 17
正处于@@ 17
关闭关塔那摩监狱@@ 17
人中@@ 17
安全部队@@ 17
的趋势@@ 17
特约记者@@ 17
情趣@@ 17
宰@@ 17
2次@@ 17
琅岐@@ 17
语音@@ 17
进而@@ 17
核弹@@ 17
呼吸道@@ 17
于湖新@@ 17
作弊@@ 17
台湾地区@@ 17
蔗@@ 17
相恋@@ 17
要有@@ 17
诈@@ 17
南航@@ 17
妙招 17
命案@@ 17
磁@@ 17
MotoX@@ 17
法医@@ 17
吐尔尕特@@ 17
被要求@@ 17
睿睿@@ 17
“雪龙”号@@ 17
规范管理@@ 17
消费者权益@@ 17
理工@@ 17
曼苏尔@@ 17
华北@@ 17
性侵害@@ 17
捅@@ 17
3日,@@ 17
船厂@@ 17
反潜@@ 17
韦大爷@@ 17
烤红薯@@ 17
Windows@@ 17
mm@@ 17
校训@@ 17
真央@@ 17
在学校@@ 17
车司机@@ 17
离子@@ 17
罗斯@@ 17
鲍曼@@ 17
盖世太保@@ 17
,多云,东北风5@@ 17
航母 17
假币@@ 17
解放军海军@@ 17
太监@@ 17
绞刑架@@ 17
界首@@ 17
铃声@@ 17
楼兰文化@@ 17
甄嬛传》@@ 17
报告,@@ 16
畜@@ 16
受伤的@@ 16
维和@@ 16
射击@@ 16
了!”@@ 16
帐@@ 16
进度@@ 16
。“现在@@ 16
的军事@@ 16
包容@@ 16
感受到了@@ 16
新一届@@ 16
排水@@ 16
污水处理@@ 16
禁止在@@ 16
铁路线路安全@@ 16
树木@@ 16
应当按照@@ 16
购买、@@ 16
身份信息@@ 16
铁路安全@@ 16
饮用水@@ 16
明确了@@ 16
万 16
营救@@ 16
,也将@@ 16
本国@@ 16
员、@@ 16
各界人士@@ 16
向全国@@ 16
,着力@@ 16
改善,@@ 16
经济工作@@ 16
会议。 16
统一到@@ 16
宏观经济@@ 16
、行政@@ 16
坚实@@ 16
实干@@ 16
坚决反对@@ 16
厉@@ 16
。三@@ 16
充分肯定@@ 16
会议上@@ 16
江西省@@ 16
适宜@@ 16
从2014年1月1日起@@ 16
范围。 16
研究、@@ 16
的,是@@ 16
记者采访@@ 16
安庆@@ 16
,以后@@ 16
悉尼@@ 16
德国人@@ 16
大餐@@ 16
铅块@@ 16
欢度@@ 16
。有人@@ 16
桌子@@ 16
室外@@ 16
蚀@@ 16
配送@@ 16
骑自行车@@ 16
通往@@ 16
提出申请@@ 16
六约社区@@ 16
挑着@@ 16
在微博中@@ 16
其他乘客@@ 16
专线@@ 16
预售@@ 16
茶话@@ 16
出新@@ 16
,最重要的是@@ 16
的事业@@ 16
脚印@@ 16
智慧和@@ 16
而成@@ 16
,“三@@ 16
疾病。 16
康泰@@ 16
留意@@ 16
核对@@ 16
,他说,@@ 16
治庸@@ 16
低。@@ 16
问题和@@ 16
只剩@@ 16
热恋@@ 16
。不管@@ 16
五项@@ 16
过道@@ 16
彭丽媛@@ 16
玩耍@@ 16
球场@@ 16
网 16
星的@@ 16
,日前@@ 16
,当天@@ 16
港版@@ 16
外卖@@ 16
进驻@@ 16
赋@@ 16
直至@@ 16
戴着@@ 16
,研究@@ 16
上楼@@ 16
落幕@@ 16
找来@@ 16
,马上@@ 16
企业在@@ 16
”将@@ 16
都可能@@ 16
容忍@@ 16
了他@@ 16
家底@@ 16
大有@@ 16
发布的《@@ 16
效能@@ 16
经贸@@ 16
林丹@@ 16
物的@@ 16
综合执法@@ 16
扩建@@ 16
最重要的@@ 16
经济的@@ 16
惯例,@@ 16
果实@@ 16
(N@@ 16
服务。@@ 16
勉@@ 16
美国、@@ 16
争端@@ 16
、科技@@ 16
的处理@@ 16
(来源:@@ 16
违反中央八项规定精神典型@@ 16
发布信息@@ 16
任务。 16
有8@@ 16
的重@@ 16
杨贵妃@@ 16
给出的@@ 16
说道:“@@ 16
标 16
当天的@@ 16
16日,@@ 16
。当时,@@ 16
AK@@ 16
咐@@ 16
不算@@ 16
结构和@@ 16
应缴@@ 16
时空@@ 16
金域@@ 16
、上海@@ 16
不予@@ 16
中国房地产@@ 16
嘲@@ 16
见状@@ 16
的女星@@ 16
阎良@@ 16
归还@@ 16
地说,@@ 16
老人,@@ 16
鼓楼区@@ 16
半个小时@@ 16
岳父@@ 16
?这@@ 16
互联@@ 16
邮箱@@ 16
早期@@ 16
停靠@@ 16
福州市@@ 16
加紧@@ 16
比较大@@ 16
清城区环保局局长陈柏和@@ 16
此后,@@ 16
不相@@ 16
工作关系@@ 16
通报称,@@ 16
党支部书记@@ 16
埔@@ 16
。记者从@@ 16
信念@@ 16
华沙@@ 16
下跪@@ 16
失去了@@ 16
明确的@@ 16
孙子@@ 16
日方@@ 16
称之为“@@ 16
31日,@@ 16
首日@@ 16
通报,@@ 16
途中,@@ 16
倒在地@@ 16
老年人优待@@ 16
的基础上@@ 16
工作的通知》,@@ 16
导致的@@ 16
通过“@@ 16
向警方报案称被骗@@ 16
死亡人数@@ 16
伤亡@@ 16
索契冬奥会@@ 16
元首@@ 16
晨报记者@@ 16
了中国@@ 16
提醒广大@@ 16
度和@@ 16
新中国成立@@ 16
,我们就@@ 16
切身利益@@ 16
历年@@ 16
”为主题@@ 16
严厉打击@@ 16
敢于@@ 16
城乡建设@@ 16
喀什@@ 16
自治@@ 16
还对@@ 16
实施的@@ 16
新标准@@ 16
的都是@@ 16
军说,@@ 16
梅) 16
得太@@ 16
。即@@ 16
,面对@@ 16
不开@@ 16
不掉@@ 16
转化@@ 16
长春@@ 16
连日来@@ 16
“打@@ 16
熬夜@@ 16
二维码@@ 16
符合条件的@@ 16
负债@@ 16
九十@@ 16
形成的@@ 16
工作会议@@ 16
冻结@@ 16
区域,@@ 16
媚@@ 16
加快发展@@ 16
变电@@ 16
72小时过境免签@@ 16
山的@@ 16
,当日@@ 16
壶@@ 16
项目。 16
台州@@ 16
三项@@ 16
(T@@ 16
id@@ 16
去年8月@@ 16
有关。 16
AP@@ 16
医学专家@@ 16
广告、@@ 16
TA@@ 16
严格控制@@ 16
当年的@@ 16
。2011年@@ 16
汽车的@@ 16
电路@@ 16
长期的@@ 16
价格的@@ 16
发挥作用@@ 16
战略性@@ 16
国有资产@@ 16
创新的@@ 16
倾向@@ 16
拓@@ 16
,太@@ 16
冷,@@ 16
还不错@@ 16
,相比@@ 16
的主题@@ 16
太多,@@ 16
年关@@ 16
个好@@ 16
急需@@ 16
炭@@ 16
盾@@ 16
联席@@ 16
住,@@ 16
。(陈@@ 16
体积@@ 16
(约@@ 16
真伪@@ 16
会造成@@ 16
田径@@ 16
量化@@ 16
和提高@@ 16
必须在@@ 16
后方@@ 16
GMP@@ 16
通过认证@@ 16
安全。 16
对应@@ 16
实施。 16
源头@@ 16
工业和@@ 16
。特别是@@ 16
汉中市卫生局@@ 16
加盖@@ 16
11时30分@@ 16
1月1日上午,@@ 16
金融信息@@ 16
国家队@@ 16
,发表@@ 16
使用。 16
这台@@ 16
,立即@@ 16
刷卡@@ 16
方式。 16
接受了@@ 16
成功,@@ 16
陪着@@ 16
去看@@ 16
上杭@@ 16
爷爷@@ 16
参观了@@ 16
闫@@ 16
认为,2014年@@ 16
着眼于@@ 16
举行。 16
住宿@@ 16
氧化碳@@ 16
. 16
呢?”@@ 16
,让他们@@ 16
被送到@@ 16
疾控中心@@ 16
没有了@@ 16
勺@@ 16
去医院@@ 16
后发现,@@ 16
颅内@@ 16
再现@@ 16
可能性@@ 16
临客@@ 16
购物中心@@ 16
愤怒@@ 16
研讨@@ 16
电视购物@@ 16
电视、@@ 16
深受@@ 16
细则@@ 16
贵宾@@ 16
匹配@@ 16
成功的@@ 16
的活动@@ 16
说 16
卡、@@ 16
助推@@ 16
阿热勒乡@@ 16
,水@@ 16
作,@@ 16
综合治理@@ 16
展 16
的故事@@ 16
此后@@ 16
迎接新年的@@ 16
吉利@@ 16
的东西,@@ 16
同性恋@@ 16
子在@@ 16
的价值@@ 16
啸@@ 16
、任@@ 16
首秀@@ 16
炮轰@@ 16
”的称号@@ 16
Q@@ 16
患上了@@ 16
用人@@ 16
宣泄@@ 16
淘宝@@ 16
的心态@@ 16
变得更加@@ 16
,特别@@ 16
韩联社@@ 16
1 16
南、@@ 16
监督。 16
气。 16
成了一个@@ 16
这些人@@ 16
新春@@ 16
效仿@@ 16
误导@@ 16
伸出@@ 16
科技有限公司@@ 16
直辖@@ 16
2000多@@ 16
以上。 16
one@@ 16
F-@@ 16
保时捷@@ 16
凸@@ 16
克尔@@ 16
,新车@@ 16
ent@@ 16
柴油@@ 16
无限@@ 16
不觉@@ 16
处处@@ 16
去。 16
亿立方米@@ 16
费。 16
。2008年@@ 16
也开始@@ 16
烧烤@@ 16
指导下@@ 16
雨季@@ 16
、何@@ 16
开始交往@@ 16
开车到@@ 16
允儿送回家中。@@ 16
两人的约会@@ 16
与允儿@@ 16
这张照片@@ 16
病的@@ 16
,不知道@@ 16
私人订制@@ 16
在前@@ 16
盖伊@@ 16
斯、@@ 16
食 16
和钙@@ 16
范志红@@ 16
牛奶鸡蛋@@ 16
猥亵@@ 16
枸杞@@ 16
效 16
审议通过@@ 16
大幕@@ 16
。分析@@ 16
出台了@@ 16
里,“@@ 16
竟是@@ 16
伦理@@ 16
6 16
受试者@@ 16
对自己@@ 16
独家@@ 16
,生@@ 16
因此,@@ 16
女性在@@ 16
开 16
反腐倡廉@@ 16
忠诚@@ 16
”工程@@ 16
城、@@ 16
权限@@ 16
报考@@ 16
调料@@ 16
很重要@@ 16
牙医@@ 16
的食品@@ 16
壮阳@@ 16
它是@@ 16
表现出@@ 16
去做@@ 16
巨臀@@ 16
合适的@@ 16
首选@@ 16
的肉@@ 16
,了解@@ 16
剥@@ 16
野生@@ 16
、紫@@ 16
床戏@@ 16
成熟的@@ 16
清热@@ 16
铁质@@ 16
中含有丰富的@@ 16
六个月@@ 16
一直以来@@ 16
选择。 16
。尤其是@@ 16
“黑@@ 16
李云迪@@ 16
,全场@@ 16
马伊琍@@ 16
。文章@@ 16
着。 16
上都@@ 16
未发现@@ 16
回首@@ 16
新华社记者@@ 16
”有@@ 16
制度;@@ 16
能为@@ 16
制约@@ 16
的力量@@ 16
吃到@@ 16
多彩@@ 16
咳嗽@@ 16
4次@@ 16
离婚后@@ 16
温柔@@ 16
,无法@@ 16
还原@@ 16
10元@@ 16
被烧@@ 16
说。@@ 16
SM@@ 16
ESP@@ 16
22个@@ 16
蹦@@ 16
帷幕@@ 16
堪@@ 16
会发生@@ 16
29岁@@ 16
年龄段@@ 16
接受。 16
公司,@@ 16
去年底@@ 16
爱得@@ 16
-3@@ 16
问题 16
鲁尼@@ 16
,因为他@@ 16
工作室@@ 16
在校@@ 16
、赵@@ 16
澄清@@ 16
奇特@@ 16
芬兰@@ 16
第二名@@ 16
农业部@@ 16
时代广场@@ 16
公办@@ 16
为国家@@ 16
等信息@@ 16
虑@@ 16
中所@@ 16
标准汽油@@ 16
置换@@ 16
申请一套@@ 16
佛山市南海区大沥镇@@ 16
人口、@@ 16
来做@@ 16
限行@@ 16
牵手@@ 16
摇头@@ 16
收入。 16
值得注意@@ 16
争议的@@ 16
国家新型城镇化规划@@ 16
后也@@ 16
棚户区@@ 16
经营权@@ 16
组合拳@@ 16
“台独@@ 16
向前@@ 16
国防部@@ 16
,在她@@ 16
AC@@ 16
双重@@ 16
动向@@ 16
驻军营区@@ 16
28岁招姓男子@@ 16
40岁张@@ 16
衡阳@@ 16
意。 16
为首@@ 16
竭@@ 16
责任追究@@ 16
4日,@@ 16
,多次@@ 16
则表示@@ 16
包厢@@ 16
南站@@ 16
保洁@@ 16
居家@@ 16
、生活@@ 16
不小的@@ 16
在网络上@@ 16
就是为了@@ 16
暖阳@@ 16
的日@@ 16
中午12@@ 16
使其@@ 16
职能部门@@ 16
在元旦@@ 16
甘肃省@@ 16
安、@@ 16
国务院关于@@ 16
搓@@ 16
一楼@@ 16
招生考试@@ 16
类别@@ 16
中旬,@@ 16
面试@@ 16
了下来@@ 16
品 16
。市@@ 16
月初@@ 16
华西都市报记者@@ 16
彭州@@ 16
金色@@ 16
名字@@ 16
配送中心@@ 16
过滤@@ 16
知识产权@@ 16
之中。 16
中央和国家机关@@ 16
遵@@ 16
帖子@@ 16
快女@@ 16
杨紫琼@@ 16
,指@@ 16
宜宾@@ 16
洽@@ 16
F-35@@ 16
经济损失@@ 16
曲《@@ 16
点赞@@ 16
第一艘航空母舰辽宁舰顺利完成为期37天的南海海域科研试验和训练@@ 16
进展情况@@ 16
双脚@@ 16
葫芦@@ 16
习近平办公室@@ 16
古今@@ 16
”成为@@ 16
吧。” 16
差点@@ 16
,有时候@@ 16
邱@@ 16
爸@@ 16
友 16
的一面@@ 16
标记@@ 16
的。我@@ 16
充满了@@ 16
沙漠@@ 16
买了一@@ 16
理石@@ 16
和田玉@@ 16
的先@@ 16
这件@@ 16
瞄@@ 16
复出@@ 16
,她在@@ 16
写真@@ 16
水泥@@ 16
图:@@ 16
县区@@ 16
的意见@@ 16
喝了@@ 16
周先生@@ 16
抖动@@ 16
匡@@ 16
党员干部@@ 16
离职@@ 16
都得@@ 16
任务是@@ 16
查寝@@ 16
寝室@@ 16
出版社@@ 16
定位为@@ 16
建设新@@ 16
和平宪法@@ 16
让中国@@ 16
语文@@ 16
告诉我@@ 16
大笑@@ 16
未有@@ 16
调取@@ 16
省人大常委会@@ 16
利益的@@ 16
委员、@@ 16
的形象@@ 16
说完@@ 16
的帮助@@ 16
强制性@@ 16
调到@@ 16
。可以@@ 16
IC@@ 16
索赔@@ 16
会对@@ 16
公立@@ 16
审议并@@ 16
评委@@ 16
清政府@@ 16
不惜@@ 16
舰载机@@ 16
消保@@ 16
巧克力@@ 16
西瓜皮@@ 16
其实,@@ 16
,李连杰@@ 16
在建@@ 16
丰收@@ 16
募集@@ 16
点歌@@ 16
少数民族@@ 16
饶@@ 16
梁静茹@@ 16
也比较@@ 16
彰@@ 16
1993.0@@ 16
决定免去其@@ 16
山南@@ 16
出让金@@ 16
亮哥@@ 16
被执行人@@ 16
琐@@ 16
、2@@ 16
视觉@@ 16
最好看的@@ 16
反问@@ 16
含蓄@@ 16
琢磨@@ 16
,我的@@ 16
毓@@ 16
饰)@@ 16
:性早熟@@ 16
陈家@@ 16
刨@@ 16
帮她@@ 16
一杯@@ 16
李宗盛@@ 16
大咖@@ 16
关塔那摩基地@@ 16
尖端武器@@ 16
拱@@ 16
的《新闻联播》@@ 16
沙龙@@ 16
讲,@@ 16
今后的@@ 16
交友@@ 16
顿饭@@ 16
。王某@@ 16
登场@@ 16
眼前@@ 16
的数据,@@ 16
邓颖超@@ 16
保章@@ 16
靖@@ 16
□@@ 16
远不如@@ 16
倒卖@@ 16
精英@@ 16
漳@@ 16
最后的@@ 16
史蒂@@ 16
生猪@@ 16
,不再@@ 16
中标@@ 16
万亩@@ 16
挖矿@@ 16
工信@@ 16
及周边@@ 16
必不可@@ 16
李宇春@@ 16
韦唯@@ 16
段宜康@@ 16
公立养老院@@ 16
安卓@@ 16
,小米@@ 16
退票@@ 16
奢侈品@@ 16
高野@@ 16
欧美@@ 16
苏有朋@@ 16
Power@@ 16
两款@@ 16
肖婶@@ 16
6年的@@ 16
被害@@ 16
剖@@ 16
为官@@ 16
低胸@@ 16
圣诞树@@ 16
制贩毒犯罪@@ 16
破获@@ 16
孙先生@@ 16
职务犯罪@@ 16
手机的@@ 16
因与@@ 16
源解析@@ 16
过往@@ 16
中国驻旧金山@@ 16
警察局@@ 16
1月1日晚@@ 16
柬@@ 16
举债@@ 16
风景区@@ 16
罗某@@ 16
会主席@@ 16
邦纳综合征@@ 16
卖掉@@ 16
轮奸@@ 16
中国海军@@ 16
出土@@ 16
人社部门@@ 16
刑警队队长@@ 16
所需的@@ 16
农民工工资支付@@ 16
救灾@@ 16
纹身@@ 16
杰克@@ 16
车迷@@ 16
两岁时就@@ 16
发现女儿的下身@@ 16
刘许强带着女儿@@ 16
针剂@@ 16
都含有@@ 16
部分地区@@ 16
房事@@ 16
拟给予其@@ 16
之城@@ 16
汉阳@@ 16
法学@@ 16
弋阳县@@ 16
[国内新闻@@ 16
[人事任免@@ 16
[军事报道@@ 16
张继刚@@ 16
买家@@ 16
一神秘@@ 16
新型直升机@@ 16
转基因@@ 16
煮熟@@ 16
证券纠纷@@ 16
安全绳@@ 16
ce@@ 15
人民生活@@ 15
表示感谢@@ 15
宗派@@ 15
狠抓@@ 15
等一系列@@ 15
宣言@@ 15
俄罗斯总统普京@@ 15
三个月@@ 15
了解情况@@ 15
讲解@@ 15
把手@@ 15
2013年,对我们国家和人民来说是很不平凡的一年。我们共同战胜了各种困难和挑战,取得了新的显著成就@@ 15
铁路线路@@ 15
、医疗@@ 15
单位应当@@ 15
废弃@@ 15
刑事案件@@ 15
状况。 15
均有@@ 15
二战甲级战犯@@ 15
作出的@@ 15
,安倍@@ 15
西藏自治区@@ 15
自治区党委、政府@@ 15
援藏@@ 15
稳中求进@@ 15
党的群众路线@@ 15
的影响。 15
治国@@ 15
和谐稳定@@ 15
以习近平同志为总书记的党中央@@ 15
保护好@@ 15
很强的@@ 15
财税@@ 15
扶贫开发@@ 15
十个@@ 15
,鼓励@@ 15
八项规定@@ 15
获悉,2013年@@ 15
固定资产@@ 15
支配@@ 15
等传统@@ 15
提出要@@ 15
结果显示,@@ 15
~5@@ 15
)记者从@@ 15
要求各@@ 15
掩饰@@ 15
分级@@ 15
定性@@ 15
诟@@ 15
特约@@ 15
,但现在@@ 15
请假@@ 15
庆祝新年@@ 15
鲤鱼@@ 15
一个人的@@ 15
,比如“@@ 15
势。 15
,新年@@ 15
,让人们对@@ 15
广场、@@ 15
总投资@@ 15
外资@@ 15
产业链@@ 15
筛选@@ 15
路网@@ 15
和朋友@@ 15
但是,@@ 15
斜@@ 15
监控录像@@ 15
路公交车@@ 15
其实我@@ 15
事发时@@ 15
认识到@@ 15
加密@@ 15
联和无党派人士@@ 15
支持和@@ 15
设定@@ 15
保温@@ 15
一侧@@ 15
是被@@ 15
”)@@ 15
五保@@ 15
低收入家庭@@ 15
卫生服务中心@@ 15
绝大多数@@ 15
等服务@@ 15
踏上了@@ 15
,准备@@ 15
时10@@ 15
少量@@ 15
星星@@ 15
难忘@@ 15
熟悉的@@ 15
走过@@ 15
的规定,@@ 15
间隙@@ 15
议论@@ 15
发表二〇一四年新年贺词。新华社记者兰红光摄 15
齐心@@ 15
9年的@@ 15
戴上@@ 15
执导@@ 15
畅销@@ 15
ke@@ 15
六合@@ 15
捏@@ 15
”,到@@ 15
一举@@ 15
不确定@@ 15
重心@@ 15
国力@@ 15
刘德华@@ 15
陈志@@ 15
也希望@@ 15
球衣@@ 15
朱丽倩@@ 15
门票@@ 15
的批评@@ 15
县(@@ 15
宝龙@@ 15
枕头@@ 15
组团@@ 15
平台、@@ 15
羡慕@@ 15
该国@@ 15
也可能@@ 15
飞抵@@ 15
该政策@@ 15
北京、上海@@ 15
中俄@@ 15
值得注意的是,@@ 15
国际关系@@ 15
向“@@ 15
级 15
曝光台”栏目@@ 15
厂商@@ 15
手机,@@ 15
6家@@ 15
作《@@ 15
致歉@@ 15
”一事@@ 15
中”@@ 15
依法依@@ 15
有3@@ 15
正式开始@@ 15
庆贺@@ 15
终止@@ 15
战,@@ 15
阵营@@ 15
前一天@@ 15
衬@@ 15
全资@@ 15
股本@@ 15
并不能@@ 15
未缴@@ 15
看不出@@ 15
评论员@@ 15
,也能@@ 15
初衷@@ 15
历史遗留@@ 15
利、@@ 15
今日,@@ 15
价格指数@@ 15
上涨0.@@ 15
召开的全国@@ 15
理性@@ 15
当晚,@@ 15
这辆@@ 15
一跃@@ 15
流出@@ 15
看到的@@ 15
照顾孩子@@ 15
在场@@ 15
每个月@@ 15
的情况,@@ 15
雷克@@ 15
LO@@ 15
可谓是@@ 15
1.6@@ 15
分钟的@@ 15
一层@@ 15
说着@@ 15
等职务@@ 15
门户@@ 15
街镇@@ 15
三、四@@ 15
一两@@ 15
术后@@ 15
,可能是@@ 15
下落@@ 15
朱家臣@@ 15
工、@@ 15
煤业@@ 15
第二次世界大战@@ 15
。“在@@ 15
600万@@ 15
上是@@ 15
调查显示,@@ 15
经济状况@@ 15
69@@ 15
副发言人@@ 15
关系和@@ 15
军国主义@@ 15
自助售卖机前买票@@ 15
郑州电视台@@ 15
临时决定@@ 15
给我们@@ 15
还被@@ 15
郑州地铁@@ 15
很不错@@ 15
腿被@@ 15
副驾驶@@ 15
折叠@@ 15
。新京@@ 15
孤寡@@ 15
从犯@@ 15
,还将@@ 15
判决书@@ 15
张勇@@ 15
创办@@ 15
了一家@@ 15
他也@@ 15
发生。 15
多发@@ 15
奥运会@@ 15
索契@@ 15
不离@@ 15
熄@@ 15
,临@@ 15
智力@@ 15
相对较@@ 15
视网膜@@ 15
半小时@@ 15
,就要@@ 15
向西@@ 15
丝绸之路@@ 15
充分利用@@ 15
的重点@@ 15
登记工作@@ 15
信息技术@@ 15
诠释@@ 15
需求。 15
仍然是@@ 15
墩@@ 15
新颖@@ 15
穿上@@ 15
新的一年,@@ 15
、促进@@ 15
,中国人民@@ 15
,中国的@@ 15
解放和发展社会生产@@ 15
赶上@@ 15
网吧@@ 15
控烟的@@ 15
”了,@@ 15
发愁@@ 15
难受@@ 15
积分@@ 15
240@@ 15
亿美元的@@ 15
编组@@ 15
残疾人@@ 15
斧@@ 15
,一次@@ 15
问他@@ 15
首尔@@ 15
、德国、@@ 15
旺季@@ 15
,并向@@ 15
按照“@@ 15
的交通@@ 15
2012年同期@@ 15
106@@ 15
叫做@@ 15
美国国务院外交安全局@@ 15
烟草控制@@ 15
赞扬@@ 15
能耗@@ 15
,大量@@ 15
产能过剩@@ 15
光伏@@ 15
取决于@@ 15
不仅要@@ 15
脆弱@@ 15
原因。 15
第二大@@ 15
市场需求@@ 15
纽带@@ 15
的人才@@ 15
偏离@@ 15
毋@@ 15
工业化@@ 15
边界@@ 15
确立@@ 15
却被@@ 15
等领域@@ 15
碎片@@ 15
消防部门@@ 15
滨江@@ 15
的物品@@ 15
这一天@@ 15
’。”@@ 15
对面@@ 15
方言@@ 15
票价@@ 15
站的@@ 15
物种@@ 15
环境污染@@ 15
增多@@ 15
疫@@ 15
的项目@@ 15
,实施@@ 15
研判@@ 15
罗夫@@ 15
小便@@ 15
肘@@ 15
山隧道@@ 15
,被称为“@@ 15
地质@@ 15
了起来@@ 15
发现自己@@ 15
快感@@ 15
苏轼@@ 15
探讨@@ 15
聘请@@ 15
裹@@ 15
13亿@@ 15
的选手@@ 15
有能力@@ 15
的合理@@ 15
能力和@@ 15
2010@@ 15
食药监@@ 15
2011@@ 15
附件@@ 15
自2014年1月1日起@@ 15
相关规定@@ 15
,采取@@ 15
为什么要@@ 15
水平,@@ 15
结构调整@@ 15
学前教育@@ 15
2010年11月@@ 15
通过银行@@ 15
开放日@@ 15
金融信息中心@@ 15
屠@@ 15
的状态@@ 15
08@@ 15
近两@@ 15
,希望能@@ 15
了。我@@ 15
守候@@ 15
审讯@@ 15
甫@@ 15
要多@@ 15
的一天@@ 15
等情况@@ 15
还需要@@ 15
治疗费用@@ 15
客家@@ 15
般的@@ 15
埃塞俄比亚@@ 15
维尔@@ 15
区将@@ 15
北约@@ 15
加拿@@ 15
花山@@ 15
7人@@ 15
安监局@@ 15
据香港《@@ 15
后又@@ 15
的情景@@ 15
稍微@@ 15
儿媳@@ 15
了这个@@ 15
中间价@@ 15
纪录。 15
略有@@ 15
,7@@ 15
。无论是@@ 15
时点@@ 15
关税@@ 15
年会@@ 15
据中国之声《新闻纵横@@ 15
费的@@ 15
,不会@@ 15
开支@@ 15
家用@@ 15
产业化@@ 15
多功能@@ 15
仅是@@ 15
周岁的@@ 15
7月份@@ 15
经常性@@ 15
得更@@ 15
产田@@ 15
俐@@ 15
商讨@@ 15
设置的@@ 15
ie@@ 15
紊乱@@ 15
四肢@@ 15
出品@@ 15
冒着@@ 15
和投资@@ 15
巧妙@@ 15
想看@@ 15
衰弱@@ 15
刘松怀@@ 15
,或者在@@ 15
,“这@@ 15
心血管疾病@@ 15
雷诺@@ 15
科学家们@@ 15
严重。 15
迈克@@ 15
二号@@ 15
,并处罚金@@ 15
一百@@ 15
国企高管@@ 15
。(记者张@@ 15
讯(记者@@ 15
有人在@@ 15
广播电视台@@ 15
做人@@ 15
几千@@ 15
100万元@@ 15
法新@@ 15
25分@@ 15
细颗粒物@@ 15
馈@@ 15
,对此@@ 15
汛@@ 15
由于在@@ 15
身份证号@@ 15
经济学@@ 15
新技术@@ 15
落月@@ 15
的图片@@ 15
表示:“我们@@ 15
天空@@ 15
涌现@@ 15
处理器@@ 15
几个人@@ 15
关心的@@ 15
美景@@ 15
的美好@@ 15
西兰@@ 15
闻名@@ 15
。这里@@ 15
啤@@ 15
多处@@ 15
全额@@ 15
;如果@@ 15
,“霸机”@@ 15
航站楼@@ 15
冠军,@@ 15
的痕迹@@ 15
的表演@@ 15
:“我们@@ 15
此前的@@ 15
、古@@ 15
梓@@ 15
深刻的@@ 15
角。 15
可惜@@ 15
佣@@ 15
已开始@@ 15
首轮@@ 15
进行,@@ 15
搞得@@ 15
不能和@@ 15
螃蟹@@ 15
都不敢@@ 15
副教授@@ 15
中富含@@ 15
片《@@ 15
据新华社电@@ 15
改革方案@@ 15
建国65周年@@ 15
过去的一年,@@ 15
决定》@@ 15
动产统一登记@@ 15
国企改革总体方案@@ 15
真容@@ 15
烟 15
[北京时间@@ 15
脱离危险@@ 15
报业@@ 15
美白@@ 15
身高@@ 15
成人@@ 15
酶@@ 15
原标题:养生@@ 15
的,所以@@ 15
暧昧@@ 15
。所以,@@ 15
作息@@ 15
身体的@@ 15
补肾@@ 15
先天@@ 15
糟糕@@ 15
、日@@ 15
说得@@ 15
每个人的@@ 15
改革发展@@ 15
耕地红线@@ 15
百分点。 15
性质@@ 15
化学物质@@ 15
视 15
会出现@@ 15
可以用@@ 15
懂得@@ 15
吃法@@ 15
微量@@ 15
冬吃萝卜@@ 15
她是@@ 15
衣物@@ 15
,每月@@ 15
。长期@@ 15
曝光后,@@ 15
不吃@@ 15
密度@@ 15
红烧@@ 15
上班,@@ 15
了,所以@@ 15
叶酸@@ 15
轻度@@ 15
荷尔蒙@@ 15
道菜@@ 15
林志玲@@ 15
干爹@@ 15
的作用。 15
不能吃@@ 15
腥@@ 15
致癌物@@ 15
,据悉@@ 15
起居@@ 15
约会被拍@@ 15
星球@@ 15
乐坛@@ 15
)以及@@ 15
骚@@ 15
还未@@ 15
瑾@@ 15
捕捉@@ 15
实施,@@ 15
棵@@ 15
问题;@@ 15
汹@@ 15
牵引@@ 15
。这就@@ 15
为人民@@ 15
,保证@@ 15
会儿@@ 15
孕期@@ 15
,学习@@ 15
的心情@@ 15
迫使@@ 15
色。 15
湖人队@@ 15
,心@@ 15
,正在@@ 15
。双方@@ 15
把这些@@ 15
满满@@ 15
昨日上午,@@ 15
片 15
忙着@@ 15
,另有@@ 15
烟,@@ 15
火烧@@ 15
的同学@@ 15
落,@@ 15
框@@ 15
电热@@ 15
美国国家安全局@@ 15
pp@@ 15
St@@ 15
锦赛@@ 15
国人@@ 15
不怕@@ 15
站 15
削减@@ 15
风采@@ 15
运会@@ 15
担负@@ 15
,但我们@@ 15
至关@@ 15
尚有@@ 15
开出@@ 15
注:@@ 15
啊!” 15
所有人都@@ 15
连发@@ 15
名将@@ 15
4位@@ 15
面积达@@ 15
居高@@ 15
气和@@ 15
应该在@@ 15
错了@@ 15
展现了@@ 15
的真实@@ 15
英里@@ 15
,那就是@@ 15
深水@@ 15
熟练@@ 15
国四汽油@@ 15
国三@@ 15
私家@@ 15
每平方米@@ 15
交界@@ 15
万红@@ 15
1日表示,@@ 15
的,但@@ 15
楼层@@ 15
街口@@ 15
政客@@ 15
然无@@ 15
践踏@@ 15
机关事业单位@@ 15
表决@@ 15
城镇化工作会议@@ 15
一贯@@ 15
研究生考试@@ 15
会议费@@ 15
采访时称,@@ 15
被打@@ 15
互信@@ 15
伯格@@ 15
亮点,@@ 15
自己,@@ 15
时常@@ 15
等国家@@ 15
留给@@ 15
of@@ 15
本书@@ 15
道,@@ 15
国务院港澳办发言人@@ 15
驻军@@ 15
惩处。 15
[香港警务处警察公共关系科@@ 15
世界第一@@ 15
90%@@ 15
法、@@ 15
和工作@@ 15
“以@@ 15
副厅长@@ 15
行列@@ 15
虐待@@ 15
瑞金@@ 15
高院@@ 15
阿婆@@ 15
果 15
,到现在@@ 15
招呼@@ 15
体会@@ 15
行政执法@@ 15
有关规定,@@ 15
算,@@ 15
。和@@ 15
2013年12月28日@@ 15
南路@@ 15
主城区@@ 15
沿街@@ 15
忽略@@ 15
电话、@@ 15
粮食生产@@ 15
抖@@ 15
万多@@ 15
,这两个@@ 15
最低工资@@ 15
都江堰@@ 15
最温暖@@ 15
差,@@ 15
微信公众@@ 15
设在@@ 15
粗暴@@ 15
也表示,@@ 15
不应该@@ 15
垄断@@ 15
天府@@ 15
镇、@@ 15
折扣@@ 15
狭@@ 15
同一个@@ 15
救护车@@ 15
记者李@@ 15
10余@@ 15
,整个@@ 15
出示@@ 15
教育厅@@ 15
吼@@ 15
卡在@@ 15
步行街@@ 15
磅@@ 15
2013年前9月@@ 15
记者会上@@ 15
”后,@@ 15
小时 15
浸泡@@ 15
手工@@ 15
、全@@ 15
em@@ 15
115@@ 15
冶@@ 15
陋@@ 15
隐蔽@@ 15
,2@@ 15
我也@@ 15
不合理@@ 15
2013年12月29日,@@ 15
中断@@ 15
前任@@ 15
延庆@@ 15
维利@@ 15
9.6@@ 15
颁奖@@ 15
IT@@ 15
路由@@ 15
市场份额@@ 15
中东@@ 15
ost@@ 15
Sp@@ 15
吗?你@@ 15
令吉@@ 15
“自@@ 15
显示出@@ 15
同时段@@ 15
1)@@ 15
无不@@ 15
跌破@@ 15
128@@ 15
载着@@ 15
勘@@ 15
当时,@@ 15
水平。@@ 15
对记者说,@@ 15
前就@@ 15
张大伟@@ 15
背后的@@ 15
5亿豪宅@@ 15
,等@@ 15
兮@@ 15
整容@@ 15
美腿@@ 15
太多的@@ 15
氧化硫@@ 15
二次无机气溶胶@@ 15
漠@@ 15
万剑@@ 15
交通安全@@ 15
处罚。 15
旅客的@@ 15
收回@@ 15
阜@@ 15
笔钱@@ 15
缓缓@@ 15
第三方@@ 15
本网@@ 15
公款消费@@ 15
大学生村官@@ 15
公职@@ 15
号的@@ 15
也影响到了抢票软件,多家抢票软件接近“报废@@ 15
12306网站使用的是静态验证码,字符清晰,且不分大小写@@ 15
不但经常出现字符叠压的情况,验证码还在@@ 15
彩色的,你得使劲看。不能说看不清楚@@ 15
购票顺序了,这个@@ 15
升级之后,@@ 15
复杂,@@ 15
[中@@ 15
笼子@@ 15
共同社报道,@@ 15
姓男子@@ 15
比亚@@ 15
小子@@ 15
老许@@ 15
谅@@ 15
妊娠@@ 15
疗法@@ 15
合约@@ 15
职务。 15
江淮@@ 15
称,他@@ 15
轻生@@ 15
房产局@@ 15
意味@@ 15
IPO重启@@ 15
计算,@@ 15
可直接@@ 15
彦@@ 15
从轻@@ 15
房,@@ 15
批准,@@ 15
湖南省政协原副主席童名谦严重违纪违法@@ 15
在任@@ 15
人民网1月2日讯据@@ 15
子弹@@ 15
蹄@@ 15
战争的@@ 15
东条英机@@ 15
金泰@@ 15
立足@@ 15
BC@@ 15
都市报@@ 15
的手段@@ 15
15家@@ 15
师大@@ 15
就变得@@ 15
矩@@ 15
看上去@@ 15
旋律@@ 15
11家@@ 15
实现营业收入@@ 15
路桥@@ 15
和特点@@ 15
打造“@@ 15
博览@@ 15
5.0@@ 15
美人@@ 15
八佰伴@@ 15
,拉@@ 15
江浙@@ 15
狄@@ 15
一是@@ 15
公园内@@ 15
淡淡@@ 15
名单。 15
也均@@ 15
未提@@ 15
官方网站@@ 15
水资源@@ 15
参与投票@@ 15
40人@@ 15
工作;@@ 15
阿里@@ 15
区)@@ 15
恶化@@ 15
再过@@ 15
通过网络@@ 15
怯@@ 15
时代的@@ 15
电影版@@ 15
狠狠@@ 15
使劲@@ 15
哈哈哈哈哈哈@@ 15
尾巴@@ 15
随身携带@@ 15
门、@@ 15
挂历@@ 15
:其实@@ 15
的两大@@ 15
方案》@@ 15
法案@@ 15
类节目@@ 15
这是我照@@ 15
谢谢那么多爱我和他和我们的人,我们领证啦!” 15
恋情曝光@@ 15
网聊@@ 15
,用来@@ 15
好感@@ 15
那头@@ 15
QQ群@@ 15
2)@@ 15
占用的@@ 15
千颂伊@@ 15
南约@@ 15
床,@@ 15
40多岁的@@ 15
。据悉@@ 15
新年音乐@@ 15
排起@@ 15
韩国娱乐圈@@ 15
员在@@ 15
俘@@ 15
同一天@@ 15
者将@@ 15
2013就是爱你一生@@ 15
传承一生一世的爱和正能量@@ 15
了,他@@ 15
大雪@@ 15
双臂@@ 15
小平同志@@ 15
吁@@ 15
第五代战斗机@@ 15
中大@@ 15
命中@@ 15
政府军@@ 15
怀着@@ 15
霆@@ 15
留学@@ 15
位 15
姗@@ 15
经营范围@@ 15
最美脸蛋@@ 15
2014年1月2日@@ 15
他已经@@ 15
玉泉@@ 15
,2009年@@ 15
购入@@ 15
莎@@ 15
柠檬@@ 15
判罚@@ 15
三轮@@ 15
投保@@ 15
中信银行@@ 15
改装@@ 15
谣言@@ 15
叔@@ 15
《我是歌手》@@ 15
暇@@ 15
嬉@@ 15
程度,@@ 15
很简单@@ 15
做法:@@ 15
国民党@@ 15
,竟然@@ 15
资料图 15
勘查@@ 15
休闲会所@@ 15
天文@@ 15
ab@@ 15
妻子的@@ 15
法令纹@@ 15
谍照@@ 15
许茹芸@@ 15
乍@@ 15
华盛顿邮报》@@ 15
主人家@@ 15
劳动争议@@ 15
负责人介绍,@@ 15
名乘客@@ 15
“绍卡利斯基院士”号@@ 15
安全局@@ 15
救援行动@@ 15
她已经@@ 15
,配备@@ 15
论文造假@@ 15
【同期】复旦大学附属眼耳鼻喉科医院@@ 15
百多@@ 15
科利尔@@ 15
北方的@@ 15
多起@@ 15
注销@@ 15
大气灰霾@@ 15
贺泓@@ 15
责任的债务@@ 15
走。 15
影评@@ 15
问我@@ 15
宏飞@@ 15
瑟·@@ 15
兹伯格@@ 15
学金@@ 15
佛像@@ 15
驱护舰@@ 15
094型@@ 15
母亲的@@ 15
年末,@@ 15
社保基金@@ 15
餐具@@ 15
老鼠@@ 15
CES@@ 15
身价@@ 15
满屋@@ 15
每立方米@@ 15
榆阳区@@ 15
天,占@@ 15
巫@@ 15
下午,“@@ 15
盘点2013@@ 15
蜂蜜水@@ 15
柏泉所@@ 15
丁矿长@@ 15
鹦鹉@@ 15
发文@@ 15
交通厅@@ 15
多与女性@@ 15
山县@@ 15
程某@@ 15
朋克公主@@ 15
岛 15
小龙@@ 15
吴佩慈@@ 15
[社会新闻推荐 15
太阳能电池@@ 15
远航@@ 15
打捞@@ 15
科室@@ 15
卷福@@ 15
塑料管@@ 15
权力过于@@ 15
荣誉谋杀@@ 15
贫困户@@ 15
评审团@@ 15
交响@@ 15
王雁涛@@ 15
子宫肌瘤@@ 15
老张@@ 15
用水量@@ 15
直接经济损失@@ 15
政法系统的@@ 15
陈凯希@@ 15
河北省交通厅@@ 15
下颌骨@@ 15
日报》报道,@@ 14
2013年是@@ 14
所谓的“@@ 14
得多@@ 14
强国@@ 14
过去一年@@ 14
在各@@ 14
革命队伍@@ 14
召开了@@ 14
蜡烛@@ 14
人死亡,@@ 14
,一场@@ 14
“从@@ 14
31名@@ 14
中,我们@@ 14
动车上吸烟@@ 14
最高罚@@ 14
等一批@@ 14
加工、@@ 14
、易@@ 14
真实身份@@ 14
堵塞@@ 14
行政许可@@ 14
50万元@@ 14
以下罚款。 14
出了“@@ 14
涝@@ 14
明确规定,@@ 14
养护@@ 14
设施的@@ 14
保护。 14
畜禽养殖@@ 14
领域,@@ 14
未成年人@@ 14
人的家庭@@ 14
未成年@@ 14
对《@@ 14
交易的@@ 14
十八@@ 14
大型游乐设施@@ 14
“超@@ 14
恃@@ 14
公然挑衅@@ 14
军事强国@@ 14
法西斯@@ 14
乘势而@@ 14
天皇@@ 14
定论@@ 14
严防@@ 14
自治区主席@@ 14
在工作@@ 14
同志们@@ 14
总基调@@ 14
教育实践活动,@@ 14
党的十八大和@@ 14
治边@@ 14
持续健康@@ 14
对2014年@@ 14
、丁@@ 14
实惠@@ 14
瞻@@ 14
坚定信心@@ 14
坚持以@@ 14
、教育@@ 14
工程、@@ 14
壮大@@ 14
进一步强化@@ 14
点和@@ 14
情绪,@@ 14
党的群众路线教育实践活动@@ 14
又要@@ 14
这一“@@ 14
体系建设@@ 14
农牧@@ 14
,建设@@ 14
、开@@ 14
奋力@@ 14
边防总队@@ 14
消费品@@ 14
亿元人民币@@ 14
仍将@@ 14
经济运行@@ 14
基础设施建设@@ 14
重庆、@@ 14
局地@@ 14
两天,@@ 14
相适应@@ 14
敲诈勒索@@ 14
滋事@@ 14
《通知》@@ 14
法,@@ 14
犯罪事实@@ 14
超长@@ 14
充裕@@ 14
周四@@ 14
假,@@ 14
放,@@ 14
一些地区@@ 14
持续了@@ 14
也被一些@@ 14
铅@@ 14
融化@@ 14
俄罗斯人@@ 14
新年前@@ 14
的“红白歌会”@@ 14
“招财@@ 14
表示自己@@ 14
祈求@@ 14
服。@@ 14
”称号。 14
、近@@ 14
新年伊始,@@ 14
耗资@@ 14
10条@@ 14
拥挤@@ 14
,不让@@ 14
莆@@ 14
优势,@@ 14
、农村@@ 14
4家@@ 14
次。 14
限度@@ 14
有关方面@@ 14
讲话中@@ 14
阶段性@@ 14
变为@@ 14
新形势@@ 14
粉红色@@ 14
收养@@ 14
人身@@ 14
保险、@@ 14
。昨天@@ 14
,昨日@@ 14
种,@@ 14
倾向于@@ 14
第八@@ 14
有多少@@ 14
领导干部带头在公共场所禁烟有关事项的通知》,@@ 14
、浙江@@ 14
礼仪@@ 14
“抽@@ 14
领导干部带头在公共场所禁烟@@ 14
直机关@@ 14
勋@@ 14
2013年12月31日,国家主席习近平发表新年贺词,其办公室也首度曝光。透过央视@@ 14
右侧书架@@ 14
极度@@ 14
帽子@@ 14
对不起@@ 14
称赞@@ 14
我很@@ 14
,哪@@ 14
力气@@ 14
寒风中@@ 14
食物,@@ 14
凭证@@ 14
搅@@ 14
重启@@ 14
揣@@ 14
拜鬼@@ 14
心一@@ 14
韩国总统@@ 14
,他将@@ 14
面临着@@ 14
成真@@ 14
统计局@@ 14
是一次@@ 14
瞒@@ 14
平板@@ 14
“五@@ 14
蓝天@@ 14
万人,@@ 14
2013年底@@ 14
举办的@@ 14
工人们@@ 14
全长@@ 14
以外的@@ 14
车位@@ 14
落的@@ 14
滥@@ 14
在英国@@ 14
交纳@@ 14
,同时也是@@ 14
5亿@@ 14
,增加了@@ 14
区分@@ 14
给人@@ 14
至2013年@@ 14
依然是@@ 14
副院长@@ 14
登陆艇@@ 14
总共@@ 14
。为此@@ 14
10大@@ 14
科研试验和训练@@ 14
典型案例@@ 14
“四风”@@ 14
1日)@@ 14
祝词@@ 14
被撬@@ 14
首条@@ 14
进展顺利@@ 14
。事实上,@@ 14
好,但@@ 14
汇率@@ 14
德·@@ 14
,保护@@ 14
议 14
民国@@ 14
,看看@@ 14
安宁@@ 14
不安@@ 14
发布公告@@ 14
主营@@ 14
婴幼儿@@ 14
批次@@ 14
利率市场化@@ 14
来。@@ 14
争论@@ 14
未达到@@ 14
退税@@ 14
全部完成@@ 14
任志强@@ 14
事务所@@ 14
深圳市@@ 14
出台《@@ 14
减免@@ 14
70%,@@ 14
0.6@@ 14
环比下跌@@ 14
1个,其中@@ 14
在1%以上的有@@ 14
,较上月@@ 14
线城市和@@ 14
收紧@@ 14
供应量@@ 14
,控制@@ 14
结合,@@ 14
供需@@ 14
真人秀节目《@@ 14
我不是男神@@ 14
一年半@@ 14
飞的@@ 14
该怎么办@@ 14
通了@@ 14
收银@@ 14
而下,@@ 14
黄某和@@ 14
安慰@@ 14
,孩子@@ 14
听见@@ 14
回来,@@ 14
恍@@ 14
喃@@ 14
。上海@@ 14
,19@@ 14
;二@@ 14
首家@@ 14
汽车之家@@ 14
PK@@ 14
PO@@ 14
11个月@@ 14
10.8@@ 14
之时,@@ 14
历来@@ 14
,他说@@ 14
内分泌失调@@ 14
没有发现@@ 14
急忙@@ 14
截图 14
介入调查@@ 14
的真实性@@ 14
还说,@@ 14
你要@@ 14
,到了@@ 14
弄虚作假@@ 14
姑息@@ 14
2500元@@ 14
胡先生@@ 14
一名男子@@ 14
10个工作日内@@ 14
政法委书记@@ 14
文中@@ 14
硕士研究生@@ 14
7日,@@ 14
8月20日,@@ 14
之上,@@ 14
“这是@@ 14
,并通过@@ 14
献上@@ 14
这样做@@ 14
表达了@@ 14
较多@@ 14
为4@@ 14
2.6@@ 14
为一@@ 14
采访。 14
郑东新区@@ 14
在地铁@@ 14
逛逛@@ 14
会场,@@ 14
40分钟@@ 14
私家车@@ 14
钱花@@ 14
“放@@ 14
租车@@ 14
,右@@ 14
接警@@ 14
吓住@@ 14
意见》,@@ 14
检查和@@ 14
为重点,@@ 14
社会力量@@ 14
伪造居民身份证@@ 14
的假@@ 14
亿 14
编造@@ 14
的手法@@ 14
父亲的@@ 14
,其行为@@ 14
上月30日@@ 14
的人在@@ 14
忘了@@ 14
会产生@@ 14
范围的@@ 14
全覆盖@@ 14
标准和@@ 14
资助@@ 14
化为@@ 14
改变,@@ 14
被调查@@ 14
退伍@@ 14
,完善@@ 14
评为@@ 14
举办了@@ 14
恤@@ 14
的光@@ 14
不懈@@ 14
改革举措@@ 14
战斗力@@ 14
实实在在@@ 14
还不算@@ 14
生机@@ 14
都不会@@ 14
全面禁烟@@ 14
控制吸烟@@ 14
级干部@@ 14
办理。 14
”之后,@@ 14
3%@@ 14
对全市@@ 14
划拨@@ 14
总计@@ 14
碳酸@@ 14
千伏@@ 14
遇到了@@ 14
这两个@@ 14
强。 14
乐园@@ 14
整整@@ 14
。当前@@ 14
超载@@ 14
。一名@@ 14
目标。 14
广电@@ 14
机制。 14
”与“@@ 14
建设用地@@ 14
经济效益@@ 14
35%@@ 14
40%@@ 14
无效@@ 14
也出现了@@ 14
太阳能@@ 14
研发人员@@ 14
”而@@ 14
。但在@@ 14
与社会@@ 14
原有的@@ 14
讳@@ 14
现代化的@@ 14
。(刘@@ 14
千年@@ 14
,只好@@ 14
御寒@@ 14
人头攒@@ 14
换成@@ 14
不同的是,@@ 14
的气温@@ 14
存在着@@ 14
大面积@@ 14
世界大战@@ 14
,系统@@ 14
罪行@@ 14
盛大@@ 14
放下@@ 14
又开始@@ 14
发了@@ 14
守则》@@ 14
,全长@@ 14
癖@@ 14
“中@@ 14
一遍@@ 14
一通@@ 14
写的@@ 14
证和@@ 14
证。 14
蒙古@@ 14
上也@@ 14
分析称,@@ 14
不大@@ 14
截至2013年12月31日@@ 14
需求的@@ 14
如下: 14
产 14
底前@@ 14
后仍@@ 14
按照《@@ 14
落到实@@ 14
准则@@ 14
条件下@@ 14
产品质量@@ 14
和技术@@ 14
更高的@@ 14
市场。 14
突出,@@ 14
。这对于@@ 14
服务体系@@ 14
需要的@@ 14
。经查,@@ 14
冽@@ 14
功能。 14
的国际@@ 14
浦东新区@@ 14
管委会@@ 14
这一点@@ 14
弘@@ 14
水平和@@ 14
淀@@ 14
股,@@ 14
款项@@ 14
5次@@ 14
凌晨3@@ 14
、龙@@ 14
金华@@ 14
回避@@ 14
草坪@@ 14
我会@@ 14
文化旅游@@ 14
连连@@ 14
说,从@@ 14
,来自@@ 14
人道主义@@ 14
受困@@ 14
对媒体@@ 14
鼓山@@ 14
县里@@ 14
脑袋@@ 14
CT@@ 14
过一个@@ 14
重回@@ 14
.1%,@@ 14
7.7@@ 14
前夕@@ 14
椒@@ 14
检验检疫@@ 14
准备金@@ 14
,为什么@@ 14
乘客在@@ 14
统计,2013年@@ 14
。而对于@@ 14
维吾尔族@@ 14
白血病@@ 14
王海@@ 14
1500@@ 14
、防@@ 14
就可@@ 14
乒@@ 14
。像@@ 14
·阿@@ 14
,她说@@ 14
高龄@@ 14
组织开展@@ 14
迎接2014年@@ 14
巴旦姆@@ 14
ir@@ 14
将通过@@ 14
合作协议@@ 14
好运@@ 14
向外@@ 14
炬@@ 14
晶球@@ 14
花车游行@@ 14
古典@@ 14
严寒@@ 14
名符其实的“@@ 14
公认@@ 14
爸爸去哪儿@@ 14
不仅仅是@@ 14
炙手可@@ 14
《超级@@ 14
逼问@@ 14
相声@@ 14
脊椎@@ 14
知道,@@ 14
周期性@@ 14
LMD@@ 14
)与@@ 14
福特@@ 14
大多为@@ 14
,这些都是@@ 14
通缉@@ 14
为你@@ 14
国债逆回购@@ 14
人情@@ 14
突击@@ 14
特产@@ 14
中组@@ 14
里,我们@@ 14
,每个人@@ 14
着这@@ 14
已与@@ 14
1月份@@ 14
网络购物@@ 14
缀@@ 14
一来,@@ 14
就这样@@ 14
松下@@ 14
值为@@ 14
红旗@@ 14
扩容@@ 14
摆在@@ 14
上任@@ 14
1月,@@ 14
。德国@@ 14
变速箱@@ 14
计划在@@ 14
抗争@@ 14
ug@@ 14
扭矩@@ 14
为5@@ 14
前者@@ 14
可行@@ 14
炫耀@@ 14
ID@@ 14
指纹识别@@ 14
心 14
出色@@ 14
高新区@@ 14
行动计划@@ 14
,初步@@ 14
怜@@ 14
前十@@ 14
。(记者孙@@ 14
后才能@@ 14
山东、@@ 14
条ETC@@ 14
事件中@@ 14
劝告@@ 14
40分,@@ 14
后,民警@@ 14
晤@@ 14
约翰@@ 14
就是在@@ 14
游览@@ 14
天后@@ 14
谎@@ 14
恋情曝光后,@@ 14
节目组@@ 14
本周@@ 14
的对手@@ 14
,成功@@ 14
表,@@ 14
墙上@@ 14
两性@@ 14
次年@@ 14
各界共识@@ 14
将面世,@@ 14
,各界期待。 14
,此外,@@ 14
休刊@@ 14
中西部高校@@ 14
专家、@@ 14
排出@@ 14
8大@@ 14
状态。 14
失调@@ 14
黄帝@@ 14
蛋白质、@@ 14
咱们@@ 14
不是什么@@ 14
因 14
小姨子@@ 14
实质@@ 14
钱买@@ 14
睾丸@@ 14
男士@@ 14
随之@@ 14
陈代谢@@ 14
,金@@ 14
水肿@@ 14
揭晓@@ 14
暖身@@ 14
爱美网@@ 14
(以下简称@@ 14
长安@@ 14
江汉@@ 14
本科@@ 14
145@@ 14
核桃@@ 14
获益@@ 14
发烧@@ 14
午后@@ 14
旺盛@@ 14
盘点:@@ 14
吃 14
》中,@@ 14
含有丰富@@ 14
癌细胞@@ 14
相近@@ 14
生活方式@@ 14
大致@@ 14
丈夫的@@ 14
,多吃@@ 14
摩擦@@ 14
鸡肉、@@ 14
啦!@@ 14
鱼肉@@ 14
三类@@ 14
口气@@ 14
讲究@@ 14
碳水化合物@@ 14
本身就是@@ 14
补充剂@@ 14
……这些@@ 14
一起来@@ 14
注意饮食@@ 14
番茄红素@@ 14
家常@@ 14
血脂@@ 14
很受@@ 14
健康。 14
的美女@@ 14
ee@@ 14
,容易@@ 14
王菲和李亚鹏@@ 14
,女儿@@ 14
仅仅是@@ 14
男神”@@ 14
社会上@@ 14
质疑。 14
普通人@@ 14
国家治理@@ 14
等各@@ 14
羽毛@@ 14
肚子@@ 14
10秒@@ 14
平安夜@@ 14
关门@@ 14
求救@@ 14
3.8@@ 14
庭审@@ 14
本案@@ 14
刑拘@@ 14
3500@@ 14
走近@@ 14
有时间@@ 14
5元@@ 14
单元@@ 14
集中供暖@@ 14
蜂窝@@ 14
美国国安局@@ 14
国家安全局@@ 14
”,即@@ 14
消息称@@ 14
号。 14
上次@@ 14
军团@@ 14
值得期待@@ 14
。包括@@ 14
强势@@ 14
来自于@@ 14
对外公布@@ 14
45岁的@@ 14
的前提下,@@ 14
本赛季@@ 14
的父亲@@ 14
无可厚非@@ 14
发球@@ 14
站起来@@ 14
防守@@ 14
恰好@@ 14
,我会@@ 14
表示,自己@@ 14
津津@@ 14
成长的@@ 14
ace@@ 14
红的@@ 14
爱尔兰@@ 14
发泄@@ 14
图像@@ 14
照片中@@ 14
可以看到@@ 14
紧随@@ 14
将如何@@ 14
能力、@@ 14
GPS@@ 14
法》和《@@ 14
当地警方@@ 14
成品油@@ 14
劳动合同@@ 14
计生证@@ 14
“三审三公示@@ 14
、工商、@@ 14
更方便@@ 14
,大概@@ 14
保障房空置@@ 14
20米@@ 14
证 14
长期进京证@@ 14
发稿@@ 14
国道@@ 14
免职@@ 14
县人民政府@@ 14
离去@@ 14
。“他@@ 14
问题。”@@ 14
:4@@ 14
站立@@ 14
20世纪@@ 14
、陕西@@ 14
不动产登记@@ 14
描绘@@ 14
将逐步@@ 14
直升@@ 14
大城市@@ 14
30余@@ 14
多大@@ 14
老虎”@@ 14
省部级@@ 14
严打@@ 14
秋季@@ 14
倡议@@ 14
首艘@@ 14
者。@@ 14
国际机场@@ 14
35年@@ 14
时就@@ 14
赴美@@ 14
拟在@@ 14
被发现@@ 14
曼谷@@ 14
脸谱@@ 14
身处@@ 14
罕@@ 14
标准为@@ 14
不允许@@ 14
2013年12月26日下午擅自闯入位于中环军营的解放军驻港部队总部。 14
触犯《公安条例》(第245章)第38条,在无许可证情况下进入香港驻军禁区@@ 14
微企业@@ 14
舌尖@@ 14
对这个@@ 14
摸底@@ 14
谈起@@ 14
听,@@ 14
得的@@ 14
分流@@ 14
区内@@ 14
召集@@ 14
落水@@ 14
喜庆@@ 14
在一起,@@ 14
房子,@@ 14
第10@@ 14
蔡女士@@ 14
,“现在@@ 14
大家的@@ 14
不说@@ 14
入园@@ 14
,第一@@ 14
100多名@@ 14
也无法@@ 14
过一次@@ 14
双腿@@ 14
整洁@@ 14
公园、@@ 14
老院@@ 14
财政厅@@ 14
磅礴@@ 14
政风@@ 14
心。@@ 14
蕴@@ 14
在一些@@ 14
自动识别@@ 14
不断地@@ 14
天气气候事件@@ 14
破纪录@@ 14
暴雪@@ 14
掠@@ 14
风力@@ 14
地点:@@ 14
,合肥@@ 14
针对性@@ 14
国新办@@ 14
了一场@@ 14
研究机构@@ 14
贵州省@@ 14
口的@@ 14
着重@@ 14
,这么@@ 14
,这就@@ 14
“当时@@ 14
心有@@ 14
其间@@ 14
,“你@@ 14
液晶电视@@ 14
杨先生@@ 14
安全隐患@@ 14
天内@@ 14
,民警@@ 14
道上@@ 14
赃@@ 14
各家@@ 14
金山@@ 14
泸@@ 14
6时@@ 14
凌晨1@@ 14
自相矛盾@@ 14
目击@@ 14
现代服务业@@ 14
和民族@@ 14
圈内@@ 14
月坛店@@ 14
瘦肉@@ 14
木耳@@ 14
”的大@@ 14
南京国际金融中心大厦@@ 14
IFC@@ 14
抛售@@ 14
县”@@ 14
”之称的@@ 14
大为@@ 14
序幕@@ 14
做起,@@ 14
铲除@@ 14
空气污染@@ 14
轻度污染@@ 14
亿韩元@@ 14
至19@@ 14
叛国@@ 14
12日,@@ 14
窒息@@ 14
说,这个@@ 14
伤情@@ 14
副主任、@@ 14
房山区@@ 14
卉@@ 14
三分之一@@ 14
ity@@ 14
引述@@ 14
如果说@@ 14
尸骨@@ 14
推测@@ 14
。期间,@@ 14
莱斯@@ 14
吃饭,@@ 14
首饰@@ 14
,日本@@ 14
键盘@@ 14
,通常@@ 14
箱子@@ 14
敛@@ 14
近600@@ 14
用了@@ 14
化石@@ 14
内部的@@ 14
法》、《@@ 14
板栗@@ 14
荐@@ 14
诺娃@@ 14
美妙@@ 14
ris@@ 14
遍布@@ 14
这只@@ 14
是你@@ 14
号汽油@@ 14
空气质量监测@@ 14
灞@@ 14
经国号”@@ 14
的主体@@ 14
沁@@ 14
配合,@@ 14
防伪@@ 14
渣土车@@ 14
芥@@ 14
称呼@@ 14
部分是@@ 14
违章@@ 14
其所@@ 14
专注@@ 14
新版验证码@@ 14
其他的软件和网站已经影响到旅客正常的@@ 14
带有自动填写@@ 14
公关@@ 14
一个小时@@ 14
招牌@@ 14
照明@@ 14
白思豪@@ 14
美联社@@ 14
所在的@@ 14
实在是@@ 14
了多少@@ 14
2小时@@ 14
粤语@@ 14
的意思@@ 14
羊城晚报记者@@ 14
王明@@ 14
,不断提高@@ 14
加快建设@@ 14
型、@@ 14
埇桥@@ 14
跟男友@@ 14
嗯@@ 14
的道路@@ 14
其在@@ 14
回购@@ 14
指标配@@ 14
顺风车@@ 14
50%,@@ 14
、分@@ 14
资源,@@ 14
西侧@@ 14
天使@@ 14
1月2日电据@@ 14
司法机关依法@@ 14
硕士@@ 14
亿美元。 14
山口@@ 14
IN@@ 14
朗水霖学校@@ 14
被开除学生”@@ 14
血,@@ 14
文集》@@ 14
贺国强同志@@ 14
文集@@ 14
,直至@@ 14
公安部副部长@@ 14
识别区@@ 14
巨浪@@ 14
少林寺@@ 14
同龄@@ 14
殿堂@@ 14
方便面@@ 14
下一个@@ 14
减缓@@ 14
和大家一起@@ 14
研究成果@@ 14
于1月@@ 14
别有@@ 14
远洋@@ 14
经济区@@ 14
、合肥@@ 14
通”@@ 14
213@@ 14
股,筹集资金约@@ 14
运河@@ 14
国内的@@ 14
近些@@ 14
豪华包间@@ 14
边唱边@@ 14
玮琪@@ 14
。”网友“@@ 14
差评@@ 14
从而@@ 14
衡阳市委@@ 14
行至@@ 14
驻港部队总部@@ 14
舆情满意度@@ 14
人民日报@@ 14
北京市所有劳教所均已摘@@ 14
于泓源@@ 14
司法行政系统@@ 14
河劳教所@@ 14
(一)@@ 14
郭毅力@@ 14
,获得@@ 14
哈哈@@ 14
哈哈哈哈哈@@ 14
藕@@ 14
触犯@@ 14
,维护@@ 14
迪雅@@ 14
消防局@@ 14
,并迅速@@ 14
就是这样@@ 14
的王@@ 14
它是会动的,左晃右晃@@ 14
日本媒体@@ 14
已故@@ 14
否认。 14
出入境@@ 14
两人结婚@@ 14
谢楠转发吴京微博@@ 14
问你@@ 14
女客人@@ 14
上月28日@@ 14
10人@@ 14
朋友介绍@@ 14
网友表示@@ 14
楠”@@ 14
天龙八部》@@ 14
赵国军@@ 14
房主@@ 14
租客@@ 14
二轮@@ 14
菜刀@@ 14
知。 14
接受这样的@@ 14
有爱心人士@@ 14
的药物@@ 14
EXO@@ 14
身亡。 14
优素福@@ 14
3名中国维族囚犯@@ 14
布拉迪斯拉发@@ 14
斯洛伐克内务部@@ 14
恐怖活动@@ 14
陈一@@ 14
南华早@@ 14
团购@@ 14
定居@@ 14
恋人@@ 14
。记者昨天获悉,@@ 14
一审判决@@ 14
前国足@@ 14
1800多人@@ 14
吉尼斯总部认证官程东@@ 14
1437人有效参与@@ 14
活动,刷新@@ 14
“小红帽”@@ 14
澄@@ 14
。后来,@@ 14
薛@@ 14
数据显示,2013年@@ 14
油烟@@ 14
执照@@ 14
理念,@@ 14
ill@@ 14
。(海峡导报记者@@ 14
抵押贷款@@ 14
光》@@ 14
气质@@ 14
投产@@ 14
辽@@ 14
核武@@ 14
纵观@@ 14
投掷@@ 14
核武库@@ 14
就走@@ 14
ana@@ 14
80万@@ 14
巴克莱@@ 14
卖出@@ 14
然大@@ 14
绮@@ 14
装水@@ 14
往上@@ 14
洗澡的时候@@ 14
警服@@ 14
习惯。 14
遭人@@ 14
想着@@ 14
做到了@@ 14
全球最@@ 14
工行@@ 14
规定:@@ 14
燃气@@ 14
新婚@@ 14
日出@@ 14
陈兆才@@ 14
妇产@@ 14
有气象@@ 14
进村@@ 14
眼光@@ 14
,不太@@ 14
广东省公安厅@@ 14
篇论文@@ 14
中发现@@ 14
新专辑@@ 14
成婚@@ 14
亿人次,@@ 14
大兴线@@ 14
通话@@ 14
三分@@ 14
赛后@@ 14
诫@@ 14
正门@@ 14
Missy@@ 14
预言@@ 14
婚戒@@ 14
孟买@@ 14
(R@@ 14
玉兔”号@@ 14
月球勘测轨道飞行器”@@ 14
红糖@@ 14
烧鸡@@ 14
所谓的@@ 14
考点@@ 14
……” 14
LTE@@ 14
冰面@@ 14
求职@@ 14
科普@@ 14
“红@@ 14
你 14
年长@@ 14
再添@@ 14
值班人员@@ 14
为性早熟@@ 14
周岁之前出现@@ 14
雌性激素@@ 14
含有激素@@ 14
。”这位医生@@ 14
张凤荣@@ 14
不靠谱@@ 14
使领馆@@ 14
化痰@@ 14
止咳@@ 14
演示文稿@@ 14
纽曼@@ 14
日数@@ 14
开水@@ 14
电视问政@@ 14
调查、@@ 14
的性爱@@ 14
蛋白酶@@ 14
储诒权@@ 14
南国@@ 14
秦刚@@ 14
春晚主持@@ 14
老年知心热线@@ 14
科考@@ 14
打违@@ 14
熊猫@@ 14
毛主席是老乡@@ 14
民阵@@ 14
网帖@@ 14
Shirley@@ 14
郭采洁@@ 14
刘柏林@@ 14
赵公山@@ 14
开房@@ 14
贾努扎伊@@ 14
萼@@ 14
夏志清@@ 14
赵云@@ 14
佛海@@ 14
纽约时报公司@@ 14
的人; 14
皖北@@ 14
初雪@@ 14
值机@@ 14
居民阶梯水价@@ 14
失事@@ 14
辽宁大学@@ 14
“雪龙”号船@@ 14
孙国豪@@ 14
江豚@@ 14
王老汉@@ 14
拐卖儿童@@ 14
李芬@@ 14
甄嬛@@ 14
打拐@@ 14
买入@@ 13
在新的一年里@@ 13
未来一年@@ 13
细微@@ 13
北南@@ 13
反目@@ 13
不希望@@ 13
珍贵@@ 13
1980年@@ 13
毕业于@@ 13
。他在@@ 13
的地方,@@ 13
和无@@ 13
轨电@@ 13
动荡@@ 13
实弹@@ 13
打响@@ 13
人员和@@ 13
17名@@ 13
,气温@@ 13
铁丝@@ 13
,在这个@@ 13
工作、@@ 13
在世界@@ 13
中国。 13
。过去@@ 13
也只有@@ 13
在这辞旧迎新之际,无数工人、农民、知识分子、干部仍然坚守在工作岗位,不少同胞依然奔波在世界各地为祖国辛勤工作,许多人民解放军和武警官兵、公安干警正在履行光荣使命@@ 13
有的远离祖国、远离亲人,有的不能同家人团聚@@ 13
代表祖国和人民,向他们致以诚挚的问候,祝他们平安顺利! 13
成绩来之不易,凝聚了大家的心血和汗水。我向大家表示衷心的感谢! 13
前进的道路上,还会遇到各种风险和挑战。让老百姓过上更加幸福的生活,还有大量工作要做@@ 13
谦虚谨慎、艰苦奋斗,共同谱写伟大祖国发展的时代新篇章。 13
在互联网公布@@ 13
500元以上2000元以下的罚款。 13
铁路安全管理@@ 13
规模、@@ 13
。《条例》@@ 13
法律、法规@@ 13
之一的@@ 13
的;@@ 13
中国居民@@ 13
责令改正@@ 13
设备、@@ 13
帝国旧@@ 13
霸亚洲@@ 13
强烈反对@@ 13
在过去@@ 13
尚无@@ 13
是日本@@ 13
之于@@ 13
回击@@ 13
新年伊@@ 13
起点上@@ 13
习近平总书记系列@@ 13
重要讲话@@ 13
,全区@@ 13
区党委@@ 13
五次@@ 13
大局@@ 13
拉·@@ 13
罗布@@ 13
重要指示@@ 13
环节,@@ 13
“一个@@ 13
共赢@@ 13
、为@@ 13
继续坚持@@ 13
落脚@@ 13
工作,确保@@ 13
管理和@@ 13
蝇@@ 13
南下@@ 13
任务,@@ 13
。2009年@@ 13
大关@@ 13
亿元和@@ 13
半壁江@@ 13
公共财政@@ 13
保持在@@ 13
、惠@@ 13
。第三@@ 13
WTA@@ 13
大部地区@@ 13
天气晴@@ 13
暖暖@@ 13
的部分地区@@ 13
局部地区@@ 13
、以@@ 13
重点,@@ 13
级法院@@ 13
改变了@@ 13
3天小长假@@ 13
汤 13
期 13
恰逢@@ 13
相连@@ 13
需要注意@@ 13
征求@@ 13
中,待@@ 13
,然后将@@ 13
守岁@@ 13
穿的@@ 13
罗马@@ 13
,距@@ 13
摄氏度的@@ 13
阵阵@@ 13
OK@@ 13
带队@@ 13
条件。 13
为了让@@ 13
将超过@@ 13
现有的@@ 13
容量@@ 13
高峰时段@@ 13
讨要说法@@ 13
弱势@@ 13
图,@@ 13
报社@@ 13
省内@@ 13
新年茶话@@ 13
国家主席@@ 13
友人@@ 13
精神的@@ 13
,我们要@@ 13
全面建成小康社会@@ 13
蝶@@ 13
导报记者@@ 13
市民政局@@ 13
在4@@ 13
左右。@@ 13
医务@@ 13
一类@@ 13
身体不适@@ 13
心中@@ 13
衍@@ 13
做事@@ 13
,不想@@ 13
2013年的最后一天,@@ 13
过去了,@@ 13
发现,在@@ 13
[国家主席习近平@@ 13
、妻子@@ 13
19日,@@ 13
新年前夕,国家主席习近平通过中国国际广播电台、中央人民广播电台、中央电视台,发表了二〇一四年新年贺词。全文如下: 13
对全面深化改革作出总体部署,共同描绘了未来发展的宏伟蓝图。2014年,我们将在改革的道路上迈出新的步伐。 13
我们推进改革的根本目的,是要让国家变得更加富强、让社会变得更加公平正义、让人民生活得更加美好。改革是需要我们共同为之奋斗的伟大事业,需要付出艰辛的努力。一分耕耘,一分收获。在改革开放的伟大实践中,我们已经创造了无数辉煌。我坚信,中国人民必将创造出新的辉煌。 13
宇宙浩瀚,星汉灿烂。70多亿人共同生活在我们这个星球上,应该守望相助、同舟共济、共同发展。中国人民追寻实现中华民族伟大复兴的中国梦,也祝愿各国人民能够实现自己的梦想。我真诚希望,世界各国人民在实现各自梦想的过程中相互理解、相互帮助,努力把我们赖以生存的地球建设成为共同的美好@@ 13
。我们在@@ 13
判明一张他踢足球的照片@@ 13
萱@@ 13
揭穿@@ 13
客串@@ 13
真人@@ 13
讽刺@@ 13
音乐人@@ 13
伙子@@ 13
连夜@@ 13
。记者了解到,@@ 13
发出的@@ 13
,但目前@@ 13
化武@@ 13
又会@@ 13
集体自卫权@@ 13
报、@@ 13
在哪里@@ 13
的2014年@@ 13
一流@@ 13
美誉@@ 13
师范大学@@ 13
英格兰@@ 13
私自@@ 13
胡志强@@ 13
精简@@ 13
至12月@@ 13
精准@@ 13
。(海峡都市报记者@@ 13
从2013年@@ 13
生一世@@ 13
综合体@@ 13
管理办法》@@ 13
显著位置@@ 13
政要@@ 13
来“@@ 13
这笔钱@@ 13
当地医院@@ 13
如何看待@@ 13
5.2@@ 13
中非@@ 13
剩余@@ 13
还发现@@ 13
对《环球时报》记者@@ 13
中国人的@@ 13
中心专家@@ 13
No@@ 13
517@@ 13
服贸协议@@ 13
台山@@ 13
服装店@@ 13
刑拘。 13
编剧@@ 13
让大家@@ 13
张艺谋本人@@ 13
“超生@@ 13
的收入@@ 13
,并非@@ 13
成员国@@ 13
等老@@ 13
就任@@ 13
中华民国@@ 13
在国外@@ 13
推举@@ 13
官僚@@ 13
每一@@ 13
(F@@ 13
低迷@@ 13
货币政策委员会@@ 13
货币信贷及社会融资规模@@ 13
第三季度@@ 13
经济学家@@ 13
负面影响@@ 13
涉事@@ 13
使用权@@ 13
竣工验收@@ 13
规划和@@ 13
城市化@@ 13
百城@@ 13
趋平稳@@ 13
19个月@@ 13
均价为@@ 13
昌、@@ 13
商品房@@ 13
,在2014年@@ 13
明显,@@ 13
紧张,@@ 13
主题曲@@ 13
,引发@@ 13
崭新@@ 13
4岁@@ 13
怀抱@@ 13
闻讯@@ 13
悲痛@@ 13
在地上,@@ 13
个城市@@ 13
企划@@ 13
家。@@ 13
)“@@ 13
空前@@ 13
万,@@ 13
筹资@@ 13
的限制@@ 13
楼道@@ 13
”的说法@@ 13
谈论@@ 13
鹿邑@@ 13
侦查,@@ 13
ATM@@ 13
只有在@@ 13
调查 13
偏低@@ 13
剖析@@ 13
年12月@@ 13
残忍@@ 13
中,“@@ 13
。2013年,@@ 13
倍 13
高尔夫@@ 13
领导层@@ 13
的行动@@ 13
东北亚@@ 13
与稳定@@ 13
美化@@ 13
复活@@ 13
一则@@ 13
绿城广场站@@ 13
偶遇市委书记@@ 13
安排的@@ 13
就此事@@ 13
走走@@ 13
党外人士@@ 13
,我和@@ 13
是什么? 13
盯着@@ 13
行、@@ 13
2020年,@@ 13
落实到@@ 13
到期@@ 13
至2011年@@ 13
公诉@@ 13
,大学@@ 13
合同诈骗罪@@ 13
法律规定,@@ 13
事件。@@ 13
朋友圈@@ 13
这才@@ 13
是‘@@ 13
不会再@@ 13
五保供养@@ 13
努尔·白克力@@ 13
暴恐犯罪@@ 13
类、@@ 13
占年度@@ 13
新型城镇化@@ 13
新农村@@ 13
近两年@@ 13
至今已@@ 13
亩产@@ 13
告诉记者,他们@@ 13
内生@@ 13
解放和增强社会@@ 13
初级@@ 13
蹴而就@@ 13
境界@@ 13
青山@@ 13
点:@@ 13
,各地@@ 13
兰州@@ 13
焦点。@@ 13
劝他@@ 13
了?”@@ 13
死角,@@ 13
网上,@@ 13
申领@@ 13
服务管理@@ 13
湛江@@ 13
供货@@ 13
架,@@ 13
海拔@@ 13
,以前@@ 13
吞吐量@@ 13
祈祷@@ 13
活动中,@@ 13
仪式。 13
迈出了@@ 13
级以上@@ 13
15%@@ 13
“爱@@ 13
减少了@@ 13
起。 13
印度尼西亚@@ 13
受伤。 13
中共中央办公厅、国务院办公厅@@ 13
交通工具@@ 13
公共场所禁烟@@ 13
哈尔滨@@ 13
升级版@@ 13
已难以@@ 13
低端@@ 13
勉强@@ 13
支撑。 13
亟待@@ 13
,这是一个@@ 13
型经济@@ 13
。鱼@@ 13
市场在资源配置中起@@ 13
科教@@ 13
制 13
突破口@@ 13
应通过@@ 13
的信号@@ 13
报酬@@ 13
增长的@@ 13
劳动力@@ 13
制度改革的@@ 13
洗车@@ 13
晒太阳@@ 13
迎接新的一年@@ 13
元旦 13
万绿园@@ 13
游人@@ 13
大块@@ 13
篮@@ 13
引发的@@ 13
和政府@@ 13
,将会@@ 13
传感@@ 13
系 13
原谅@@ 13
程凡@@ 13
26岁的@@ 13
奇迹@@ 13
程的@@ 13
燕) 13
的乘客@@ 13
三省@@ 13
笔记本@@ 13
媒体上@@ 13
坊间@@ 13
势必@@ 13
国际马拉松赛@@ 13
药品生产质量管理规范(@@ 13
或生产@@ 13
销售。@@ 13
提高,@@ 13
总数的@@ 13
联系。 13
兼并@@ 13
产业的@@ 13
做出的@@ 13
凡是@@ 13
多年,@@ 13
落后@@ 13
涉嫌挪用公款1000@@ 13
,现年@@ 13
卫生局医政科@@ 13
负责人。 13
资料和@@ 13
取保候@@ 13
玮@@ 13
国际金融中心@@ 13
睛@@ 13
经济和@@ 13
放大@@ 13
慈善基金会@@ 13
POS@@ 13
收到了@@ 13
13日,@@ 13
难得的@@ 13
”却@@ 13
的市@@ 13
(化名@@ 13
泣@@ 13
据了解,目前@@ 13
(右@@ 13
细腻@@ 13
工笔@@ 13
出自@@ 13
全民健身@@ 13
化和@@ 13
庇@@ 13
勒克@@ 13
江·@@ 13
的报告@@ 13
瓦尔@@ 13
斯基@@ 13
扩展@@ 13
,近@@ 13
使馆@@ 13
以涉嫌@@ 13
问及@@ 13
态势。 13
打破了@@ 13
美联储@@ 13
有影响@@ 13
牛肉@@ 13
0.9@@ 13
代售@@ 13
售出@@ 13
万张@@ 13
业态@@ 13
消费者的@@ 13
不通@@ 13
反弹@@ 13
做准备@@ 13
在最后@@ 13
,至少@@ 13
3分钟@@ 13
内容的@@ 13
氨基酸@@ 13
柜台@@ 13
由衷@@ 13
的成功@@ 13
不受@@ 13
学员@@ 13
的人生@@ 13
事。 13
帮助。 13
,有力@@ 13
莎车@@ 13
拨付@@ 13
农作物@@ 13
不完善@@ 13
的土地@@ 13
增产@@ 13
非凡@@ 13
等形式@@ 13
自付@@ 13
军官@@ 13
残障@@ 13
(J@@ 13
25年@@ 13
约翰内斯堡@@ 13
火把@@ 13
智利@@ 13
墓地@@ 13
相 13
影视剧@@ 13
联合会@@ 13
的一大@@ 13
之便@@ 13
玩笑@@ 13
宇宙@@ 13
之情@@ 13
甲亢@@ 13
、腰@@ 13
热身@@ 13
的动作@@ 13
等。“@@ 13
表示,从@@ 13
,如此@@ 13
倦@@ 13
动脉硬@@ 13
醒来@@ 13
彻夜@@ 13
更重要@@ 13
手续。 13
出入@@ 13
糟@@ 13
专业的@@ 13
朝鲜中央电视台@@ 13
关系的环境@@ 13
据韩联社@@ 13
灾难@@ 13
各级各部门@@ 13
2 13
示范区@@ 13
4 13
新风@@ 13
了一批@@ 13
朋友,@@ 13
也就是说,@@ 13
改革措施@@ 13
瑞典@@ 13
4.0@@ 13
活动中@@ 13
聪明的@@ 13
思议@@ 13
规划建设@@ 13
2.4@@ 13
悍@@ 13
C级@@ 13
于今年@@ 13
将于2014年1月@@ 13
TL@@ 13
御@@ 13
还将在@@ 13
梅赛德斯@@ 13
In@@ 13
兰博基尼@@ 13
Huracan@@ 13
敞篷版@@ 13
-4@@ 13
涂装@@ 13
栅@@ 13
ess@@ 13
台 13
ome@@ 13
机身@@ 13
。苹果@@ 13
刃@@ 13
舟@@ 13
半山@@ 13
教你@@ 13
十二届全国人大常委会@@ 13
踏上@@ 13
见 13
旅游业@@ 13
周年 13
外籍@@ 13
、北@@ 13
人工刷卡@@ 13
换新@@ 13
不一致@@ 13
黄海@@ 13
去年12月26日@@ 13
一面@@ 13
等情况,@@ 13
焰@@ 13
猴岛@@ 13
陵水@@ 13
上海的@@ 13
漂@@ 13
KI@@ 13
在上@@ 13
演出,@@ 13
座驾@@ 13
每位@@ 13
新秀@@ 13
梅妈@@ 13
韩国某@@ 13
爆料,@@ 13
秘密交往了四个月@@ 13
前将@@ 13
梦想星@@ 13
,两位@@ 13
门”@@ 13
旧照@@ 13
叹息@@ 13
更像@@ 13
小沈阳@@ 13
刘嘉玲@@ 13
,但她@@ 13
大戏@@ 13
天龙八部@@ 13
击败@@ 13
开门红@@ 13
卫冕@@ 13
实话@@ 13
愉快@@ 13
来讲,@@ 13
初次@@ 13
大满贯@@ 13
辰@@ 13
网上流传@@ 13
柿子@@ 13
农业大学@@ 13
缺铁性贫血@@ 13
国旗@@ 13
热点新闻@@ 13
龚@@ 13
全裸@@ 13
中签率@@ 13
纲领@@ 13
提到“@@ 13
全会决定@@ 13
单独二孩”新政将全面启动@@ 13
圣诞老爸@@ 13
感动,@@ 13
《新闻@@ 13
领导职务@@ 13
的10大@@ 13
饮品@@ 13
有害物质@@ 13
靠谱@@ 13
,以下@@ 13
kimi@@ 13
收官@@ 13
人选@@ 13
大叔@@ 13
月亮@@ 13
→@@ 13
从根本上@@ 13
皱@@ 13
就去@@ 13
老先生@@ 13
洗脚@@ 13
沛@@ 13
,并不@@ 13
泌尿@@ 13
无形@@ 13
存在于@@ 13
,出现@@ 13
人体的@@ 13
医学院@@ 13
形状@@ 13
痘痘@@ 13
血液中@@ 13
2万元@@ 13
党风廉政建设和反腐败@@ 13
的“三@@ 13
省委书记@@ 13
傅@@ 13
、重@@ 13
哲@@ 13
约占@@ 13
某个@@ 13
1人@@ 13
绝大部分@@ 13
早点@@ 13
:如果@@ 13
食疗@@ 13
女性的@@ 13
,分别是@@ 13
方,@@ 13
眼神@@ 13
善良@@ 13
岁女子@@ 13
围的@@ 13
时也@@ 13
曲线@@ 13
、铁@@ 13
李准基@@ 13
那么多@@ 13
的脸@@ 13
的不满@@ 13
法则@@ 13
少用@@ 13
七大@@ 13
科医生@@ 13
一到@@ 13
看的@@ 13
的韩@@ 13
PM@@ 13
还傻@@ 13
让皮肤@@ 13
,告诉你@@ 13
,亦@@ 13
精细@@ 13
其次,@@ 13
组图:@@ 13
激情戏@@ 13
20条@@ 13
12个月@@ 13
价值的@@ 13
苯@@ 13
等,这些@@ 13
来源于@@ 13
菜场@@ 13
疙瘩@@ 13
空腹@@ 13
相当一部分@@ 13
几率@@ 13
奥特曼@@ 13
瓣@@ 13
散装油@@ 13
中小型@@ 13
粮油@@ 13
版) 13
篇报道@@ 13
他就@@ 13
,几@@ 13
哗然@@ 13
说,这是@@ 13
百岁@@ 13
优越@@ 13
自信、@@ 13
问题是@@ 13
现阶段@@ 13
,并不是@@ 13
之中。@@ 13
吃,@@ 13
。很快@@ 13
不注意@@ 13
靡@@ 13
、阿@@ 13
车和@@ 13
赠与@@ 13
向市@@ 13
欺骗@@ 13
某在@@ 13
了出来@@ 13
南面@@ 13
房间里@@ 13
Pro@@ 13
Air@@ 13
大屏幕@@ 13
的iPhone@@ 13
苹果下一代iPhone@@ 13
iWatch@@ 13
最重要@@ 13
Th@@ 13
。大家@@ 13
节日,@@ 13
备受关注@@ 13
AT@@ 13
仍然处于@@ 13
人工昏迷@@ 13
事故发生@@ 13
国 13
最讨厌@@ 13
2018年@@ 13
是真@@ 13
的计划@@ 13
还算@@ 13
所幸@@ 13
戏剧@@ 13
必须要@@ 13
oh@@ 13
爸爸去哪儿》的@@ 13
在亚洲@@ 13
20%的@@ 13
公寓@@ 13
堪比@@ 13
新生代@@ 13
晟@@ 13
墨西哥@@ 13
oo@@ 13
过年,@@ 13
西伯利亚@@ 13
潜入@@ 13
就是一个@@ 13
5年的@@ 13
于2014年@@ 13
出现。 13
求是@@ 13
钱荒@@ 13
顾虑@@ 13
隶@@ 13
内陆@@ 13
每吨@@ 13
已经基本@@ 13
佛山、@@ 13
兴叹@@ 13
要经过@@ 13
人力资源社会保障@@ 13
住房、@@ 13
审批手续吓@@ 13
公章@@ 13
管理员@@ 13
期为@@ 13
北京市公安局@@ 13
车流量@@ 13
傲人@@ 13
常德市@@ 13
站长@@ 13
中年男子@@ 13
缓过@@ 13
前。 13
继承了@@ 13
格局。 13
将推进@@ 13
”政策@@ 13
不动产统一登记@@ 13
提出,要@@ 13
约1亿@@ 13
和解决@@ 13
改观@@ 13
标本@@ 13
,中国军队@@ 13
16名@@ 13
问题上的@@ 13
伤。@@ 13
那样的@@ 13
实际行动@@ 13
银行、@@ 13
立法机构@@ 13
歧@@ 13
白宫@@ 13
的主角@@ 13
,他也@@ 13
eB@@ 13
香港特别行政区@@ 13
表示,对香港个别人到驻港部队营区门外进行滋扰,并擅自闯入中环军营的行为,中央政府严重关注。@@ 13
个别人@@ 13
数名香港市民未经解放军驻港部队批准,并不顾军营营门哨兵的警告,强行闯入中环军营进行滋扰。 13
单独两孩政策@@ 13
释放。 13
民航@@ 13
01月0@@ 13
始,@@ 13
非常重要@@ 13
线上@@ 13
每一位@@ 13
107@@ 13
工 13
,依法@@ 13
绕行@@ 13
欢乐节@@ 13
管好@@ 13
平凡@@ 13
澄迈@@ 13
服刑@@ 13
月饼@@ 13
您的@@ 13
825@@ 13
班车@@ 13
人民网海南视窗海口@@ 13
后,就@@ 13
半个月@@ 13
同情@@ 13
自驾@@ 13
2号@@ 13
,保障@@ 13
、消防@@ 13
要加强@@ 13
都快@@ 13
,他们在@@ 13
屡次@@ 13
于2012年@@ 13
病。@@ 13
侍@@ 13
迈入@@ 13
解决好@@ 13
对第三方抢票插件进行屏蔽后,@@ 13
铁路12306网站@@ 13
又出新动作,将@@ 13
抢票软件@@ 13
验证码的初衷@@ 13
组长、@@ 13
降雨@@ 13
最小@@ 13
早晨,@@ 13
送出@@ 13
成交量@@ 13
斯·@@ 13
进一步深化@@ 13
,并希望@@ 13
丹、@@ 13
在去年@@ 13
驿@@ 13
李光芬@@ 13
的五@@ 13
就近@@ 13
大多是@@ 13
啊。”@@ 13
态度,@@ 13
,消防@@ 13
,但就是@@ 13
至8月@@ 13
,将其@@ 13
死死@@ 13
侧面@@ 13
法国、@@ 13
记者昨日从@@ 13
(农历@@ 13
眉山@@ 13
09@@ 13
墙体@@ 13
亲爱的@@ 13
铁路运输和邮政业@@ 13
、领土@@ 13
娶到了你;我会一辈子小心地小心待@@ 13
”,然后@@ 13
雄踞@@ 13
出卖@@ 13
平台。@@ 13
风”@@ 13
风、@@ 13
端倪@@ 13
女的@@ 13
陈奕君@@ 13
的大气@@ 13
断子绝孙@@ 13
合资@@ 13
。研究@@ 13
那就是@@ 13
由 13
蛋白质的@@ 13
历届@@ 13
啊!”@@ 13
受贿罪@@ 13
酒后@@ 13
气象部门@@ 13
奥巴马政府@@ 13
不减@@ 13
案情@@ 13
的一半@@ 13
ect@@ 13
杨钰莹@@ 13
婕@@ 13
本色@@ 13
一女@@ 13
坟@@ 13
参试@@ 13
首次组织了作战系统综合研试,首次组织了以辽宁舰为核心的编队航行训练,达到了预期目的。海军相关部队出动@@ 13
型号的飞机、水面舰艇和潜艇,有效配合了试验,同时带动了部队实战化训练。 13
足浴@@ 13
生姜@@ 13
维生素A@@ 13
共和国@@ 13
。正是@@ 13
后“@@ 13
盎@@ 13
200元@@ 13
,“虽然@@ 13
保值@@ 13
立马@@ 13
专卖@@ 13
打来电话@@ 13
帮主@@ 13
电视节目@@ 13
后期@@ 13
小男孩@@ 13
字母@@ 13
一年多@@ 13
16个@@ 13
化身@@ 13
靴@@ 13
,很多网友@@ 13
都不知道@@ 13
认不@@ 13
女孩子@@ 13
那天,@@ 13
小时候@@ 13
还记得@@ 13
回到家@@ 13
申报材料@@ 13
故事。 13
卜@@ 13
录 13
工作人员说,@@ 13
警方抓获@@ 13
斯曼@@ 13
高大上@@ 13
片中@@ 13
三名@@ 13
一些,@@ 13
PM2.5的@@ 13
临潼@@ 13
。为此,@@ 13
晓旭@@ 13
空军基地@@ 13
经国@@ 13
导航@@ 13
案件的@@ 13
台当局@@ 13
代驾@@ 13
环保部@@ 13
十大新闻@@ 13
正式发布@@ 13
反之@@ 13
膨胀@@ 13
毛病@@ 13
吸烟行为@@ 13
12306升级@@ 13
块钱,@@ 13
近代@@ 13
了一张@@ 13
战斗才刚开始@@ 13
布鲁克@@ 13
索尼@@ 13
骚扰@@ 13
滑雪者@@ 13
中超@@ 13
救人@@ 13
训练、@@ 13
愈合@@ 13
漱口@@ 13
明,@@ 13
那边@@ 13
欧阳@@ 13
劳务@@ 13
的制度@@ 13
党组成员@@ 13
跑道@@ 13
规模以上@@ 13
芜湖长江公铁大桥@@ 13
城际@@ 13
该局@@ 13
,一手@@ 13
的一天,@@ 13
退还@@ 13
法院审理认为,@@ 13
9点,@@ 13
事态@@ 13
[京华时报讯(记者@@ 13
菜价@@ 13
2.7@@ 13
券商@@ 13
批量@@ 13
相关人士@@ 13
颤@@ 13
申请指标@@ 13
小客车合乘@@ 13
里程@@ 13
罚款。 13
编号@@ 13
扰乱@@ 13
宫廷@@ 13
2013年6月@@ 13
剖腹产@@ 13
园长@@ 13
传单@@ 13
接听@@ 13
期间,作为市换届工作领导小组@@ 13
,不正确履行职责,对衡阳市人大选举湖南省人大代表@@ 13
贿选问题,没有及时采取有效措施@@ 13
,导致发生严重的以贿赂手段破坏选举的违纪违法案件@@ 13
和社会影响@@ 13
严重违纪@@ 13
腐败,@@ 13
奴@@ 13
彼@@ 13
出水@@ 13
预告@@ 13
要求班主任@@ 13
“犯事@@ 13
固然@@ 13
身后@@ 13
关系到@@ 13
之美@@ 13
,不论@@ 13
风尚@@ 13
升空@@ 13
在2012年@@ 13
与男友@@ 13
婚 13
、食品@@ 13
7时@@ 13
说,现在@@ 13
群体的@@ 13
这几天@@ 13
面”@@ 13
扳@@ 13
高血压患者@@ 13
钩摹@@ 13
叨@@ 13
的使用@@ 13
骆@@ 13
运营商@@ 13
,在2013年@@ 13
了一番@@ 13
同比增加@@ 13
上行@@ 13
细数@@ 13
:《@@ 13
均匀@@ 13
捺@@ 13
习近平同志在@@ 13
元旦当天,@@ 13
连锁KTV@@ 13
麦霸@@ 13
搞笑的@@ 13
情歌@@ 13
瓜果@@ 13
觉得,@@ 13
甲午年,@@ 13
双休日@@ 13
,最低@@ 13
中央党校@@ 13
劳教制度@@ 13
提拔@@ 13
李崇禧涉嫌严重违纪@@ 13
北京市司法行政系统@@ 13
社会管理综合治理@@ 13
强化对@@ 13
边境@@ 13
罗杰@@ 13
司法部门@@ 13
统治@@ 13
沼@@ 13
美英@@ 13
格林@@ 13
贺辞@@ 13
榜首。@@ 13
片段@@ 13
辫@@ 13
炖@@ 13
高高@@ 13
行贿@@ 13
了12@@ 13
伟) 13
多款@@ 13
勃勃@@ 13
陡@@ 13
长官@@ 13
就超过@@ 13
功夫影星吴京@@ 13
与女主持人谢楠的@@ 13
你这@@ 13
”系列@@ 13
成都商@@ 13
小将@@ 13
扫毒@@ 13
对方,@@ 13
“呵呵”这个词,作为网络和短信聊天中使用相当频繁的一个词,你一定没少用过@@ 13
小钱@@ 13
票。 13
不错。@@ 13
不露@@ 13
。据说@@ 13
《新@@ 13
、深圳@@ 13
赵某@@ 13
第37@@ 13
X5@@ 13
SBS@@ 13
来自星星的你》@@ 13
离异@@ 13
是“小@@ 13
爱奇艺@@ 13
受众@@ 13
治疗费愁坏@@ 13
怪病@@ 13
食的@@ 13
的一间@@ 13
桌,@@ 13
家人也@@ 13
钱在@@ 13
那个女孩子@@ 13
每个月要@@ 13
觉得自己@@ 13
布拉格@@ 13
关塔那摩监狱@@ 13
关塔那摩@@ 13
运20首飞@@ 13
艘052D型驱逐舰@@ 13
那次@@ 13
男女生@@ 13
的身份@@ 13
裁定@@ 13
《明镜》周刊@@ 13
售价为@@ 13
小峰@@ 13
领导干部要带头@@ 13
毛群安说,@@ 13
公共场所禁止吸烟立法@@ 13
陈毅@@ 13
的气氛@@ 13
走下@@ 13
高喊@@ 13
能看到@@ 13
商品住宅@@ 13
的视频@@ 13
合金@@ 13
照相@@ 13
法院审理@@ 13
尤权@@ 13
吸取教训@@ 13
北风@@ 13
B6@@ 13
伊核@@ 13
10枚@@ 13
风速@@ 13
月份@@ 13
橡胶@@ 13
菜篮子”@@ 13
家居@@ 13
决定的@@ 13
内贸@@ 13
的; 13
翔安校区@@ 13
前置@@ 13
刑侦@@ 13
最高温@@ 13
的节奏@@ 13
郭敬@@ 13
Sammi@@ 13
手上@@ 13
胡润@@ 13
柳岩@@ 13
辨识@@ 13
纯粹@@ 13
的音乐@@ 13
东森@@ 13
恩爱@@ 13
外人@@ 13
阿帕@@ 13
红豆@@ 13
机制的@@ 13
缺席@@ 13
急救人员@@ 13
山药@@ 13
铃薯@@ 13
,这时@@ 13
气味@@ 13
文广@@ 13
李云@@ 13
拿着手机@@ 13
就给他们@@ 13
道门,@@ 13
吟@@ 13
伤、@@ 13
武平县@@ 13
新田@@ 13
少女时代@@ 13
贝克@@ 13
集体林权制度改革@@ 13
大象@@ 13
毛里求斯@@ 13
客 13
预审@@ 13
等其他@@ 13
智能手表@@ 13
枫@@ 13
宜居环境建设行动@@ 13
安静@@ 13
og@@ 13
(D@@ 13
闹’@@ 13
关在@@ 13
堂哥@@ 13
小玲@@ 13
连城@@ 13
我们一起@@ 13
强力@@ 13
即可。 13
皮革@@ 13
的预期@@ 13
居民生活@@ 13
约翰·@@ 13
转悠@@ 13
牌子@@ 13
第一大村@@ 13
快艇@@ 13
收网@@ 13
[广东省公安厅@@ 13
耳显微@@ 13
费绪@@ 13
的人工@@ 13
运转@@ 13
曾黄麟@@ 13
大气物理@@ 13
汶@@ 13
、18@@ 13
复习@@ 13
联邦调查局@@ 13
www.@@ 13
完全可以@@ 13
∶@@ 13
小S@@ 13
节礼@@ 13
襄阳市@@ 13
航天局@@ 13
冰车”@@ 13
结婚时@@ 13
忙,@@ 13
脱光@@ 13
王秀青@@ 13
毕业后,@@ 13
衡阳市人大常委会主任@@ 13
珍宝@@ 13
装载@@ 13
太阳系@@ 13
功率@@ 13
洋) 13
ier@@ 13
X7@@ 13
性价@@ 13
Lumia6@@ 13
车停在@@ 13
巡航的中国海警@@ 13
喜讯@@ 13
赵本@@ 13
教友@@ 13
大电影@@ 13
巴啦啦@@ 13
星爸@@ 13
积雪@@ 13
浅田真央@@ 13
含金量@@ 13
仍以@@ 13
班主任@@ 13
中消协@@ 13
前段时间,@@ 13
,一直在@@ 13
退耕@@ 13
诞辰@@ 13
停留在@@ 13
比你@@ 13
年均浓度@@ 13
素、@@ 13
乳头@@ 13
赌神@@ 13
港独”@@ 13
黑寡妇@@ 13
平均水平@@ 13
棋牌室@@ 13
色情@@ 13
江北@@ 13
小产权房@@ 13
食品药品安全@@ 13
中共四川省委@@ 13
海泉@@ 13
肃政厅@@ 13
度,[最高气温@@ 13
[秀英炮台@@ 13
降雨量@@ 13
沉船@@ 13
水下考古@@ 13
黎吉龙@@ 13
漯河@@ 13
株洲@@ 13
oger@@ 13
婚车@@ 13
裸照@@ 13
李银桥@@ 13
里克@@ 13
秦汉@@ 13
“黑寡妇@@ 13
某、@@ 13
或者服务@@ 13
消费者协会@@ 13
渡船@@ 13
伊兰特@@ 13
郝劭文@@ 13
张咪@@ 13
学位论文@@ 13
驻美@@ 13
水价@@ 13
上头条”事件@@ 13
这些事情联系到一起@@ 13
偏轻@@ 13
南掸邦军@@ 13
掸邦军@@ 13
青霞@@ 13
雌雄大盗@@ 13
盾构机@@ 13
菲斯科@@ 13
阿娇@@ 13
甲地区@@ 13
阿尔山@@ 13
讯据@@ 12
壤@@ 12
朝鲜最高领导人金正恩1日@@ 12
新年问候@@ 12
武器装备@@ 12
力量。 12
妨害@@ 12
阴谋@@ 12
表示,今年@@ 12
咎@@ 12
国立@@ 12
员。 12
途经@@ 12
失所@@ 12
亲情@@ 12
安心@@ 12
工作中@@ 12
逃避@@ 12
火的@@ 12
硝@@ 12
辛勤@@ 12
幸福。 12
字的@@ 12
责任的@@ 12
绘就@@ 12
大地@@ 12
奋斗目标@@ 12
政府、@@ 12
出一份@@ 12
惧@@ 12
我们要@@ 12
谢谢大家。 12
动车组列车上吸烟或者在其他列车的禁烟区域吸烟@@ 12
有效身份证件@@ 12
杂物@@ 12
生产企业@@ 12
实施办法》@@ 12
规范化、@@ 12
内涝@@ 12
会商@@ 12
冲洗@@ 12
染疫畜禽@@ 12
死因@@ 12
共和@@ 12
管理条例》@@ 12
的必然@@ 12
顽固@@ 12
大屠杀@@ 12
否定@@ 12
殖民@@ 12
洛桑@@ 12
人民解放军@@ 12
敬意@@ 12
扎实推进@@ 12
明了@@ 12
深化改革的@@ 12
角,@@ 12
来,在@@ 12
藏”的@@ 12
之年,@@ 12
跨越式发展和长治久安@@ 12
山水@@ 12
电视电话@@ 12
认真学习@@ 12
深化改革@@ 12
农牧区@@ 12
迫切@@ 12
绷@@ 12
面子@@ 12
密切联系@@ 12
化。@@ 12
厉行节约反对浪费@@ 12
勤俭@@ 12
反腐败@@ 12
院长、@@ 12
增长。 12
增加值@@ 12
同时也@@ 12
至今,@@ 12
网球公开赛@@ 12
单打@@ 12
晋级@@ 12
伴有@@ 12
今晨@@ 12
在东@@ 12
级、@@ 12
旅游、@@ 12
社科院@@ 12
计划。 12
元旦节@@ 12
爸爸妈妈@@ 12
折腾@@ 12
太高@@ 12
小李@@ 12
被扣@@ 12
清明@@ 12
的形状@@ 12
各种小@@ 12
讨个@@ 12
彩,@@ 12
迎新年 12
十字@@ 12
降水@@ 12
动。 12
经济技术开发区@@ 12
任务的@@ 12
益于@@ 12
骑车@@ 12
沿途@@ 12
崎@@ 12
江、@@ 12
总书记、@@ 12
锐意@@ 12
拥护@@ 12
国防和军队@@ 12
局面,@@ 12
人民政协@@ 12
政协委员@@ 12
社会福利@@ 12
介绍,“@@ 12
有两@@ 12
二类@@ 12
的6@@ 12
十一届@@ 12
治贪@@ 12
和小@@ 12
给记者@@ 12
工作人员介绍,@@ 12
隔空@@ 12
说声@@ 12
仍有待观察。 12
楼梯拐角@@ 12
这种现象@@ 12
我们即将迎来充满希望的2014年。一元复始,万象更新。在这里,我向全国各族人民,向香港特别行政区同胞和澳门特别行政区同胞,向台湾同胞和海外侨胞,向世界各国和各地区的朋友们,致以新年的祝福!祝福老人们健康!祝福孩子们快乐!祝福每个家庭幸福安康! 12
镜头可以看到,习近平办公室背景是一幅长城画作,办公桌上有三部电话(二红一白),身后书架上摆放了四幅照片,分别是:他与家人推着轮椅上的父亲、他牵母亲的手散步、他与夫人合影、他骑着自行车载着女儿@@ 12
看完@@ 12
奶爸@@ 12
方方面@@ 12
实用@@ 12
红了@@ 12
眶@@ 12
限额@@ 12
碟@@ 12
公然@@ 12
发展规划@@ 12
组织机构代码@@ 12
据英国@@ 12
相较@@ 12
浊@@ 12
被问到@@ 12
倒计时@@ 12
绽@@ 12
已久的@@ 12
人流@@ 12
车流@@ 12
旧房@@ 12
屿@@ 12
轮廓@@ 12
常务会议@@ 12
世界各国@@ 12
提振@@ 12
老龄化@@ 12
她还@@ 12
勇气@@ 12
经济,@@ 12
处方@@ 12
拥有一@@ 12
文书@@ 12
心目@@ 12
被认为@@ 12
被问及@@ 12
划设@@ 12
指数:★★★★@@ 12
指引@@ 12
件 12
和教育@@ 12
省(区、市)@@ 12
新疆生产建设兵团@@ 12
据台湾“中央社”报道,@@ 12
深切@@ 12
拖延@@ 12
能尽快@@ 12
号 12
居住环境@@ 12
千元@@ 12
换了@@ 12
没想到,@@ 12
小心翼翼@@ 12
沸沸扬扬@@ 12
数度@@ 12
的这个@@ 12
剧中饰演@@ 12
人民网资料) 12
法》,@@ 12
苛@@ 12
封建@@ 12
语,@@ 12
宽容@@ 12
里。@@ 12
屑@@ 12
敬业@@ 12
完后,@@ 12
诚意@@ 12
抢占@@ 12
实施稳健的货币政策,@@ 12
第四季度@@ 12
税款@@ 12
糊涂@@ 12
平方米,环比@@ 12
基本持平@@ 12
自2012年6月以来连续@@ 12
的城市个数@@ 12
房价上涨@@ 12
热点二线城市@@ 12
供不应求@@ 12
甜甜@@ 12
健康,@@ 12
结束后@@ 12
帮他@@ 12
小区,@@ 12
往回@@ 12
并不在@@ 12
的事。 12
攒私房钱@@ 12
女人,@@ 12
之急@@ 12
低、@@ 12
标杆@@ 12
差价@@ 12
筹集@@ 12
和台湾@@ 12
壮观@@ 12
副县长@@ 12
婿@@ 12
镇上@@ 12
他“@@ 12
清远市@@ 12
清城区政府@@ 12
清城区区委委员、区环保局党组书记、局长@@ 12
陈柏和的@@ 12
成立专@@ 12
的言论@@ 12
开除党籍@@ 12
血迹@@ 12
出租房@@ 12
”报道,@@ 12
座谈会@@ 12
董事长、@@ 12
都应该@@ 12
博特@@ 12
在我们@@ 12
邻国的@@ 12
悍然@@ 12
民调显示,@@ 12
的主要原因@@ 12
郑州市委书记吴天君在@@ 12
郑州电视台记者@@ 12
排水管@@ 12
太久@@ 12
顺便@@ 12
徐谨:@@ 12
谢绝@@ 12
吧。@@ 12
开会,@@ 12
巡逻车@@ 12
浓厚@@ 12
定位,@@ 12
罪名成立@@ 12
林意@@ 12
郑利、罗伯特@@ 12
折合@@ 12
掩盖@@ 12
等人的@@ 12
有限公司董事长@@ 12
涉案金额@@ 12
式 12
据俄罗斯@@ 12
副总理@@ 12
玩游戏@@ 12
眼看@@ 12
加深@@ 12
小、@@ 12
就会出现@@ 12
这种说法@@ 12
新时期@@ 12
的同时,也@@ 12
时期,@@ 12
寄予@@ 12
未来发展@@ 12
能实现@@ 12
新疆维吾尔自治区@@ 12
百分点@@ 12
大步@@ 12
紧密团结在@@ 12
处长@@ 12
全国第一@@ 12
升级改造@@ 12
2012@@ 12
马克@@ 12
平和@@ 12
推进国家治理体系和治理能力现代化@@ 12
藩篱@@ 12
劲儿,拿出@@ 12
公元@@ 12
身作则@@ 12
面前吸烟,@@ 12
公共场所控烟@@ 12
包烟@@ 12
介绍,这@@ 12
滨海@@ 12
累积@@ 12
迄今@@ 12
鲜艳@@ 12
的核心@@ 12
技术,@@ 12
悬崖@@ 12
时分,@@ 12
的航班@@ 12
沈阳、大连@@ 12
天池@@ 12
航道@@ 12
明清@@ 12
五家渠@@ 12
副产品@@ 12
击毙@@ 12
ut@@ 12
炸弹攻击@@ 12
末,@@ 12
烟民@@ 12
内容包括@@ 12
电视剧中@@ 12
纲要@@ 12
鞍@@ 12
规定。 12
版”@@ 12
衡量@@ 12
在我国@@ 12
因素。 12
攀升@@ 12
的数@@ 12
也是一个@@ 12
还存在@@ 12
重 12
后返@@ 12
过程中的@@ 12
社会主义市场@@ 12
紧迫@@ 12
政府与@@ 12
应有@@ 12
更多地@@ 12
基础。@@ 12
条件。@@ 12
混合所有制@@ 12
改革“@@ 12
底部@@ 12
农贸市场@@ 12
就出@@ 12
蹬@@ 12
根本无法@@ 12
开年@@ 12
屡禁@@ 12
追溯@@ 12
源性@@ 12
薄弱@@ 12
宣传教育@@ 12
分割@@ 12
生。@@ 12
是他们@@ 12
亲朋@@ 12
活 12
条微博@@ 12
从不@@ 12
新版《@@ 12
和上海@@ 12
在高@@ 12
日夜@@ 12
车库@@ 12
怪癖@@ 12
别人的@@ 12
图文@@ 12
双钩廓填@@ 12
双钩@@ 12
也与@@ 12
注射剂@@ 12
集中度@@ 12
的最后@@ 12
提升了@@ 12
检查。 12
员的@@ 12
通过了@@ 12
县(市、区)@@ 12
进行全面@@ 12
均在@@ 12
由原来的@@ 12
资质@@ 12
农村工作会议@@ 12
农家@@ 12
汉中市红十字会办公室副主任@@ 12
汉中市红十字会办公室@@ 12
对张某@@ 12
填写了@@ 12
转回@@ 12
于9月@@ 12
休克@@ 12
处理工作@@ 12
商品交易@@ 12
服务平台@@ 12
绑定@@ 12
介绍,在@@ 12
打消@@ 12
流水@@ 12
落网@@ 12
想到了@@ 12
准时@@ 12
班的@@ 12
只有一天假期@@ 12
意义上@@ 12
医科大学@@ 12
坠落@@ 12
的地方。@@ 12
给予了@@ 12
文化、@@ 12
的活@@ 12
空缺@@ 12
对象。 12
斯卡@@ 12
因病@@ 12
迪斯@@ 12
气候变化@@ 12
井下@@ 12
接受治疗@@ 12
时间、@@ 12
调查后,@@ 12
降临@@ 12
反映了@@ 12
都是在@@ 12
静静@@ 12
的过程中@@ 12
起跑@@ 12
服、@@ 12
各有@@ 12
较好的@@ 12
做成@@ 12
央视的@@ 12
回应,@@ 12
所得税@@ 12
力挺@@ 12
太过@@ 12
查 12
指出,在@@ 12
都已经@@ 12
载体@@ 12
玉山@@ 12
热合曼@@ 12
首例@@ 12
当他@@ 12
在工作中@@ 12
第一位@@ 12
匹马@@ 12
畜牧业@@ 12
乓@@ 12
也可@@ 12
首期@@ 12
哈拉@@ 12
通知,@@ 12
县域@@ 12
奠定@@ 12
改造为@@ 12
近60@@ 12
毫无疑问@@ 12
选定@@ 12
也不断@@ 12
张的@@ 12
厄瓜多尔@@ 12
国家和地区@@ 12
迪纳@@ 12
格兰@@ 12
都认为@@ 12
冲着@@ 12
颇多@@ 12
从来不@@ 12
小小@@ 12
足了@@ 12
康复研究中心北京博爱医院心理康复科主任刘松怀@@ 12
访谈@@ 12
在这个时候@@ 12
借用@@ 12
员工的@@ 12
看待@@ 12
被称为@@ 12
患者在@@ 12
往往会@@ 12
尿液@@ 12
病因@@ 12
给其@@ 12
逃犯@@ 12
赶到了@@ 12
恼@@ 12
年化@@ 12
资金面@@ 12
银行和@@ 12
停止互相诽谤和诋毁,积极营造有利于@@ 12
延安市@@ 12
权重@@ 12
带给我们@@ 12
进行拍摄@@ 12
亿元,占@@ 12
持卡人@@ 12
号、@@ 12
网址@@ 12
传输@@ 12
高企@@ 12
很小@@ 12
月球车@@ 12
拍摄的@@ 12
发改@@ 12
台阶@@ 12
假想图@@ 12
版车型@@ 12
往年的@@ 12
闪光灯@@ 12
财政收入@@ 12
伸手@@ 12
层层@@ 12
峦@@ 12
隐匿@@ 12
圆形@@ 12
尔特@@ 12
闻 12
根治@@ 12
前三季度@@ 12
赴台@@ 12
涨价@@ 12
后台@@ 12
电子收费@@ 12
的用户@@ 12
电子标签@@ 12
收费车道@@ 12
挠@@ 12
飞机。 12
延迟@@ 12
兴建@@ 12
睡着@@ 12
膝跪@@ 12
磕@@ 12
青年人@@ 12
海,@@ 12
海韵@@ 12
跨年的@@ 12
封信@@ 12
韩国艺人李胜基与韩国偶像组合少女时代成员允儿@@ 12
的经纪公司@@ 12
的阶段@@ 12
危机。 12
也表示@@ 12
扭转@@ 12
槽@@ 12
了一半@@ 12
女单@@ 12
卫冕冠军@@ 12
第3@@ 12
略显@@ 12
破发@@ 12
人;@@ 12
华丽@@ 12
相克”@@ 12
菠菜等@@ 12
叶菜@@ 12
的危险@@ 12
碳酸盐@@ 12
吸收的@@ 12
作“@@ 12
补铁@@ 12
牛奶、@@ 12
杨幂和@@ 12
将于1月@@ 12
长。@@ 12
累计摇号@@ 12
看到一个@@ 12
面前,@@ 12
装扮@@ 12
工业大学@@ 12
格勒诺布尔大学@@ 12
医疗中心@@ 12
层,@@ 12
营养物质@@ 12
同样是@@ 12
的速度@@ 12
实验证@@ 12
公婆@@ 12
网友对@@ 12
竭力@@ 12
手 12
也随之@@ 12
衰老。 12
角的@@ 12
张馨予@@ 12
大腿@@ 12
梢@@ 12
老化@@ 12
排便@@ 12
高跟鞋@@ 12
要到@@ 12
纪委书记@@ 12
王国@@ 12
各级党委@@ 12
值守@@ 12
死于@@ 12
小事@@ 12
很有可能@@ 12
肢@@ 12
的作用,@@ 12
都是用@@ 12
好几个@@ 12
强身@@ 12
面。 12
体贴@@ 12
机理@@ 12
很长时间@@ 12
碎了@@ 12
痛风@@ 12
含有的@@ 12
人物、@@ 12
清一@@ 12
网友。 12
的长@@ 12
蛋白的@@ 12
隐藏@@ 12
违背@@ 12
容易导致@@ 12
能让你@@ 12
养 12
对皮肤@@ 12
想拥有@@ 12
女性朋友@@ 12
色,@@ 12
相克@@ 12
导读@@ 12
热捧@@ 12
吃粗粮@@ 12
结肠@@ 12
蠕动,@@ 12
谷物@@ 12
营养成分@@ 12
丙@@ 12
食用。 12
腌@@ 12
屡屡@@ 12
好友赵薇@@ 12
林志@@ 12
他将@@ 12
有病@@ 12
罗志@@ 12
团体“@@ 12
病痛@@ 12
其他的@@ 12
湛@@ 12
画、@@ 12
检查时,@@ 12
视角@@ 12
坐地铁@@ 12
咱@@ 12
素材@@ 12
对于“@@ 12
年的时间@@ 12
这个问题@@ 12
党、国家@@ 12
制度安排@@ 12
嚼@@ 12
前列腺@@ 12
米克@@ 12
车开@@ 12
所有权@@ 12
已得到@@ 12
时,会@@ 12
歉@@ 12
居民楼@@ 12
没事@@ 12
系统。 12
新品@@ 12
新iPhone@@ 12
雅虎@@ 12
分辨率@@ 12
其他重要赛事: 12
锦标@@ 12
巡回@@ 12
玛丽@@ 12
年薪@@ 12
曝光。 12
车”@@ 12
张照片@@ 12
回应:“@@ 12
吧!” 12
属实@@ 12
合影 12
之忧@@ 12
诡@@ 12
峡谷@@ 12
约2@@ 12
过快@@ 12
亮的@@ 12
警惕。 12
详细了解@@ 12
马建堂@@ 12
证照@@ 12
国家统计局@@ 12
限定@@ 12
货运@@ 12
反响@@ 12
油价@@ 12
答案是@@ 12
门,在@@ 12
开始入住@@ 12
好些@@ 12
记者发现,@@ 12
黄胜威@@ 12
的必要@@ 12
佛山市@@ 12
栖@@ 12
拥堵@@ 12
研究所研究员@@ 12
快捷@@ 12
道路交通@@ 12
报料@@ 12
杖@@ 12
感染H7N9@@ 12
山镇@@ 12
那一刻@@ 12
和一名@@ 12
跳下@@ 12
民警的@@ 12
聚在一起@@ 12
帘@@ 12
数月@@ 12
的道德@@ 12
深化收入分配@@ 12
工作会议上表示,2014年@@ 12
收入分配改革@@ 12
启动“单独二孩”政策@@ 12
单独二孩”政策的@@ 12
全面落实@@ 12
城中村@@ 12
发布会上@@ 12
九年@@ 12
意义的@@ 12
亿美元。@@ 12
的方向@@ 12
朝韩@@ 12
进行调查@@ 12
烟灰@@ 12
得满满@@ 12
领导干部带头禁烟@@ 12
据韩国《@@ 12
的要@@ 12
英拉@@ 12
时间的@@ 12
新藤义孝@@ 12
的象征@@ 12
证据及@@ 12
现正@@ 12
营业税@@ 12
报到@@ 12
在与@@ 12
失主@@ 12
能把@@ 12
书店@@ 12
来了,@@ 12
服刑人员@@ 12
接到了@@ 12
量 12
大丛@@ 12
栩@@ 12
黄金周@@ 12
至2月@@ 12
当面@@ 12
她,@@ 12
打我@@ 12
龙湾@@ 12
地打@@ 12
永兴岛@@ 12
的一个重要@@ 12
印刷@@ 12
地级@@ 12
危及@@ 12
品格@@ 12
实业@@ 12
该负责人@@ 12
栋楼@@ 12
吨、@@ 12
7家@@ 12
安装了@@ 12
年。 12
将把@@ 12
路(@@ 12
苦难@@ 12
位一体@@ 12
广阔@@ 12
和监督@@ 12
症状。 12
停课@@ 12
出了一个@@ 12
本报讯(记者@@ 12
降水量@@ 12
的18@@ 12
年金@@ 12
开发的@@ 12
渡江@@ 12
米和@@ 12
郫县@@ 12
动辄@@ 12
撞倒@@ 12
学期@@ 12
斑马线@@ 12
红灯@@ 12
件。@@ 12
气愤@@ 12
类型的@@ 12
只是一个@@ 12
行动的@@ 12
成绵@@ 12
健说,@@ 12
王志明@@ 12
查出@@ 12
人民网成都@@ 12
华春莹@@ 12
刚过,@@ 12
遇见了你;一不小心,爱上了@@ 12
老字号@@ 12
集合@@ 12
南京新街口@@ 12
在新加坡@@ 12
黏膜@@ 12
社会监督@@ 12
思思@@ 12
赚钱@@ 12
语气@@ 12
据英国《每日邮报》@@ 12
毙@@ 12
山地@@ 12
英镑(约合人民币@@ 12
如果我@@ 12
通气@@ 12
借此@@ 12
晚上10点@@ 12
等等。@@ 12
纪委、监察局给予其开除党籍、行政开除处分。 12
纪委原@@ 12
马占武@@ 12
被判处有期徒刑@@ 12
活动提供@@ 12
石景山区@@ 12
董泗臣@@ 12
四分之一@@ 12
关岛@@ 12
进攻@@ 12
教科@@ 12
梅拉妮@@ 12
光明@@ 12
首场@@ 12
解密@@ 12
唱完@@ 12
辽宁舰自2013年11月26日从青岛某军港起航首次赴南海海域试验训练以来,@@ 12
试验训练内容均按计划顺利推进,先后@@ 12
母舰在高海况条件下的舰艇运动参数、舰体结构应力、舰载机系留载荷测量等总体适航性试验,深水条件下航速测量,以及近似实战条件下航母作战系统感知能力,指挥能力,目标指示能力,综合通信、导航、气象保障能力,空域管理能力等100余项试验和训练课目,作战系统、动力系统及舰艇适航性能等各项@@ 12
战技术指标得到进一步验证@@ 12
胡锴冰@@ 12
祛@@ 12
就好@@ 12
千足金@@ 12
沃尔玛@@ 12
这种情况@@ 12
蓄意@@ 12
韩国的@@ 12
大王@@ 12
悉数@@ 12
娄@@ 12
挂着@@ 12
事情发生在@@ 12
洗手间@@ 12
跳,@@ 12
面孔@@ 12
给爸妈@@ 12
孤单@@ 12
奇石版”@@ 12
泰斗@@ 12
告诉记者,他@@ 12
仕@@ 12
时下@@ 12
蕴含@@ 12
马鞍@@ 12
汕@@ 12
罗田@@ 12
今日新闻网@@ 12
Z@@ 12
的结合@@ 12
将全面@@ 12
王心凌@@ 12
史努比@@ 12
海面@@ 12
省物价局@@ 12
通知》,@@ 12
北京PM2.5@@ 12
长安区@@ 12
责任单位@@ 12
泻@@ 12
学雷锋@@ 12
飞到@@ 12
道路交通安全@@ 12
实行“@@ 12
淮南@@ 12
无人机@@ 12
时左右,@@ 12
测 12
大葱@@ 12
开着@@ 12
静态的验证码变成了不断摇动的彩色动态验证码@@ 12
直呼“看不清”。@@ 12
很费劲@@ 12
动态验证码就是要保障旅客正常购票@@ 12
第三方抢票软件@@ 12
新农@@ 12
有些人@@ 12
只在@@ 12
的热议@@ 12
读大@@ 12
化”@@ 12
应该朝着@@ 12
迈出一大步@@ 12
多达@@ 12
积极的@@ 12
见,@@ 12
土耳其@@ 12
回合@@ 12
比分@@ 12
的比赛@@ 12
意义上的@@ 12
咀@@ 12
平、@@ 12
及早@@ 12
抗生素@@ 12
各样的@@ 12
华国锋@@ 12
落入@@ 12
无可@@ 12
梗@@ 12
马尔@@ 12
愉悦@@ 12
书中@@ 12
斋@@ 12
绮珊@@ 12
镖@@ 12
据香港媒体报道,@@ 12
选购@@ 12
亮相。 12
看清@@ 12
查清@@ 12
问题、@@ 12
庭长@@ 12
弋@@ 12
手握@@ 12
几句@@ 12
前去@@ 12
用。 12
小事,@@ 12
户籍证明@@ 12
供述@@ 12
宣传部长@@ 12
管理制度@@ 12
职业年金@@ 12
普通指标@@ 12
这样,@@ 12
搭乘@@ 12
醒 12
件、@@ 12
燃料@@ 12
水稻@@ 12
晓兰@@ 12
昌平@@ 12
莫过于@@ 12
电磁@@ 12
搬到@@ 12
不应@@ 12
重大损失@@ 12
玩忽职守@@ 12
涉嫌犯罪问题@@ 12
巴勒斯坦驻捷克大使@@ 12
保险柜@@ 12
韩国《@@ 12
剩下的@@ 12
年后@@ 12
所占@@ 12
班上最应该@@ 12
被开除学生@@ 12
的影响,@@ 12
宁夏@@ 12
贺国强党建工作@@ 12
水桥@@ 12
公安部副部长李东@@ 12
熏陶@@ 12
怎@@ 12
苏-@@ 12
空域@@ 12
沪语@@ 12
口语@@ 12
屎@@ 12
大肠菌群@@ 12
周边居民@@ 12
古怪@@ 12
子和@@ 12
意识到,@@ 12
同学们@@ 12
蚊@@ 12
第一件事就是@@ 12
听证@@ 12
言之@@ 12
水产@@ 12
墨迹@@ 12
谓@@ 12
周立波@@ 12
回忆起@@ 12
在台上@@ 12
意想不到@@ 12
播音@@ 12
亿元,排名@@ 12
位上升@@ 12
PS@@ 12
海运@@ 12
这些年@@ 12
攘@@ 12
自贸试验区@@ 12
盘活@@ 12
身家@@ 12
交互@@ 12
吸引了不少@@ 12
沿江@@ 12
空港@@ 12
接待游客@@ 12
所门@@ 12
人最喜欢@@ 12
重庆人@@ 12
擅长@@ 12
江西人@@ 12
关注和@@ 12
标牌@@ 12
注册登记@@ 12
向上的@@ 12
新年礼物@@ 12
培训班@@ 12
学习) 12
本届政府的@@ 12
调价@@ 12
按程序@@ 12
四川省政协主席@@ 12
劳教局”的@@ 12
北京市监狱@@ 12
服务中心@@ 12
餐饮企业@@ 12
安全。@@ 12
报》记者@@ 12
创始人@@ 12
团圆@@ 12
职业:@@ 12
人送外号:@@ 12
慈祥@@ 12
厉害@@ 12
的经历@@ 12
从停放在@@ 12
拎着两桶汽油@@ 12
泼向总领馆正门并点火焚烧@@ 12
正门严重损毁@@ 12
恶性破坏@@ 12
敦促美方切实履行职责,保护中方馆舍和人员安全@@ 12
破案,将凶犯@@ 12
绳之以法。 12
失效@@ 12
手提@@ 12
口中@@ 12
尔西@@ 12
渎@@ 12
温和@@ 12
宽度@@ 12
外祖父@@ 12
嫌疑犯@@ 12
电视剧《@@ 12
库尔勒@@ 12
j@@ 12
年年@@ 12
贵妃@@ 12
结婚证件照@@ 12
有没有男朋友@@ 12
谢楠与@@ 12
车中@@ 12
呢,我@@ 12
都可@@ 12
是非常@@ 12
留了@@ 12
从最初单纯的拟声词逐渐演化得“意味深长”。@@ 12
黯然神@@ 12
憋出内@@ 12
网友评出年度最伤人聊天词汇,没有之一,就是“呵呵”。 12
统计:@@ 12
吗?从@@ 12
的23@@ 12
名网友@@ 12
兴致勃勃@@ 12
五分钟后,@@ 12
经常用@@ 12
想说@@ 12
同学或@@ 12
远离他@@ 12
显山@@ 12
有4.3@@ 12
市一中院@@ 12
吉林省@@ 12
阻拦@@ 12
早些@@ 12
金秀贤@@ 12
演员。 12
笑话@@ 12
引爆@@ 12
断 12
平房@@ 12
伏在@@ 12
岁出@@ 12
解说@@ 12
保健品的@@ 12
了好几@@ 12
百城房价@@ 12
城市房价@@ 12
报道】@@ 12
移交给@@ 12
哈利@@ 12
维族@@ 12
维族人@@ 12
阿尔巴尼亚@@ 12
帕劳@@ 12
维族恐怖嫌犯@@ 12
接收这些人@@ 12
哈夫表示,“@@ 12
法国《@@ 12
二:@@ 12
婚恋@@ 12
头戴@@ 12
变为“@@ 12
男童@@ 12
销售和@@ 12
查明,@@ 12
西花厅@@ 12
红烧狮子@@ 12
和邓颖超@@ 12
毛岸@@ 12
园,@@ 12
联欢@@ 12
歌声@@ 12
年夜饭@@ 12
尚志@@ 12
第一次会议@@ 12
在主席@@ 12
放松调控@@ 12
震荡@@ 12
在天津@@ 12
存准率@@ 12
信息消费@@ 12
桂林@@ 12
开出的@@ 12
本营@@ 12
新版《天龙八部》@@ 12
先锋@@ 12
多架@@ 12
运输机@@ 12
运-8CB@@ 12
份的@@ 12
地进行@@ 12
核大国@@ 12
规模和@@ 12
威力@@ 12
称,其@@ 12
从美国@@ 12
土地市场@@ 12
郁闷@@ 12
甲子@@ 12
北陆@@ 12
白天,@@ 12
市,@@ 12
的局面@@ 12
有一天@@ 12
磨合@@ 12
商事主体@@ 12
学的@@ 12
响灵@@ 12
林木@@ 12
挪用@@ 12
许志@@ 12
买入,现估价@@ 12
天弘基金@@ 12
市场 12
的,我@@ 12
保费@@ 12
咒@@ 12
邓紫棋@@ 12
陈水扁@@ 12
女仆@@ 12
后,警方@@ 12
据国外@@ 12
意外。@@ 12
减重@@ 12
了进来,@@ 12
了没有?” 12
道是@@ 12
是来@@ 12
重磅@@ 12
芒果@@ 12
生。 12
贿@@ 12
极致@@ 12
录像@@ 12
听闻@@ 12
取款@@ 12
波利@@ 12
牛车水@@ 12
清华@@ 12
新媒体@@ 12
喷发@@ 12
敞@@ 12
声势@@ 12
明星们@@ 12
厚度@@ 12
沙发里@@ 12
新皮鞋@@ 12
晚饭@@ 12
淤@@ 12
用工@@ 12
联通@@ 12
籽@@ 12
黏@@ 12
虹膜@@ 12
太阳光@@ 12
充当@@ 12
吸入@@ 12
肛门@@ 12
红蛋白@@ 12
玉雕@@ 12
被誉为@@ 12
短裙耗费7.8万块金片缝@@ 12
灯光照射下非常夺目。 12
阿塔坎@@ 12
舞会@@ 12
斯里兰卡@@ 12
以各种@@ 12
科考船@@ 12
浮冰@@ 12
陈佩斯@@ 12
翻过@@ 12
只白虎@@ 12
黑猩猩@@ 12
涉毒严重@@ 12
枭@@ 12
四平市@@ 12
增选@@ 12
分成@@ 12
的来源@@ 12
听觉@@ 12
范宝@@ 12
沈义@@ 12
力声特@@ 12
人民网北京1月2日电(@@ 12
工商行政@@ 12
市场开办者@@ 12
重庆市@@ 12
沃克@@ 12
在全@@ 12
对PM2.5的@@ 12
机动车的@@ 12
动机@@ 12
全国硕士研究生@@ 12
总领馆正门@@ 12
传,@@ 12
汇金@@ 12
制衡@@ 12
印度警方@@ 12
蔡康@@ 12
小时代@@ 12
有外@@ 12
确立了@@ 12
玲玲@@ 12
监法@@ 12
支付年终奖@@ 12
长长的@@ 12
水位@@ 12
视神经受损@@ 12
孩子,@@ 12
沙特阿拉伯@@ 12
笞刑@@ 12
圆鼓鼓@@ 12
市委会主委@@ 12
052D@@ 12
护卫@@ 12
运9@@ 12
年轻干部@@ 12
江湖@@ 12
怪牛@@ 12
黄牛@@ 12
市人社局@@ 12
行为。@@ 12
乘坐热气球从福建省福清市@@ 12
交给在钓鱼岛附近@@ 12
这名中国男子@@ 12
"@@ 12
千语@@ 12
长相@@ 12
硬汉@@ 12
节目单@@ 12
林志颖、@@ 12
翻身@@ 12
吸引眼球@@ 12
番外@@ 12
梁朝伟@@ 12
――@@ 12
文物保护@@ 12
而来的@@ 12
八九@@ 12
耕地保护@@ 12
例行发布会@@ 12
青年报记者@@ 12
答记者问@@ 12
倪某@@ 12
大豆制品@@ 12
生来@@ 12
滋润@@ 12
润肺@@ 12
爬到@@ 12
施特劳斯@@ 12
造像@@ 12
长命@@ 12
善行河北@@ 12
人民网深圳@@ 12
兴通讯@@ 12
被指像@@ 12
古井贡酒@@ 12
四川省纪委@@ 12
十八大后@@ 12
直白@@ 12
纵火焚烧@@ 12
光”号@@ 12
级,[22-25度 12
,多云@@ 12
儋州市@@ 12
昌江@@ 12
甲型H@@ 12
雨欣@@ 12
白山@@ 12
橱柜@@ 12
洒水@@ 12
计重@@ 12
泡菜@@ 12
车市@@ 12
马塔@@ 12
热刺@@ 12
洛里斯@@ 12
确权登记@@ 12
体位@@ 12
武直@@ 12
工业投资@@ 12
战俘@@ 12
直系@@ 12
将此@@ 12
省级政府@@ 12
公益诉讼@@ 12
试验队@@ 12
囧@@ 12
白米饭@@ 12
甲醛@@ 12
曾红@@ 12
芝武@@ 12
经纪人晓棠@@ 12
汪峰新专辑@@ 12
彷徨@@ 12
财经男记者圈”@@ 12
人民网1月4日@@ 12
千公顷@@ 12
傣@@ 12
政法队伍@@ 12
政法微博@@ 12
渡口@@ 12
珀金斯@@ 12
王普生@@ 12
四个子女@@ 12
太乙宫街办@@ 12
钟生@@ 12
横沥镇@@ 12
傅某@@ 12
颓@@ 11
轨电车@@ 11
缮@@ 11
篷@@ 11
痼@@ 11
畜禽@@ 11
以下的罚款。 11
追寻@@ 11
帝国@@ 11
抨@@ 11
十八届@@ 11
华南@@ 11
盾构@@ 11
梧@@ 11
霄@@ 11
岐@@ 11
“一把手@@ 11
愕@@ 11
隋@@ 11
谍@@ 11
裨@@ 11
民调@@ 11
禾@@ 11
发表新年贺词@@ 11
经纪公司@@ 11
业内@@ 11
惚@@ 11
睿@@ 11
宕@@ 11
县长@@ 11
本 11
徐谨@@ 11
大病@@ 11
翟@@ 11
新修订@@ 11
利斯@@ 11
党组书记@@ 11
照射@@ 11
沽@@ 11
戚@@ 11
游乐@@ 11
恐怖嫌犯@@ 11
涡@@ 11
襟@@ 11
涉嫌挪用公款@@ 11
纱@@ 11
昕@@ 11
日起@@ 11
中央电视台@@ 11
妥@@ 11
一间@@ 11
垮@@ 11
在家中@@ 11
持平@@ 11
小康@@ 11
沃尔@@ 11
候选@@ 11
气 11
廷@@ 11
内分泌@@ 11
赎@@ 11
IF@@ 11
豚@@ 11
iPhone5@@ 11
殖@@ 11
比特@@ 11
镶@@ 11
嵌@@ 11
妨@@ 11
施 11
猕@@ 11
忆@@ 11
德华@@ 11
新型城镇化规划@@ 11
8 11
辈子@@ 11
葆@@ 11
廓@@ 11
分之一@@ 11
酚@@ 11
痣@@ 11
开庭@@ 11
昊@@ 11
BA@@ 11
7 11
走 11
女 11
逮@@ 11
骸@@ 11
醇@@ 11
个工作日内@@ 11
袒@@ 11
朝鲜最高领导人金正恩@@ 11
夯@@ 11
发表新年@@ 11
裔@@ 11
蜡@@ 11
称的@@ 11
辙@@ 11
鳞@@ 11
凰@@ 11
锈@@ 11
励@@ 11
抢票插件@@ 11
图书@@ 11
马拉松赛@@ 11
眨@@ 11
庆丰包子@@ 11
病 11
讼@@ 11
下来的@@ 11
给予其@@ 11
颂@@ 11
俨@@ 11
原标@@ 11
上摆放@@ 11
人社局@@ 11
妖@@ 11
剿@@ 11
娩@@ 11
换届@@ 11
佑@@ 11
龄化@@ 11
绞@@ 11
MP@@ 11
咖@@ 11
瞎@@ 11
叉@@ 11
疚@@ 11
甄@@ 11
噱@@ 11
,东北@@ 11
儿 11
掂@@ 11
排行@@ 11
牌 11
公安厅@@ 11
随身@@ 11
粑@@ 11
溺@@ 11
日来@@ 11
咏@@ 11
维族囚犯@@ 11
拷@@ 11
酥@@ 11
姨@@ 11
孚@@ 11
瑜@@ 11
Ⅲ@@ 11
彻@@ 11
芯@@ 11
ac@@ 11
粪@@ 11
尼西亚@@ 11
领事馆@@ 11
纺@@ 11
雪龙”号@@ 11
猖@@ 11
改正@@ 11
我是歌手@@ 11
睽@@ 11
运20@@ 11
博 11
蛙@@ 11
吸引观众@@ 11
瑄@@ 11
泓@@ 11
液晶@@ 11
手表@@ 11
刚 11
卤@@ 11
免 11
郜@@ 11
消协@@ 11
外交安全局@@ 11
仝@@ 11
诽谤@@ 10
乞@@ 10
起航@@ 10
充满希望@@ 10
铁路安全管理条例》@@ 10
中国特色@@ 10
睦@@ 10
新台@@ 10
中新社@@ 10
规范化@@ 10
烬@@ 10
。改革@@ 10
观 10
以下简@@ 10
科长@@ 10
为主题@@ 10
值得一提@@ 10
恺@@ 10
据中国之声@@ 10
关 10
博爱@@ 10
!!@@ 10
笨@@ 10
挚@@ 10
这是我@@ 10
惦@@ 10
砰@@ 10
吱@@ 10
破案@@ 10
严重违纪违法@@ 10
明 10
劈@@ 10
组织了@@ 10
浚@@ 10
垦@@ 10
矮@@ 10
麟@@ 10
的前提@@ 10
爱心人士@@ 10
喀@@ 10
马拉@@ 10
煜@@ 10
质量管理@@ 10
市红十字会@@ 10
撮@@ 10
苦等@@ 10
团聚@@ 10
烽@@ 10
表示,2014年@@ 10
寂@@ 10
税 10
布拉@@ 10
菱@@ 10
炜@@ 10
公顷@@ 10
Sh@@ 10
萎@@ 10
烛@@ 10
罹@@ 10
附加@@ 10
字样@@ 10
摒@@ 10
融资规模@@ 10
萤@@ 10
椰@@ 10
会展@@ 10
意 10
匠@@ 10
领导干部带头@@ 10
癌 10
堕@@ 10
延缓@@ 10
秧@@ 10
同 10
康 10
苟@@ 10
倔@@ 10
蟹@@ 10
喳@@ 10
国家治理体系和治理能力@@ 10
、相互@@ 10
湖人@@ 10
姆斯@@ 10
浆@@ 10
居委会@@ 10
搁@@ 10
晖@@ 10
中国男子@@ 10
中国国际@@ 10
尼斯@@ 10
熔@@ 10
基调@@ 10
第一大@@ 10
缭@@ 10
An@@ 10
芭@@ 10
中环军营@@ 10
言 10
狐@@ 10
物价局@@ 10
三亚中院@@ 10
岂@@ 10
黄仕宣@@ 10
儋@@ 10
百余@@ 10
佼@@ 10
市 10
考 10
不小心@@ 10
造 10
所 10
你;一不小心,@@ 10
据香港@@ 10
纵横@@ 10
炼@@ 10
阉@@ 10
口 10
(约合人民币@@ 10
禀@@ 10
飚@@ 10
陨@@ 10
吉尼斯@@ 10
俯@@ 10
翔展@@ 10
亳@@ 10
责 10
巅@@ 10
q@@ 10
芜@@ 10
阳区@@ 10
诚挚@@ 10
助于@@ 10
啧@@ 10
棱@@ 10
绢@@ 10
臧@@ 10
沥@@ 10
赣@@ 10
区委@@ 10
监会@@ 10
邺@@ 10
总公司@@ 10
零点报告@@ 10
劳教局@@ 10
国办@@ 10
迦@@ 10
蹊@@ 10
首播@@ 10
香港驻军@@ 10
卫生局@@ 10
拯救@@ 10
范 10
二线城市@@ 10
吉克@@ 10
逻@@ 10
烹@@ 10
哽@@ 10
.8万@@ 10
溅@@ 10
势 10
慷@@ 10
报废@@ 10
验 10
志强@@ 10
《我是歌手@@ 10
扛@@ 10
馒@@ 10
礤@@ 10
脆@@ 10
蠢@@ 10
烊@@ 10
硅@@ 10
婶@@ 10
办、@@ 10
溯@@ 10
晶晶@@ 10
祖父@@ 10
奄@@ 10
蓓@@ 10
仆@@ 10
镀@@ 10
贿赂@@ 10
个人有关事项@@ 10
出让@@ 10
雪龙@@ 10
同性@@ 10
濒@@ 10
烘@@ 10
务 10
佳 10
三号@@ 10
卦@@ 10
港独@@ 10
懈追求@@ 10
黔@@ 10
毽@@ 10
甄嬛传@@ 10
金正@@ 9
、让@@ 9
全面深化改革元@@ 9
政治局@@ 9
瞭@@ 9
无许可证@@ 9
伤人@@ 9
来 9
克强@@ 9
接地@@ 9
得到进一步@@ 9
衅@@ 9
只有一天@@ 9
愿 9
隙@@ 9
璐@@ 9
和国家机关@@ 9
国主义@@ 9
安全岛@@ 9
钮@@ 9
医疗保险@@ 9
新一@@ 9
涯@@ 9
析@@ 9
竿@@ 9
枉@@ 9
★ 9
顺序@@ 9
布鲁@@ 9
筷@@ 9
国务@@ 9
矛@@ 9
殒@@ 9
檀@@ 9
公共场所禁止吸烟@@ 9
清远@@ 9
京华@@ 9
尔夫@@ 9
合同诈骗@@ 9
内务@@ 9
长治久安@@ 9
网络和@@ 9
个工作日@@ 9
浙@@ 9
胳@@ 9
驾驶人@@ 9
启动“@@ 9
决定性@@ 9
吆@@ 9
国防和@@ 9
体系和@@ 9
停放在@@ 9
翰@@ 9
叼@@ 9
以下简称@@ 9
〔@@ 9
〕@@ 9
咪@@ 9
沂@@ 9
遇见@@ 9
据新华社@@ 9
脊@@ 9
卒@@ 9
屌@@ 9
保障性@@ 9
之以@@ 9
沾@@ 9
衷@@ 9
TE@@ 9
恬@@ 9
鸦@@ 9
霸机@@ 9
灿烂@@ 9
钓@@ 9
谬@@ 9
地 9
常 9
栓@@ 9
米 9
贱@@ 9
髓@@ 9
黯@@ 9
贮@@ 9
颠@@ 9
鸽@@ 9
碘@@ 9
西瓜@@ 9
瞪@@ 9
豆 9
蒜@@ 9
脯@@ 9
肴@@ 9
寡@@ 9
拎@@ 9
顺风@@ 9
杯 9
疤@@ 9
拧@@ 9
悉@@ 9
瑟@@ 9
掰@@ 9
音 9
搀@@ 9
李崇禧@@ 9
看守@@ 9
朱丽@@ 9
卿@@ 9
一世@@ 9
富强@@ 9
彩色@@ 9
澎@@ 9
首飞@@ 9
案 9
邛@@ 9
物 9
窘@@ 9
天 9
蜘@@ 9
检疫@@ 9
航空母舰@@ 9
变 9
化合物@@ 9
幢@@ 9
捆@@ 9
玄@@ 9
治疗费@@ 9
撇@@ 9
捂@@ 9
浏览@@ 9
啦!” 9
★@@ 9
畔@@ 9
冷链@@ 9
畸@@ 9
吩@@ 9
派”@@ 9
孰@@ 9
哪儿@@ 9
提起公诉@@ 9
放 9
许,@@ 9
审稿@@ 9
黄子@@ 9
压 9
漱@@ 9
自贸@@ 9
驼@@ 9
伎@@ 9
人员安全@@ 9
泾@@ 9
悄@@ 9
绎@@ 9
咳咳@@ 9
哎@@ 9
看。@@ 9
瑶@@ 9
聊天词汇@@ 9
姓女子@@ 9
暴恐@@ 9
唠@@ 9
2014是@@ 9
狮子@@ 9
呎@@ 9
樱@@ 9
赐@@ 9
睫@@ 9
衔@@ 9
商事@@ 9
偕@@ 9
蠕@@ 9
祈@@ 9
抉@@ 9
瓢@@ 9
谷 9
绪@@ 9
韬@@ 9
俑@@ 9
穿戴@@ 9
宜居环境建设@@ 9
邢@@ 9
幽@@ 9
冉@@ 9
痔@@ 9
续 9
锥@@ 9
复旦大学附属眼耳鼻喉科医院@@ 9
王宇@@ 9
澄 9
开办者@@ 9
浏@@ 9
绳之以法@@ 9
少 9
吗 9
芸@@ 9
市、区)@@ 9
彪@@ 9
希望,@@ 9
伦理剧@@ 9
偶像伦理剧@@ 9
高先明@@ 9
收视新人@@ 9
赵韩樱@@ 9
到 9
浅田@@ 9
梦 9
散装@@ 9
产权房@@ 9
部级@@ 9
克莱@@ 9
食药@@ 9
,东北风@@ 9
级,[@@ 9
拽@@ 9
中国虎@@ 9
闰@@ 9
榜 9
慢 9
裆@@ 9
瘠@@ 9
营区@@ 8
寥@@ 8
谱写@@ 8
新年贺词。@@ 8
庚@@ 8
或者在@@ 8
餐 8
电 8
等各项@@ 8
、同@@ 8
蝴@@ 8
头 8
碌@@ 8
南 8
惬@@ 8
徘@@ 8
徊@@ 8
犀@@ 8
撼@@ 8
道路上@@ 8
环球时报》@@ 8
山 8
敦@@ 8
表示,对@@ 8
不分@@ 8
损毁@@ 8
佬@@ 8
经纪@@ 8
案组@@ 8
殉@@ 8
岸信@@ 8
毗@@ 8
新疆维吾尔@@ 8
核心的@@ 8
和国家@@ 8
稳中@@ 8
眺@@ 8
被执行@@ 8
酯@@ 8
膊@@ 8
禁止吸烟的@@ 8
睁@@ 8
哗@@ 8
祁@@ 8
怡@@ 8
功甫帖@@ 8
无菌@@ 8
人力@@ 8
根本上@@ 8
基尼@@ 8
,多家@@ 8
无偿@@ 8
红十字会@@ 8
分辨@@ 8
王志@@ 8
厄@@ 8
运 8
躯@@ 8
格勒诺布尔@@ 8
值得一@@ 8
价 8
志伟@@ 8
被问@@ 8
ht@@ 8
锦玲@@ 8
不能同@@ 8
煮 8
红素@@ 8
舱@@ 8
升 8
=@@ 8
5 8
张馨@@ 8
噬@@ 8
威尔@@ 8
痒@@ 8
昼@@ 8
苓@@ 8
鞣@@ 8
嘌@@ 8
馥@@ 8
氟@@ 8
藻@@ 8
喽@@ 8
腐 8
柿@@ 8
桃 8
髋@@ 8
悉,@@ 8
踞@@ 8
的伟大@@ 8
偿 8
开庭审理@@ 8
蹿@@ 8
伞@@ 8
满贯@@ 8
9 8
实战@@ 8
坚信@@ 8
诞@@ 8
澈@@ 8
据中国之声《新闻@@ 8
新 8
憧@@ 8
憬@@ 8
蘑@@ 8
沓@@ 8
进京证@@ 8
澧@@ 8
单独两孩@@ 8
看不清@@ 8
邮报》@@ 8
朽@@ 8
驻港部队营区@@ 8
准 8
共产@@ 8
为 8
狸@@ 8
匕@@ 8
檐@@ 8
静态@@ 8
程 8
在新的一年@@ 8
沙特@@ 8
街坊@@ 8
母 8
来说是@@ 8
一刻@@ 8
悸@@ 8
阳 8
一不小心,@@ 8
筛@@ 8
胞集团@@ 8
金 8
华 8
违纪违法案件@@ 8
钵@@ 8
秘 8
玟@@ 8
房 8
目 8
冥@@ 8
棕@@ 8
踵@@ 8
铮@@ 8
腮@@ 8
嗑@@ 8
拭@@ 8
绒@@ 8
SP@@ 8
辜@@ 8
半 8
氢@@ 8
望 8
湖南省政协@@ 8
伐@@ 8
渤@@ 8
堤@@ 8
第五代@@ 8
北青@@ 8
堃@@ 8
祯@@ 8
平说,@@ 8
掼@@ 8
历 8
席 8
踊@@ 8
(二@@ 8
建房@@ 8
园 8
读 8
indy@@ 8
觑@@ 8
贩毒@@ 8
安倍晋@@ 8
窍@@ 8
奚@@ 8
色列@@ 8
藏 8
瘫@@ 8
论 8
色 8
坷@@ 8
粼@@ 8
寅@@ 8
长 8
少女时代成员@@ 8
拉克@@ 8
腋@@ 8
菜 8
民进@@ 8
桦@@ 8
林心@@ 8
如 8
世,@@ 8
挟@@ 8
党组书记、局长@@ 8
肛@@ 8
耗费@@ 8
峭@@ 8
驻旧金山@@ 8
蚕@@ 8
槟@@ 8
邦纳@@ 8
姣@@ 8
谋杀@@ 8
国债@@ 8
釉@@ 8
峡@@ 8
实习@@ 8
热气球@@ 8
向大家@@ 8
盔@@ 8
颍@@ 8
区 8
单独二孩@@ 8
凤荣@@ 8
防 8
文稿@@ 8
熠@@ 8
不小心,@@ 8
妓@@ 8
痞@@ 8
於@@ 8
善行@@ 8
啪@@ 8
禹@@ 8
羽绒@@ 8
作物@@ 8
,被告@@ 8
航母战斗@@ 8
宙@@ 8
瑟 8
奇 8
截 8
垣@@ 8
烃@@ 8
筝@@ 8
龙江@@ 8
咲@@ 8
自卫@@ 7
行政区@@ 7
旷@@ 7
全文如下: 7
击 7
圈”@@ 7
,致以@@ 7
政协主席@@ 7
刁@@ 7
婧@@ 7
殴@@ 7
和挑战@@ 7
目。 7
逞@@ 7
舅@@ 7
俱乐@@ 7
簇@@ 7
,凝聚@@ 7
未来发展的@@ 7
训练。 7
鲸@@ 7
艳 7
张艺@@ 7
中信@@ 7
璀@@ 7
璨@@ 7
清城区@@ 7
观察。 7
向 7
美国国务院@@ 7
市委书记吴天君@@ 7
绿城广场@@ 7
处罚金@@ 7
驱逐@@ 7
、德国@@ 7
据 7
痉@@ 7
挛@@ 7
樊@@ 7
稳中求@@ 7
笃@@ 7
打来@@ 7
褥@@ 7
、大连@@ 7
“中央社@@ 7
榴@@ 7
政局@@ 7
瘤@@ 7
过上@@ 7
难 7
药品生产企业@@ 7
,取得了@@ 7
磋@@ 7
审批手续@@ 7
沫@@ 7
枢@@ 7
BS@@ 7
库尔@@ 7
澡@@ 7
爵@@ 7
呐@@ 7
鼾@@ 7
势而@@ 7
方位@@ 7
试验区@@ 7
斯蒂@@ 7
』 7
离 7
亮 7
邝@@ 7
眯@@ 7
西 7
涎@@ 7
记者昨日@@ 7
铁路总公司@@ 7
堰@@ 7
茶 7
◆@@ 7
, 7
呤@@ 7
牙 7
荞@@ 7
群 7
组图) 7
准基@@ 7
农贸@@ 7
磐@@ 7
审判决@@ 7
《明镜@@ 7
冬奥@@ 7
袭 7
呛@@ 7
揪@@ 7
箴@@ 7
乖@@ 7
限 7
矫@@ 7
月 7
空置@@ 7
槐@@ 7
骨头@@ 7
唏@@ 7
柄@@ 7
混合所有@@ 7
慑@@ 7
国家主席习近平@@ 7
带着女儿@@ 7
味 7
ow@@ 7
驻军营@@ 7
解放军驻港部队总部@@ 7
列车的@@ 7
宛@@ 7
遗留@@ 7
渣土@@ 7
帷@@ 7
湃@@ 7
鄱@@ 7
工作会议上@@ 7
伤 7
医护@@ 7
铸@@ 7
体 7
锌@@ 7
霆锋@@ 7
酋@@ 7
沮@@ 7
葵@@ 7
啼@@ 7
劳斯@@ 7
囚@@ 7
瑙@@ 7
不能说@@ 7
瞰@@ 7
阎@@ 7
带动了@@ 7
秸@@ 7
秆@@ 7
栗@@ 7
匀@@ 7
调 7
顺利推进@@ 7
怠@@ 7
凹@@ 7
蛀@@ 7
颌骨@@ 7
酗@@ 7
嗅@@ 7
蕙@@ 7
教育实践@@ 7
任免@@ 7
挎@@ 7
漓@@ 7
鞭@@ 7
缤@@ 7
乐 7
垒@@ 7
鳍@@ 7
闪光@@ 7
髦@@ 7
霁@@ 7
嘹@@ 7
蛋 7
代码@@ 7
猗@@ 7
评 7
纤@@ 7
爸 7
奥特@@ 7
哄@@ 7
匮@@ 7
夙@@ 7
褪@@ 7
力于@@ 7
─@@ 7
篇 7
酵@@ 7
Ang@@ 7
饭 7
捉迷@@ 7
毛群安@@ 7
跻@@ 7
染 7
檬@@ 7
坂@@ 7
博社@@ 7
课目@@ 7
显 7
夕,@@ 7
羁@@ 7
琛@@ 7
窦@@ 7
簿@@ 7
金斯@@ 7
侣@@ 7
楂@@ 7
当事人李先生@@ 7
窑@@ 7
单独二@@ 7
蕉@@ 7
凛@@ 7
蔼@@ 7
叁@@ 7
赶赴@@ 7
踝@@ 7
潞@@ 7
剽@@ 7
胁@@ 7
琢@@ 7
进一步做好@@ 7
獗@@ 7
跨年晚@@ 7
猿@@ 7
驯@@ 7
数名@@ 7
首 7
高大@@ 7
爪@@ 7
影星@@ 7
星 7
闺@@ 7
蔓@@ 7
翊@@ 7
哑@@ 7
稼@@ 7
眸@@ 7
胫@@ 7
炙@@ 7
茸@@ 7
陌@@ 7
庵@@ 7
。(完@@ 7
除此@@ 7
荃@@ 7
肃政@@ 7
都市报记者@@ 7
驹@@ 7
凳@@ 7
美丹@@ 7
呻@@ 7
箫@@ 7
琓@@ 7
峨@@ 7
钛@@ 7
冬 7
裳@@ 7
蛆@@ 7
苷@@ 7
雹@@ 7
恕@@ 7
∞@@ 7
斯诺@@ 6
各国人民@@ 6
艰辛@@ 6
游乐设施@@ 6
为总书记的党中央@@ 6
十件@@ 6
痹@@ 6
嗜@@ 6
祉@@ 6
公务活动中严禁@@ 6
人道@@ 6
潍@@ 6
曝光台”@@ 6
违反中央八项规定精神@@ 6
工作领导小组@@ 6
膏@@ 6
亥@@ 6
崭@@ 6
析 6
氰@@ 6
新年前夕,国家主席习近平通过中国国际广播电台、中央人民广播电台、中央电视台@@ 6
2013年前@@ 6
绚@@ 6
钱 6
腱@@ 6
发抖@@ 6
监察部@@ 6
景 6
绝 6
摁@@ 6
石 6
盏@@ 6
槽 6
砥@@ 6
砺@@ 6
亿人@@ 6
疴@@ 6
规 6
动车组@@ 6
峻@@ 6
咕@@ 6
禄@@ 6
倘@@ 6
落到@@ 6
晰@@ 6
鼓鼓@@ 6
飞 6
誉为@@ 6
党组书记、@@ 6
努@@ 6
峪@@ 6
想到,@@ 6
襄@@ 6
柑@@ 6
虎 6
党支部@@ 6
党校@@ 6
师范@@ 6
掺@@ 6
1980@@ 6
编译@@ 6
轮椅@@ 6
福 6
稳健@@ 6
分 6
抒@@ 6
彤@@ 6
面 6
泵@@ 6
卖 6
卑@@ 6
『@@ 6
陀@@ 6
烁@@ 6
速通@@ 6
警 6
了四@@ 6
豫@@ 6
腼@@ 6
腆@@ 6
砒@@ 6
腑@@ 6
颐@@ 6
馋@@ 6
殃@@ 6
瘀@@ 6
趾@@ 6
拇@@ 6
码 6
皓@@ 6
况 6
脑血管@@ 6
痘@@ 6
身 6
甙@@ 6
糜@@ 6
鳕@@ 6
紊@@ 6
惮@@ 6
西红@@ 6
柿 6
材 6
球 6
俪@@ 6
缚@@ 6
迸@@ 6
生涯@@ 6
姻@@ 6
明镜@@ 6
新气象@@ 6
阿拉@@ 6
持续到@@ 6
世 6
桓@@ 6
户 6
袤@@ 6
岷@@ 6
的道路上@@ 6
亡 6
轨 6
审三公示@@ 6
五”@@ 6
尾气@@ 6
新京@@ 6
阱@@ 6
进 6
能够实现@@ 6
阅读: 6
一)@@ 6
鸥@@ 6
海南热点新闻@@ 6
民生实事:@@ 6
老有所依海南7家新建敬老院落成 6
蚝@@ 6
肖杰@@ 6
龟@@ 6
傍@@ 6
306@@ 6
拂@@ 6
新中国@@ 6
www@@ 6
门 6
嘈@@ 6
伺@@ 6
泗@@ 6
士 6
医 6
imi@@ 6
涟@@ 6
械@@ 6
预案@@ 6
惫@@ 6
笋@@ 6
哇@@ 6
荧@@ 6
总书记@@ 6
看 6
芳应@@ 6
愣@@ 6
琥@@ 6
楼 6
蚁@@ 6
碾@@ 6
和邮政业@@ 6
胡萝卜@@ 6
拣@@ 6
嗞@@ 6
死 6
正风@@ 6
暄@@ 6
殡@@ 6
祎@@ 6
计时@@ 6
新藤@@ 6
琅@@ 6
糖尿@@ 6
“中央@@ 6
碇@@ 6
荟@@ 6
蚌@@ 6
要带头@@ 6
害人@@ 6
脐@@ 6
去哪儿@@ 6
衡阳市@@ 6
琉@@ 6
蹈@@ 6
憾 6
剃@@ 6
伟 6
学前@@ 6
蒸发@@ 6
70多@@ 6
擅@@ 6
员 6
建设成为@@ 6
馨@@ 6
中区@@ 6
解放军驻港部队@@ 6
香港警务处@@ 6
教养@@ 6
讪@@ 6
3名中国@@ 6
试验和@@ 6
牡@@ 6
猩猩@@ 6
呦@@ 6
待 6
琨@@ 6
干细胞@@ 6
俭@@ 6
桧@@ 6
阙@@ 6
列车上吸烟@@ 6
舰载@@ 6
“中央社”报道,@@ 6
巴巴@@ 6
甯@@ 6
厥@@ 6
钝@@ 6
匈@@ 6
钚@@ 6
绊@@ 6
曦@@ 6
珩@@ 6
设 6
纭@@ 6
款 6
吸取@@ 6
参数@@ 6
原标题:两性@@ 6
芗@@ 6
窟@@ 6
字 6
代 6
蹉@@ 6
跎@@ 6
哩@@ 6
讽@@ 6
洼@@ 6
爱上了@@ 6
瀑@@ 6
骇@@ 6
陂@@ 6
72小时@@ 6
平市@@ 6
造血@@ 6
部 6
驭@@ 6
风雪@@ 6
ec@@ 6
眼耳鼻喉科@@ 6
【同期】@@ 6
窖@@ 6
呵@@ 6
厮@@ 6
样 6
OP@@ 6
每日邮报》@@ 6
觉 6
萝@@ 6
广播公司@@ 6
噎@@ 6
灼@@ 6
型驱逐舰@@ 6
譬@@ 6
安康@@ 6
理 6
街办@@ 6
骝@@ 6
韶@@ 6
扬子@@ 6
绅@@ 6
钓鱼岛附近@@ 6
乘坐热气球@@ 6
证件照@@ 6
外号@@ 6
称之@@ 6
嘉玲@@ 6
崩@@ 6
吧 6
愚@@ 6
受试@@ 6
岁 6
怡 6
斯兰@@ 6
蔬@@ 6
薏@@ 6
屁@@ 6
容 6
孕 6
感知@@ 6
噼@@ 6
悻@@ 6
朦@@ 6
胧@@ 6
芊@@ 6
想不到@@ 6
囤@@ 6
○@@ 6
霈@@ 6
人大常委会主任@@ 6
子怡@@ 6
派 6
。让@@ 6
嫔@@ 6
来水@@ 6
鲨@@ 6
采取有效@@ 6
临湘@@ 6
“呵呵@@ 6
戮@@ 5
警告,@@ 5
武警官兵@@ 5
团结在@@ 5
篇章@@ 5
跨越式@@ 5
锦文@@ 5
鞠@@ 5
,祝@@ 5
党派@@ 5
实现中华民族伟大复兴的中国梦@@ 5
红十字@@ 5
诿@@ 5
资料图) 5
渲@@ 5
峥@@ 5
粹@@ 5
蹭@@ 5
灿@@ 5
队 5
袋 5
五家@@ 5
立 5
在1%以上的@@ 5
吵 5
“台@@ 5
姝@@ 5
特 5
奖 5
冬奥会@@ 5
更加美好@@ 5
全国经济普查@@ 5
和田@@ 5
、法规@@ 5
禅@@ 5
作 5
哼@@ 5
胁 5
格勒@@ 5
置 5
辗@@ 5
渗@@ 5
敕@@ 5
为之@@ 5
锯@@ 5
淳@@ 5
新修订药品GMP认证@@ 5
洲际@@ 5
坞@@ 5
经营户@@ 5
和各@@ 5
苏丹@@ 5
鄄@@ 5
外 5
郯@@ 5
在互联网@@ 5
骁@@ 5
瑛@@ 5
茹@@ 5
大家一起@@ 5
饲@@ 5
收 5
合 5
室 5
态 5
芙@@ 5
戳@@ 5
职 5
从最初@@ 5
八项@@ 5
伫@@ 5
性 5
货币信贷@@ 5
成 5
CE@@ 5
s 5
切身@@ 5
起 5
火 5
帧@@ 5
苋@@ 5
供 5
戛@@ 5
类 5
神 5
脸蛋@@ 5
主治@@ 5
茯@@ 5
肉 5
性激素@@ 5
皙@@ 5
臃@@ 5
之不易@@ 5
麸@@ 5
莓@@ 5
诗龄@@ 5
除 5
全文@@ 5
郑州市委书记吴天君@@ 5
隽@@ 5
中华民族伟大复兴@@ 5
、知识@@ 5
社会生产@@ 5
骥@@ 5
岔@@ 5
潢@@ 5
酌@@ 5
甥@@ 5
跤@@ 5
即将迎来@@ 5
玲 5
己 5
里斯@@ 5
H7N9@@ 5
①@@ 5
梭@@ 5
宏伟@@ 5
yS@@ 5
问 5
毅力@@ 5
民 5
划 5
聆@@ 5
汗水@@ 5
癫@@ 5
资金约@@ 5
票 5
锋 5
等 5
邑@@ 5
濛@@ 5
500元以上2000元@@ 5
中 5
善 5
箩@@ 5
咚@@ 5
和邮政@@ 5
工人、@@ 5
榨@@ 5
艾滋@@ 5
鲈@@ 5
钰莹@@ 5
宇春@@ 5
碶@@ 5
茁@@ 5
珂@@ 5
犯 5
《清明上河图@@ 5
屉@@ 5
直呼“@@ 5
▲@@ 5
出 5
町@@ 5
觅@@ 5
QI@@ 5
气溶胶@@ 5
罚 5
浐@@ 5
弹 5
霰@@ 5
光 5
讹@@ 5
首度曝光@@ 5
冷 5
九条@@ 5
嘿@@ 5
颊@@ 5
珉@@ 5
全面深化@@ 5
履行职责@@ 5
中央八项规定@@ 5
个 5
簧@@ 5
化名@@ 5
、市政府@@ 5
售卖@@ 5
钟 5
伸 5
煞@@ 5
屠杀@@ 5
级战@@ 5
最高领导人@@ 5
啡@@ 5
大肠@@ 5
寐@@ 5
辍@@ 5
黛@@ 5
美 5
皿@@ 5
雏@@ 5
文创@@ 5
党风廉政@@ 5
妞@@ 5
香港人@@ 5
秤@@ 5
肇@@ 5
新年的祝福@@ 5
沌@@ 5
舀@@ 5
鳅@@ 5
迥@@ 5
彩色动态验证码@@ 5
顷@@ 5
《公安@@ 5
38条@@ 5
。该剧@@ 5
蛎@@ 5
吝@@ 5
馨 5
啊 5
我们国家@@ 5
缪@@ 5
侄@@ 5
嘉诚@@ 5
备 5
舵@@ 5
低 5
臻@@ 5
碴@@ 5
圜@@ 5
攥@@ 5
后 5
报了@@ 5
迹 5
拍 5
窿@@ 5
榭@@ 5
十八大@@ 5
老 5
进来,@@ 5
班上@@ 5
经销@@ 5
藜@@ 5
LE@@ 5
榷@@ 5
棚户@@ 5
杳@@ 5
倚@@ 5
掖@@ 5
疮@@ 5
苔@@ 5
瞿@@ 5
哮@@ 5
.54@@ 5
李胜@@ 5
娴@@ 5
神社@@ 5
客服热线@@ 5
笛@@ 5
局 5
赂@@ 5
擒@@ 5
桢@@ 5
缉@@ 5
领导干部带头在公共场所禁烟有关事项的@@ 5
纪检@@ 5
嫖@@ 5
荔@@ 5
刑警@@ 5
飞行器@@ 5
念 5
嫉@@ 5
博物@@ 5
壹@@ 5
052@@ 5
、舰@@ 5
段 5
骑着自行车@@ 5
烯@@ 5
秀 5
Lumia@@ 5
常德@@ 5
宸@@ 5
的验证码@@ 5
奸 5
耸@@ 5
幂@@ 5
豪 5
紫琼@@ 5
惶@@ 5
榆@@ 5
榈@@ 5
丹 5
广播电台@@ 5
|@@ 5
阚@@ 5
28岁@@ 5
祖国和人民@@ 5
吴京微博@@ 5
嫂@@ 5
薯 5
撩@@ 5
蜕@@ 5
冰冰@@ 5
储诒@@ 5
衢@@ 5
功 5
侥@@ 5
迪 5
素 5
校 5
峙@@ 5
禁烟区域@@ 5
墟@@ 5
蜈@@ 5
象 5
搂@@ 5
甭@@ 5
荤@@ 5
噌@@ 5
屹@@ 5
银桥@@ 5
威尔谢@@ 5
鳔@@ 5
宗武@@ 5
酒 5
沙拉@@ 5
淝@@ 5
惘@@ 5
涣@@ 5
赦@@ 5
颌@@ 5
漆 5
押钞@@ 5
潋@@ 5
奔波@@ 4
聂@@ 4
新年前夕,国家主席习近平通过中国国际广播电台、中央人民广播电台、中央电视台,发表了@@ 4
追寻实现中华民族伟大复兴的中国梦,也祝愿各国人民能够实现自己的梦想@@ 4
是需要我们共同为之奋斗的伟大事业,需要付出艰辛的努力@@ 4
描绘了@@ 4
伟大祖国@@ 4
小刚@@ 4
厉行@@ 4
成绩来之不易@@ 4
,努力把@@ 4
假想@@ 4
消 4
工作要做@@ 4
中新@@ 4
环 4
系数@@ 4
州 4
刀 4
六约@@ 4
朴槿@@ 4
惠 4
判 4
阖@@ 4
犁@@ 4
100余@@ 4
的中国梦@@ 4
来之不易@@ 4
困难和挑战@@ 4
兵的@@ 4
彝@@ 4
兵团@@ 4
过剩@@ 4
推着@@ 4
总统普京@@ 4
赝@@ 4
跋@@ 4
唑@@ 4
憩@@ 4
弛@@ 4
煌@@ 4
咿@@ 4
布尔@@ 4
濮@@ 4
内 4
脓@@ 4
张 4
应 4
科 4
率 4
畜牧@@ 4
棋牌@@ 4
茬@@ 4
,达到了@@ 4
惺@@ 4
语 4
铢@@ 4
总值@@ 4
舒马@@ 4
…@@ 4
2012年6月@@ 4
配 4
目的。@@ 4
,星@@ 4
淌@@ 4
新景@@ 4
办公桌@@ 4
修改后@@ 4
瞻 4
此同时,@@ 4
不正@@ 4
谁 4
感 4
塌@@ 4
皮鞋@@ 4
圈 4
沉 4
蕉 4
喋@@ 4
褐@@ 4
颧@@ 4
糕 4
乱 4
突 4
碱 4
垢@@ 4
亚鹏@@ 4
志清@@ 4
已 4
、共同@@ 4
迭@@ 4
机前@@ 4
喆@@ 4
叽@@ 4
悖@@ 4
帛@@ 4
决 4
救 4
ax@@ 4
iP@@ 4
冠 4
战 4
川 4
血 4
鹊@@ 4
上 4
布 4
墅@@ 4
姊@@ 4
了,这个@@ 4
松 4
名 4
底 4
锰@@ 4
椭@@ 4
袱@@ 4
将面@@ 4
臆@@ 4
②@@ 4
③@@ 4
④@@ 4
二 4
三 4
恪@@ 4
国务院港澳@@ 4
密 4
栈@@ 4
芋@@ 4
院 4
作证@@ 4
沧@@ 4
《三沙新闻》@@ 4
平凡的一年@@ 4
特困@@ 4
总体部署@@ 4
步伐。 4
结 4
hone@@ 4
城 4
楷@@ 4
北广场@@ 4
琏@@ 4
崃@@ 4
经开@@ 4
筐@@ 4
祠@@ 4
狡@@ 4
眼 4
围 4
洗手@@ 4
公务活动中@@ 4
众 4
▲ 4
、 4
纪委、监察局给予其开除党籍、行政@@ 4
部地区@@ 4
尖端@@ 4
军事报道@@ 4
幌@@ 4
络 4
穗@@ 4
灵 4
们 4
恙@@ 4
喜 4
犒@@ 4
沣@@ 4
条件下的@@ 4
释 4
评出@@ 4
在公共场所禁烟@@ 4
摞@@ 4
验证码,@@ 4
珐@@ 4
宗盛@@ 4
、省政府@@ 4
主委@@ 4
艰苦奋斗@@ 4
人事任免@@ 4
诵@@ 4
建 4
休 4
发行不超过@@ 4
束 4
敏 4
数 4
箍@@ 4
[京华时报@@ 4
忡@@ 4
流 4
记 4
寰@@ 4
蹂@@ 4
躏@@ 4
矣@@ 4
内务部@@ 4
对近@@ 4
最应该@@ 4
贺国强@@ 4
党建工作@@ 4
诲@@ 4
。记者昨天@@ 4
璃@@ 4
阿富@@ 4
拜 4
少林@@ 4
麓@@ 4
炽@@ 4
益 4
桨@@ 4
边 4
亟@@ 4
你》@@ 4
淞@@ 4
擅自闯入@@ 4
泓源@@ 4
躬@@ 4
霏@@ 4
嘎@@ 4
守望相助@@ 4
型 4
爹 4
洗 4
梳@@ 4
看不清”。@@ 4
购票顺序@@ 4
插件@@ 4
踹@@ 4
甬@@ 4
漾@@ 4
磎@@ 4
险 4
丸 4
东 4
透 4
【环球时报@@ 4
隘@@ 4
励 4
君 4
烩@@ 4
英 4
粟@@ 4
大年初@@ 4
蘸@@ 4
兴致@@ 4
周恩@@ 4
意味深长@@ 4
的,你@@ 4
最伤人@@ 4
给 4
国际金融中心大厦@@ 4
面舰艇@@ 4
返航@@ 4
区大@@ 4
维亚@@ 4
息 4
跷@@ 4
武 4
持卡@@ 4
中村@@ 4
岑@@ 4
溃@@ 4
﹗@@ 4
南海海域@@ 4
天弘@@ 4
裘@@ 4
迎 4
敦促美方@@ 4
谱 4
昱@@ 4
人头@@ 4
人送@@ 4
圳@@ 4
腻@@ 4
欢 4
讨厌@@ 4
像 4
侮@@ 4
店 4
三中@@ 4
闾@@ 4
嘀@@ 4
丝绸@@ 4
现 4
狙@@ 4
涮@@ 4
点火@@ 4
相助@@ 4
鄯@@ 4
嚷@@ 4
届全国人大常委会@@ 4
Ra@@ 4
党籍@@ 4
见度@@ 4
白虎@@ 4
础@@ 4
尉@@ 4
一中院@@ 4
领导干部报告个人有关事项@@ 4
民主党派@@ 4
刍@@ 4
匾@@ 4
啡 4
褒@@ 4
搪@@ 4
按计划@@ 4
诉 4
红白@@ 4
妒@@ 4
征 4
平 4
蹑@@ 4
耒@@ 4
净 4
逍@@ 4
汲@@ 4
ind@@ 4
黢@@ 4
伶@@ 4
亲 4
羡@@ 4
i 4
瞅@@ 4
睬@@ 4
邨@@ 4
龙 4
得 4
亿韩@@ 4
☆ 4
建国65@@ 4
京津@@ 4
笈@@ 4
芡@@ 4
奎@@ 4
第24@@ 4
膻@@ 4
棘@@ 4
弟 4
嶋@@ 4
畊@@ 4
卟@@ 4
鄙@@ 4
咄@@ 4
兢@@ 4
铁大桥@@ 4
铆@@ 4
锵@@ 4
操 4
料 4
邃@@ 4
罔@@ 4
赫 4
新闻推荐 4
嗮@@ 4
辈子小心@@ 4
声 4
蛤@@ 4
NA@@ 4
曰@@ 4
羲@@ 4
鱼 4
滋扰@@ 4
留 4
困 4
膨@@ 4
代表大会@@ 4
接受群众@@ 4
信 4
潮 4
棠@@ 4
濬@@ 4
导 4
管 4
失 4
史 4
虏@@ 4
学 4
双休@@ 4
疾控@@ 4
荠@@ 4
指数:@@ 4
石景@@ 4
ley@@ 4
环球时报@@ 4
◎@@ 4
挞@@ 4
入 4
创始@@ 4
贴 4
歷@@ 4
锹@@ 4
攸@@ 4
我不是@@ 4
妆 4
有 4
簸@@ 4
嗣@@ 4
Galax@@ 4
籁@@ 4
襦@@ 4
娼@@ 4
闱@@ 4
畿@@ 4
庠@@ 4
东条@@ 4
菠@@ 4
娓@@ 4
膳@@ 4
焊@@ 4
序 4
触犯《公安条例》@@ 4
雁涛@@ 4
炊@@ 4
含韵@@ 4
媞@@ 4
晗@@ 4
醛 4
刘松@@ 4
商合杭@@ 4
晓棠@@ 4
丕@@ 4
喔@@ 4
博物院@@ 4
菅@@ 4
巴马@@ 4
缺铁@@ 4
黑 4
视频:@@ 4
实 3
我们推进改革的根本目的,是要让国家变得更加富强、让社会变得更加公平正义、让人民生活得更加美好@@ 3
窨@@ 3
督 3
村 3
始,万象更新@@ 3
辞旧迎新之际@@ 3
诚挚的@@ 3
各种风险@@ 3
过上更加幸福@@ 3
锲@@ 3
周 3
义 3
新篇章@@ 3
婴 3
岳伦@@ 3
画 3
岚@@ 3
第一艘@@ 3
飨@@ 3
建设发展@@ 3
谈 3
表 3
肮@@ 3
单纯的@@ 3
营可@@ 3
闵@@ 3
锟@@ 3
二〇一四年@@ 3
铎@@ 3
钊@@ 3
纪委、@@ 3
秒 3
府 3
集体自卫@@ 3
拮@@ 3
契 3
祖国、@@ 3
超额@@ 3
楫@@ 3
劲儿,@@ 3
絮@@ 3
霭@@ 3
交规@@ 3
联邦调查@@ 3
继 3
漩@@ 3
隧@@ 3
出新的@@ 3
巯@@ 3
汰@@ 3
药品生产质量管理@@ 3
组织机构@@ 3
泱@@ 3
饷@@ 3
憔@@ 3
悴@@ 3
我们这个@@ 3
寮@@ 3
腩@@ 3
昙@@ 3
动车组列车上吸烟或者在其他列车的禁烟区域@@ 3
-25@@ 3
埂@@ 3
iss@@ 3
锏@@ 3
颚@@ 3
选 3
为核心的@@ 3
上河@@ 3
篱@@ 3
吴天@@ 3
娣@@ 3
谢 3
泪 3
则 3
莘@@ 3
酰@@ 3
嗔@@ 3
加 3
胖 3
是需要@@ 3
矫正@@ 3
睑@@ 3
劳 3
农”@@ 3
确权@@ 3
血和@@ 3
吃萝卜@@ 3
懦@@ 3
床 3
胚@@ 3
耳 3
仁 3
茄 3
粱@@ 3
枣 3
芘@@ 3
佢@@ 3
哋@@ 3
嘅@@ 3
油 3
复旦@@ 3
寿 3
推进改革的@@ 3
治理能力@@ 3
市场在资源配置@@ 3
统 3
童 3
o 3
atch@@ 3
官 3
打 3
池 3
游 3
我们共同@@ 3
伟英@@ 3
前所未@@ 3
下 3
斜 3
苗 3
耽@@ 3
鬃@@ 3
绸@@ 3
爆竹@@ 3
仍 3
,各界@@ 3
待观察。 3
举 3
辽宁舰为核心的@@ 3
敲诈@@ 3
恵@@ 3
馁@@ 3
岖@@ 3
。中国人民@@ 3
捕 3
实实在@@ 3
项 3
潼@@ 3
笑 3
鹭@@ 3
铐@@ 3
危楼@@ 3
服 3
红光@@ 3
旖@@ 3
玻@@ 3
民生实事@@ 3
自动填写@@ 3
≥@@ 3
域 3
策 3
遇 3
晔@@ 3
往 3
万象@@ 3
顶 3
光芬@@ 3
椪@@ 3
踪 3
晏@@ 3
骊@@ 3
釜@@ 3
环保局局长@@ 3
蜗@@ 3
杉@@ 3
歌 3
亢@@ 3
谛@@ 3
丁 3
丐@@ 3
前 3
跳 3
每个家庭@@ 3
龄 3
蟒@@ 3
篓@@ 3
团 3
蚂@@ 3
炀@@ 3
居环境@@ 3
分分钟@@ 3
厂 3
遏@@ 3
全 3
纾@@ 3
阿曼@@ 3
与韩国@@ 3
育 3
龋@@ 3
潦@@ 3
峰 3
萃@@ 3
践@@ 3
批 3
溉@@ 3
中起@@ 3
回 3
[京华@@ 3
告 3
辆 3
安 3
祟@@ 3
人民网1月2日@@ 3
涸@@ 3
为受@@ 3
称 3
国军@@ 3
-8@@ 3
侬@@ 3
训 3
清 3
捧 3
靶@@ 3
赘@@ 3
罡@@ 3
熹@@ 3
莱坞@@ 3
逛 3
胤@@ 3
禛@@ 3
朕@@ 3
元复始,万象更新@@ 3
勘测@@ 3
花香@@ 3
雍@@ 3
稞@@ 3
革 3
嚏@@ 3
人送外号@@ 3
哥 3
雄 3
黯然@@ 3
鞘@@ 3
识 3
飓@@ 3
思 3
荼@@ 3
寞@@ 3
趸@@ 3
宇 3
准岳母@@ 3
拖 3
驻捷克大使@@ 3
驻捷克@@ 3
求 3
啬@@ 3
退 3
项试验和训练@@ 3
樟@@ 3
翔安@@ 3
嗨@@ 3
匙@@ 3
缰@@ 3
阑@@ 3
抓 3
俊 3
萦@@ 3
湖新@@ 3
唬@@ 3
噜@@ 3
佝@@ 3
偻@@ 3
真 3
晨 3
预示@@ 3
蔽@@ 3
体汉字@@ 3
可 3
遴@@ 3
棋 3
翱@@ 3
壅@@ 3
咛@@ 3
斤 3
男 3
党支@@ 3
村支@@ 3
村官@@ 3
铛@@ 3
购 3
马俊@@ 3
弩@@ 3
账单@@ 3
曙@@ 3
蛟@@ 3
侃@@ 3
焉@@ 3
淼@@ 3
遐@@ 3
郸@@ 3
生元@@ 3
嗝@@ 3
瞳@@ 3
宝 3
兀@@ 3
会议员@@ 3
斡@@ 3
佩斯@@ 3
通信、@@ 3
究 3
复旦大学附属眼耳鼻喉科@@ 3
眼耳鼻@@ 3
能 3
诬@@ 3
夭@@ 3
金丝@@ 3
茧@@ 3
报告个人有关事项@@ 3
向美方@@ 3
两桶汽油@@ 3
蕊@@ 3
自己的梦想@@ 3
浩瀚@@ 3
… 3
翎@@ 3
唁@@ 3
哆@@ 3
嗦@@ 3
刑警队@@ 3
并轨@@ 3
主 3
孙国@@ 3
隅@@ 3
蝉@@ 3
莹 3
侏@@ 3
毂@@ 3
敞篷@@ 3
莠@@ 3
寝@@ 3
唱 3
咯@@ 3
屏蔽@@ 3
一辈子小心@@ 3
华国@@ 3
绰@@ 3
归 3
筠@@ 3
别 3
莉 3
郅@@ 3
航 3
塚@@ 3
璧@@ 3
谒@@ 3
祀@@ 3
教 3
酣@@ 3
饵@@ 3
姥@@ 3
例 3
大伟@@ 3
便 3
焯@@ 3
毒 3
无许可证情况下进入@@ 3
强行闯入@@ 3
啉@@ 3
问政@@ 3
与女@@ 3
慵@@ 3
矗@@ 3
璇@@ 3
雉@@ 3
鲤@@ 3
箕@@ 3
地利@@ 3
没有及时@@ 3
、谢娜@@ 3
委 3
适 3
、气象@@ 3
孵@@ 3
槌@@ 3
怒 3
妤@@ 3
架 3
BI@@ 3
影响到了@@ 3
劾@@ 3
咨@@ 3
砷@@ 3
缓 3
吋@@ 3
钜@@ 3
鸡 3
绍卡利斯基院士”号@@ 3
係@@ 3
衩@@ 3
卡 3
榔@@ 3
宁 3
膛@@ 3
争光@@ 3
继刚@@ 3
遛@@ 3
眷@@ 3
涨 3
诀@@ 3
僻@@ 3
闹 3
无机@@ 3
永 3
* 3
崽@@ 3
橱@@ 3
界 3
妩@@ 3
蓥@@ 3
创 3
瑰@@ 3
缇@@ 3
包 3
孳@@ 3
斓@@ 3
赵公@@ 3
贿选@@ 3
持 3
货 3
越 3
版 3
C 3
兰特@@ 3
焘@@ 3
孽@@ 3
羌@@ 3
瓒@@ 3
阪@@ 3
婢@@ 3
秽@@ 3
陵王@@ 3
嚎@@ 3
痢@@ 3
及社会@@ 3
麽@@ 3
质 3
~ 3
瘦 3
苡@@ 3
唆@@ 3
司法机关@@ 3
胡国@@ 3
秩@@ 3
克 3
黝@@ 3
钰@@ 3
贲@@ 3
旻@@ 3
垄@@ 3
伏尔加@@ 3
撂@@ 3
爱乐@@ 3
航站@@ 3
俾@@ 3
福清@@ 3
湍@@ 3
舶@@ 3
普生@@ 3
嵩@@ 3
矸@@ 3
犯事@@ 3
确 3
的人,我们@@ 2
暖 2
不移@@ 2
70多亿人共同生活在我们这个星球上,应该守望相助、同舟共济、共同发展@@ 2
,我们将在改革的道路上迈出新的@@ 2
很不平凡的一年@@ 2
战胜了各种困难和挑战@@ 2
老百姓过上更加幸福的生活,还有大量工作要做@@ 2
一四年@@ 2
我们即将迎来充满希望的2014年@@ 2
元复始,万象更新。在这里,我向全国各族人民,向香港特别行政区同胞和澳门特别行政区同胞,向台湾同胞和海外侨胞,向世界各国和各地区的朋友们,致以新年的祝福@@ 2
老人们健康!祝福孩子们快乐!祝福每个家庭幸福安康! 2
对全面深化改革作出总体部署,共同描绘了未来发展的宏伟蓝图@@ 2
,我们将在改革的道路上迈出新的步伐。 2
分耕耘,一分收获。在改革开放的伟大实践中,我们已经创造了无数辉煌。我坚信,中国人民必将创造出新的辉煌。 2
宇宙浩瀚,星汉灿烂@@ 2
70多亿人共同生活在我们这个星球上,应该守望相助、同舟共济、共同@@ 2
真诚希望,世界各国人民在实现各自梦想的过程中相互理解、相互帮助,努力把我们赖以生存的地球建设成为共同的美好@@ 2
国际收支@@ 2
辞 2
实现中华民族伟大复兴@@ 2
幸福安康@@ 2
全面建成小康@@ 2
排 2
厝@@ 2
和无党派人士@@ 2
更加幸福@@ 2
工人、农民、知识分子、干部@@ 2
香港特别行政区同胞@@ 2
澳门特别行政区同胞@@ 2
台湾同胞和海外侨胞,向@@ 2
致以诚挚的@@ 2
各种风险和挑战@@ 2
全面深化改革作出总体部署@@ 2
以习近平同志@@ 2
为总书记的@@ 2
诙@@ 2
账 2
膺@@ 2
佘@@ 2
招 2
鳌@@ 2
500元以上@@ 2
深 2
降 2
练 2
盗 2
冰 2
谋 2
易 2
陈奕@@ 2
贵 2
稅@@ 2
糗@@ 2
篡@@ 2
绥@@ 2
洙@@ 2
夫 2
恐 2
各族人民,向@@ 2
尴@@ 2
尬 2
近似@@ 2
72小时过境@@ 2
新交规@@ 2
热 2
拎着@@ 2
踢足球@@ 2
趵@@ 2
葫@@ 2
疽@@ 2
她 2
鹄@@ 2
答 2
Ⅷ@@ 2
讨要@@ 2
汝@@ 2
燎@@ 2
古丽@@ 2
,一分@@ 2
勒乡@@ 2
吐尔@@ 2
将全面启动@@ 2
首度曝光。@@ 2
济 2
保持适度@@ 2
渺@@ 2
罗伯@@ 2
舔@@ 2
眩@@ 2
仪 2
演示@@ 2
切 2
锂@@ 2
俺@@ 2
μ@@ 2
极 2
洞 2
克兰@@ 2
偎@@ 2
止 2
演 2
篝@@ 2
姮@@ 2
梵@@ 2
蜢@@ 2
丨@@ 2
摩 2
登 2
婧 2
俬@@ 2
部电话@@ 2
玥@@ 2
龌@@ 2
龊@@ 2
孩 2
和 2
﹤@@ 2
槁@@ 2
媳@@ 2
泽楷@@ 2
寡妇@@ 2
始 2
沛 2
晓 2
键 2
&@@ 2
幡@@ 2
最 2
胱@@ 2
邋@@ 2
遢@@ 2
蹋@@ 2
芽 2
累 2
瓤@@ 2
煸@@ 2
叶 2
基亚@@ 2
颖 2
兵 2
衷心的@@ 2
机前买票@@ 2
庚 2
这里,我@@ 2
体系和治理能力@@ 2
老有所@@ 2
碳水@@ 2
化合@@ 2
嘭@@ 2
灾 2
iW@@ 2
V 2
饕@@ 2
餮@@ 2
栋 2
肿 2
锻@@ 2
家人团聚@@ 2
怪 2
壁 2
吻 2
葡@@ 2
萄 2
铅 2
援 2
安门@@ 2
堵 2
涔@@ 2
宜 2
。”这位@@ 2
冢@@ 2
违反中央八项规定@@ 2
塘 2
约 2
鹦@@ 2
墅 2
栉@@ 2
人民日报》@@ 2
能力等@@ 2
整修@@ 2
三亚中院办公楼@@ 2
无下@@ 2
旎@@ 2
市长肖杰@@ 2
人民共和国@@ 2
机遇之@@ 2
跬@@ 2
海口环海大厦@@ 2
埇@@ 2
你;@@ 2
十件民生实事@@ 2
幄@@ 2
辉煌。 2
擞@@ 2
变成了不断摇动的@@ 2
大小写@@ 2
羊城@@ 2
陆 2
天气气候@@ 2
m 2
视窗@@ 2
忏@@ 2
雅 2
停 2
焦 2
江 2
樵@@ 2
动车组列车上吸烟@@ 2
哟@@ 2
帚@@ 2
使用的是@@ 2
猾@@ 2
廿@@ 2
瑶 2
镭@@ 2
种 2
耳鼻@@ 2
骋@@ 2
差 2
波 2
送回家@@ 2
吭@@ 2
听 2
谕@@ 2
舰 2
国家主席习近平发表新年贺词@@ 2
看到,习近平办公室@@ 2
是一幅长城画作,办公桌上有三部电话(二红一白),身后书架上摆放@@ 2
幅照片,分别是:他与家人推着轮椅上的父亲、他牵母亲的手散步、他与夫人合影、他骑着自行车载着女儿@@ 2
幅长城画@@ 2
与家人推着轮椅上的@@ 2
载着女儿@@ 2
母亲的手散步@@ 2
艰苦奋斗,共同谱写伟大祖国发展的时代新篇章。 2
营造有利于@@ 2
蝙@@ 2
蝠@@ 2
皋@@ 2
吞吐@@ 2
稂@@ 2
笔记@@ 2
冲 2
办公桌上有@@ 2
肖 2
清明上河图@@ 2
胥@@ 2
篙@@ 2
汴@@ 2
上河图@@ 2
柚@@ 2
塬@@ 2
旭 2
实战化@@ 2
⑤@@ 2
烔@@ 2
铁 2
奈 2
碚@@ 2
搞垮一间@@ 2
六张@@ 2
新闻联播》@@ 2
诽谤和@@ 2
咻@@ 2
初 2
尔加@@ 2
超 2
睪@@ 2
痿@@ 2
症 2
社 2
诏@@ 2
选举的@@ 2
决定免去@@ 2
址 2
谯@@ 2
\@@ 2
桥 2
尧@@ 2
东大街@@ 2
掴@@ 2
匝@@ 2
人有效@@ 2
蕾 2
缺铁性@@ 2
疗 2
副主席童名谦@@ 2
韪@@ 2
狰@@ 2
狞@@ 2
罄@@ 2
绞刑@@ 2
俚@@ 2
李东@@ 2
》周刊@@ 2
链 2
述 2
营业收入@@ 2
车水@@ 2
澳大@@ 2
赢 2
响 2
捍@@ 2
苞@@ 2
童名@@ 2
谦 2
砻@@ 2
列 2
维 2
旨@@ 2
陲@@ 2
共同生活在@@ 2
祝愿各国人民能够实现自己的梦想@@ 2
新年前夕,国家主席习近平@@ 2
忪@@ 2
啵@@ 2
蝎@@ 2
稚 2
啻@@ 2
衙@@ 2
黜@@ 2
僚@@ 2
亵@@ 2
瓯@@ 2
字符@@ 2
驮@@ 2
烙@@ 2
烨@@ 2
钟汉@@ 2
良 2
殁@@ 2
香港警务处警察公共关系科@@ 2
暮@@ 2
智贤@@ 2
SU@@ 2
订制@@ 2
去 2
吴镇@@ 2
剧 2
联 2
怅@@ 2
黠@@ 2
漫 2
守 2
憎@@ 2
赟@@ 2
还 2
残 2
锄@@ 2
钏@@ 2
禺@@ 2
载 2
和记@@ 2
区环保局@@ 2
﹢@@ 2
令 2
拼 2
想 2
得“@@ 2
和海外@@ 2
映 2
侑@@ 2
枪 2
纨@@ 2
绔@@ 2
箱 2
新办@@ 2
境 2
淆@@ 2
涞@@ 2
M 2
褛@@ 2
丞@@ 2
母舰在高海况条件下的舰艇运动参数、舰体结构应力、舰载机系留载荷测量等总体适航性试验,深水条件下航速测量,以及近似实战条件下航母作战系统感知能力,指挥能力,目标指示能力,综合通信、导航、气象保障能力,空域管理能力等100余项试验和训练课目@@ 2
型号的飞机、水面舰艇和潜艇,有效配合了试验,同时带动了部队实战化@@ 2
诗诗@@ 2
璞@@ 2
岩 2
枚 2
嗲@@ 2
课 2
赊@@ 2
肱@@ 2
痂@@ 2
出不@@ 2
骑着@@ 2
值 2
集体林权@@ 2
扬 2
按 2
状 2
毛里求@@ 2
尔兰@@ 2
花 2
霓@@ 2
锦 2
夜 2
罪刑事拘留@@ 2
歹@@ 2
採@@ 2
蔷@@ 2
耆@@ 2
咩@@ 2
马英@@ 2
筱@@ 2
耕耘@@ 2
抠@@ 2
袂@@ 2
见习@@ 2
之一,就是@@ 2
调整完善生育@@ 2
早熟@@ 2
篪@@ 2
遒@@ 2
垠@@ 2
逆回购@@ 2
莽@@ 2
嘶@@ 2
依法提起公诉@@ 2
罪 2
某军@@ 2
拘 2
A 2
逃 2
棺@@ 2
司 2
壑@@ 2
姓大学生@@ 2
瘟@@ 2
毙 2
鳄@@ 2
市委会@@ 2
诤@@ 2
推进国家治理体系和治理能力@@ 2
国家变得更加富强@@ 2
变得更加公平正义@@ 2
人民生活得更加美好@@ 2
踢足球的照片@@ 2
钥@@ 2
佗@@ 2
太保@@ 2
杲@@ 2
#@@ 2
﹪@@ 2
询 2
撒 2
端 2
疑 2
诧@@ 2
源 2
殆@@ 2
Wind@@ 2
恼 2
Mot@@ 2
里 2
坍@@ 2
颗粒@@ 2
饼 2
变速@@ 2
术 2
讴@@ 2
辐@@ 2
铬@@ 2
umia@@ 2
斌 2
通 2
湖 2
哈哈哈哈@@ 2
鹅 2
窈@@ 2
窕@@ 2
骄@@ 2
,还有大量@@ 2
轶@@ 2
红白歌@@ 2
斟@@ 2
湘 2
瞠@@ 2
兽 2
a 2
Ⅱ@@ 2
舞 2
争 2
亘@@ 2
曲 2
比 2
轲@@ 2
扉@@ 2
邂@@ 2
逅@@ 2
雷锋@@ 2
份 2
祺@@ 2
坚守在工作岗位@@ 2
亚 2
过 2
街 2
硼@@ 2
爱美@@ 2
老字@@ 2
摇 2
的伟大事业@@ 2
扎伊@@ 2
妯@@ 2
娌@@ 2
饽@@ 2
蜻@@ 2
蜓@@ 2
垡@@ 2
激动,@@ 2
肥 2
痤@@ 2
啖@@ 2
疣@@ 2
兴 2
忆 2
萘@@ 2
久 2
毎@@ 2
疸@@ 2
驻 2
会动@@ 2
为祖国@@ 2
瑛 2
斯科@@ 2
住 2
江堰@@ 2
霏 2
懑@@ 2
铣@@ 2
菌群@@ 2
揩@@ 2
妹 2
歆@@ 2
娘 2
糍@@ 2
踌@@ 2
躇@@ 2
β@@ 2
泌@@ 2
烚@@ 2
喝 2
谚@@ 2
啄@@ 2
蜞@@ 2
挪用公款@@ 2
嬷@@ 2
畦@@ 2
雒@@ 2
欣 2
采取有效措施@@ 2
海军相关部队出动@@ 2
职守@@ 2
战胜了@@ 2
舸@@ 2
首次组织了以辽宁舰为核心的编队航行训练@@ 2
首度曝光书架上摆放@@ 2
汐@@ 2
黟@@ 2
古井贡@@ 2
古井@@ 2
关塔@@ 2
粕@@ 2
S 2
娃 2
镐@@ 2
胎 2
马伊@@ 2
G 2
泉 2
法令@@ 2
褫@@ 2
谆@@ 2
谏@@ 2
粒 2
无机气溶胶@@ 2
假 2
华尔@@ 2
苫@@ 2
璜@@ 2
矿长@@ 2
知心热线@@ 2
虑 2
37天的@@ 2
辽宁舰自2013年11月26日从@@ 2
起航首次赴南海海域试验训练以来,@@ 2
环球时报》记者@@ 2
某军港@@ 2
佔@@ 2
為@@ 2
,[最低气温@@ 2
菲 2
睐 2
满 2
绍 2
眈@@ 2
幕 2
硒@@ 2
晁@@ 2
哦 2
都 2
记者 2
习 2
知心@@ 2
愁 2
算 2
邯@@ 2
氛@@ 2
嗡@@ 2
醺@@ 2
偌@@ 2
小姨@@ 2
凋@@ 2
北京博爱医院@@ 2
卫生局医政@@ 2
痈@@ 2
讼 2
毛主席是@@ 2
。在改革开放@@ 2
霞 2
厚非@@ 2
匪 2
绍卡利斯基院士@@ 2
转 2
赏 2
嘞@@ 2
巳@@ 2
佩伦@@ 2
稣@@ 2
珺 2
讨 2
莞@@ 2
笔畅@@ 2
慌 2
蹒@@ 2
跚@@ 2
瀛@@ 2
异 2
ela@@ 2
磺@@ 2
毫无疑@@ 2
怔@@ 2
湖南省政协原副主席童名谦@@ 2
皑@@ 2
螨@@ 2
忐@@ 2
忑@@ 2
锅 2
痰 2
厅 2
狈@@ 2
p 2
吴佩@@ 2
玫@@ 2
笺@@ 2
旌@@ 2
惑 2
径 2
是当前@@ 2
T 2
淅@@ 2
和社会保障@@ 2
.c@@ 2
四川省委@@ 2
落 2
篦@@ 2
抿@@ 2
ond@@ 2
萌 2
呗@@ 2
办 2
茌@@ 2
砀@@ 2
喇@@ 2
诘@@ 2
璠@@ 2
嫡@@ 2
锃@@ 2
[...]
